{"##vormige": 29573, "##hui": 26013, "maritiem": 15376, "afstandelijk": 8324, "##vloer": 29514, "##asi": 24071, "Dijk": 2133, "Venezolaans": 7272, "voorval": 21983, "##vanger": 29304, "onverantwoord": 16716, "gedetailleerd": 11961, "langskomen": 14848, "##ontduiking": 27496, "##over": 27632, "Og": 5293, "dagenlang": 10499, "Hoogovens": 3450, "##gegeven": 25441, "verankerd": 20842, "marxis": 15390, "pers": 17385, "##meer": 27087, "##ila": 26168, "aantallen": 7996, "gesticht": 12470, "onduidelijk": 16454, "##bewijs": 24318, "Davenport": 2051, "Hutu": 3501, "koetsier": 14470, "grappig": 12850, "bewaker": 9429, "gemaskerde": 12205, "zelfstandige": 22712, "outsider": 17066, "omstander": 16279, "verbreid": 20901, "##LIJK": 23470, "Aalter": 557, "zwaan": 22912, "Terschelling": 6878, "##concentratie": 24687, "wensen": 22363, "##landen": 26703, "blouse": 9698, "FBI": 2547, "bibliothecar": 9531, "Rudi": 6118, "##bulletin": 24503, "##CE": 23236, "berekenen": 9154, "zondagmiddag": 22824, "Dagelijks": 2017, "amandel": 8433, "biblio": 9530, "Za\u00efre": 7768, "explosie": 11452, "ongelijk": 16477, "verschilt": 21320, "successen": 19758, "##maker": 27026, "aantrad": 8001, "burger": 10008, "terugtrekking": 20025, "achterste": 8130, "liederen": 15042, "vijfentwintig": 21661, "ploegleider": 17535, "kiezers": 14241, "Democratie": 2081, "##gewandeld": 25663, "feestdag": 11544, "ervan": 11360, "Holland": 3409, "huur": 13526, "verdriet": 20945, "##duc": 24971, "##woning": 29778, "stortvloed": 19623, "Arch": 873, "Ibrahimovic": 3543, "gezellig": 12630, "zuid": 22876, "erotische": 11353, "Toscane": 7019, "##ereert": 25145, "versterkt": 21379, "voetbal": 21803, "Ned": 5106, "##GG": 23362, "appartement": 8521, "halve": 13018, "nano": 15939, "##brouck": 24485, "Hor": 3460, "overweging": 17183, "##VV": 23733, "1836": 236, "Madrid": 4566, "Ulrich": 7142, "Jou": 3813, "##hamed": 25853, "##tegen": 28916, "geselecteerd": 12422, "##golf": 25753, "Agent": 651, "##tap": 28893, "bejaarden": 8965, "schatkist": 18610, "##iang": 26042, "Champ": 1714, "Bolle": 1341, "Kook": 4090, "amnestie": 8456, "constructie": 10340, "leiden": 14929, "onderkaak": 16385, "doelpunten": 10804, "##straten": 28795, "##icia": 26059, "chemo": 10131, "##RON": 23621, "##ondanks": 27458, "beheerste": 8938, "##ock": 27374, "archeologe": 8541, "##gerechtigde": 25558, "##istische": 26296, "IJmuiden": 3520, "leggen": 14921, "advocaat": 8209, "Publicatie": 5788, "Sluiter": 6500, "handelingen": 13034, "Jeugd": 3744, "pruik": 17855, "Kel": 3944, "versteend": 21374, "Dender": 2083, "##1860": 23021, "##doc": 24886, "zakelijk": 22652, "##ple": 27813, "begraafplaats": 8897, "##bussen": 24516, "Australisch": 968, "word": 22590, "##DG": 23265, "Kampioenschap": 3892, "parasiet": 17263, "oogst": 16775, "##regulering": 28075, "Eindhoven": 2386, "licht": 15025, "verkreeg": 21112, "Ethiopi\u00eb": 2494, "lichtpuntje": 15034, "veerkracht": 20794, "##gestoomd": 25618, "grondwet": 12934, "Sebasti": 6341, "bezitten": 9498, "scheel": 18618, "##can": 24533, "##ende": 25114, "geestverwant": 12013, "Guinness": 3107, "duidelijkheid": 11040, "Philips": 5599, "Drum": 2261, "Michigan": 4842, "FC": 2548, "Katholieke": 3924, "Sean": 6338, "##pass": 27707, "Twijfel": 7112, "##genomen": 25530, "##lijder": 26859, "##verschil": 29411, "hypotheekrente": 13547, "civiel": 10178, "gros": 12951, "##gelukkig": 25505, "##kke": 26500, "Erwin": 2482, "##analist": 23969, "personen": 17396, "Zaandam": 7751, "moeiteloos": 15734, "bekende": 8972, "podium": 17559, "Braun": 1431, "##leving": 26810, "High": 3360, "zonnepane": 22838, "Thialf": 6912, "ministerraad": 15655, "klink": 14361, "Roche": 6021, "geco\u00f6rdineerd": 11933, "vrome": 22095, "##bruin": 24491, "chirurg": 10139, "honing": 13379, "verpletterend": 21266, "incident": 13656, "##ren": 28100, "toezichthouder": 20210, "zou": 22867, "##trouw": 29121, "FM": 2550, "beeld": 8857, "Ticket": 6939, "plussers": 17555, "Seine": 6353, "experimenteren": 11441, "rendement": 18202, "begaf": 8879, "veldtocht": 20817, "rabbijn": 17936, "Susanne": 6759, "##oso": 27595, "##gelezen": 25495, "Edel": 2342, "buitenwereld": 9984, "##sessie": 28455, "liepen": 15060, "eergisteren": 11156, "klerk": 14340, "koning": 14512, "##46": 23095, "\u00bb": 59, "handtekeningen": 13051, "##a\u00ebl": 24144, "##ano": 23999, "begrotings": 8916, "gesp": 12442, "doofde": 10866, "Russisch": 6140, "roedel": 18364, "strafrechtelijk": 19643, "intrige": 13851, "authentieke": 8639, "vergelijkbaar": 21000, "verkleind": 21094, "##geroerd": 25570, "##schildering": 28374, "kale": 14045, "##l": 124, "Ker": 3963, "Koffie": 4067, "akoestisch": 8376, "Boulevard": 1390, "verguld": 21024, "McLaren": 4735, "##vat": 29313, "##zoeksrechter": 29915, "##\u00fb": 30021, "ongehuwd": 16474, "gemist": 12226, "Aznar": 994, "Yang": 7721, "Amsterdammer": 773, "Klaar": 4017, "garde": 11818, "misleid": 15682, "Komend": 4076, "##bella": 24248, "ergste": 11335, "restant": 18248, "software": 19159, "Berend": 1180, "kritisch": 14659, "Peer": 5537, "Fari": 2579, "Or": 5383, "happy": 13063, "titelverdediger": 20123, "##rossen": 28250, "##agenten": 23882, "Hingis": 3374, "vakmanschap": 20708, "leukst": 14979, "vrijlating": 22079, "overweldigend": 17185, "##ell": 25082, "al": 8378, "kubi": 14699, "##netjes": 27293, "voorspelbaar": 21946, "Er": 2466, "1928": 306, "Free": 2747, "vleugel": 21732, "##COM": 23245, "Oostendse": 5364, "servet": 18882, "onverminderd": 16723, "wezen": 22438, "enzym": 11309, "kopman": 14548, "rit": 18339, "Villa": 7361, "riskant": 18336, "Pleas": 5660, "interpreteer": 13840, "belangrijke": 9021, "verscheidene": 21306, "##book": 24418, "hart": 13081, "tekeningen": 19924, "wand": 22213, "##\u00db": 30006, "Don": 2200, "37": 436, "Tamil": 6819, "Presley": 5733, "up": 20661, "toog": 20231, "Oudenaarde": 5418, "veiligheid": 20808, "1989": 367, "gelegerd": 12158, "idyllisch": 13582, "Kuifje": 4155, "vertrouw": 21442, "##DER": 23263, "##ball": 24165, "##zua": 29931, "diepte": 10692, "verpleegster": 21263, "##tevens": 28965, "Kru": 4148, "enqu": 11298, "stemmetje": 19491, "##stitution": 28758, "intense": 13811, "macht": 15280, "##gezonderd": 25700, "vroege": 22088, "##reservaat": 28111, "##span": 28585, "Vis": 7378, "log": 15137, "biedt": 9539, "rechter": 18040, "1993": 371, "beschaamd": 9187, "Amstel": 770, "Vlinder": 7405, "commun": 10248, "Wo": 7676, "verhoogde": 21047, "##vlam": 29492, "176": 224, "Your": 7740, "kapitein": 14107, "kerkgebouw": 14195, "eetlepel": 11165, "ontsteld": 16663, "##ri": 28133, "P\u00e9": 5805, "bleke": 9637, "overbruggen": 17079, "##ware": 29647, "Katerin": 3921, "tabak": 19821, "Feitelijk": 2599, "duikers": 11044, "heft": 13137, "Bahrein": 1035, "display": 10756, "Ster": 6667, "ramde": 17965, "bereikten": 9151, "levensgevaar": 14994, "spande": 19208, "gedoe": 11975, "verwanten": 21505, "##elarij": 25065, "##U": 107, "Wilt": 7652, "worstelen": 22599, "##arm": 24047, "Janneke": 3696, "uitkomst": 20566, "daalde": 10465, "schrede": 18768, "##sc\u00e8ne": 28431, "##sluitsel": 28540, "Volvo": 7435, "manche": 15337, "##ennessee": 25122, "##zeil": 29863, "gehavend": 12055, "Volks": 7428, "##sse": 28657, "ontmaskeren": 16625, "benadrukte": 9099, "kreupel": 14638, "##inta": 26243, "geverfd": 12544, "remise": 18197, "Field": 2628, "vaat": 20684, "Van": 7222, "##mast": 27055, "Texel": 6895, "twaalfde": 20432, "Hahaha": 3159, "Konings": 4084, "experimenten": 11440, "kapitaal": 14104, "gedicht": 11965, "ermee": 11342, "##amon": 23963, "derby": 10620, "elleboog": 11264, "citeren": 10174, "##kreten": 26628, "Sylvain": 6777, "##mische": 27150, "gerinkel": 12371, "Last": 4238, "staf": 19397, "cameraman": 10050, "exploderen": 11448, "2009": 390, "Kab": 3870, "incest": 13655, "uitbreid": 20481, "Bauer": 1096, "##ytisc": 29827, "aanraken": 7973, "reling": 18190, "##witte": 29764, "tulpen": 20411, "##strepen": 28804, "##loo": 26942, "##fin": 25282, "Brugse": 1497, "volle": 21850, "Neotropisch": 5130, "pols": 17587, "euro": 11392, "##ig": 26134, "vrij": 22065, "Carlier": 1638, "##poging": 27839, "##program": 27927, "intimideren": 13848, "1972": 350, "##gepompt": 25548, "staat": 19377, "Concre": 1882, "grazen": 12863, "krijgsmacht": 14648, "Afghaans": 636, "element": 11250, "nogmaals": 16100, "Gogh": 2995, "werkvloer": 22406, "##sjenko": 28496, "Mam": 4603, "oneerlijk": 16455, "Leen": 4273, "toegebracht": 20138, "##kunnen": 26651, "Psycholog": 5784, "rouw": 18440, "Juffrouw": 3826, "verticale": 21421, "##branche": 24456, "geserveerd": 12423, "Vivian": 7387, "blauw": 9631, "zeker": 22698, "N": 41, "monumentale": 15786, "race": 17937, "aanslagen": 7981, "steunde": 19521, "geritsel": 12372, "\u2013": 60, "besmeurd": 9247, "##CK": 23240, "kanaal": 14074, "##rella": 28094, "literatuur": 15124, "##cle": 24647, "beteugel": 9324, "territoriale": 19995, "smerige": 19083, "##quent": 27966, "toeschouwer": 20181, "Drink": 2251, "##rant": 28020, "wonderbaarlijke": 22565, "##daagse": 24773, "Lodewijk": 4424, "studeerde": 19720, "opgevoed": 16881, "Werf": 7590, "onbetaalbaar": 16337, "##voorziening": 29565, "zijdelings": 22774, "##ures": 29248, "meesterwerk": 15490, "structuur": 19714, "cocktail": 10205, "onderschept": 16407, "##bino": 24348, "Monde": 4949, "Academisch": 591, "##mmers": 27163, "##geluid": 25503, "##pper": 27879, "kilometer": 14254, "Robinson": 6019, "uitval": 20612, "bierbrouwer": 9542, "huisje": 13489, "getuige": 12514, "Mustafa": 5029, "dragen": 10943, "Pra": 5724, "Turks": 7100, "grondig": 12927, "Dus": 2294, "ru\u00efne": 18500, "##omium": 27448, "##verdient": 29354, "jeugdige": 13945, "##odes": 27376, "Rock": 6023, "Kip": 4008, "duet": 11035, "overspoeld": 17155, "Turnhout": 7103, "doe": 10790, "##DH": 23266, "zagen": 22649, "verwachte": 21498, "specerijen": 19220, "debacle": 10540, "interactieve": 13819, "touroperator": 20263, "Ci": 1780, "trilling": 20360, "Saoedi": 6234, "Russin": 6139, "##LO": 23477, "oppervlakkig": 16941, "sneed": 19108, "gok": 12792, "overgehe": 17100, "Sheila": 6405, "verstandelijk": 21370, "Harald": 3198, "Als": 738, "meeste": 15485, "smaakt": 19060, "wijzend": 22476, "##house": 26001, "111": 183, "prachtige": 17663, "##waai": 29614, "omvangrijke": 16287, "serre": 18878, "dobbel": 10770, "maak": 15251, "universiteit": 20658, "Pyrenee\u00ebn": 5804, "Tara": 6828, "we": 22264, "glimlachte": 12745, "toenmalige": 20168, "enig": 11290, "buien": 9960, "##naakt": 27247, "##ves": 29441, "bekleed": 8989, "##greep": 25784, "##klaar": 26507, "even": 11403, "##regeling": 28065, "begane": 8880, "Telenet": 6857, "commerce": 10241, "Madis": 4564, "##evic": 25217, "sketch": 18956, "overtuiging": 17172, "verdienen": 20928, "voorrang": 21942, "huurder": 13528, "bondgenoot": 9761, "overeind": 17093, "grap": 12847, "binnendringen": 9581, "##drukte": 24966, "gebaa": 11858, "onderworpen": 16435, "vaag": 20674, "##skaja": 28500, "cholesterol": 10143, "##ons": 27492, "lat": 14870, "lijkt": 15083, "vatte": 20772, "##agenda": 23880, "uitgebreide": 20510, "##ctor": 24744, "Flor": 2670, "gewichtig": 12600, "interpreteren": 13841, "##inzameling": 26248, "ordinair": 17022, "/": 14, "onderbrak": 16353, "ongeoorloofd": 16495, "primeur": 17732, "##kla": 26506, "##idge": 26081, "Dubbel": 2265, "SER": 6163, "buizen": 9987, "##ait": 23901, "vergist": 21015, "geveild": 12540, "Nieuwenhui": 5178, "communicatie": 10250, "fonds": 11669, "##legt": 26758, "christelijke": 10147, "Mu": 5006, "contour": 10361, "Mich": 4831, "zwangere": 22930, "##strijd": 28806, "Sij": 6437, "Overeenkomst": 5426, "Frau": 2739, "breiden": 9881, "Sala": 6201, "Ganz": 2811, "arbeiders": 8532, "verleiden": 21135, "##palen": 27683, "##world": 29791, "bloedend": 9667, "##ex": 25218, "Hendrik": 3301, "##genootschap": 25532, "maanlicht": 15265, "##rood": 28240, "longi": 15158, "bronnen": 9921, "Nim": 5204, "rivier": 18351, "Kamerlid": 3887, "gebouw": 11896, "verdeling": 20921, "reageerde": 18009, "##MM": 23495, "onjuist": 16528, "##lopende": 26956, "vastgoed": 20762, "Beheer": 1132, "VROUW": 7190, "Wie": 7624, "Jongens": 3788, "EUROPESE": 2319, "##vogel": 29542, "veldrijden": 20815, "heelal": 13119, "werkelijke": 22385, "Allemaal": 724, "##ato": 24101, "schapen": 18604, "Best": 1213, "langer": 14844, "Helmond": 3290, "ondenkba": 16347, "##poot": 27854, "Karel": 3905, "Almere": 731, "beschikbaar": 9200, "dashboard": 10531, "Finland": 2643, "##ceptie": 24562, "Ontvang": 5347, "zouden": 22868, "##sterkt": 28734, "etc": 11379, "8000": 498, "pedagogisch": 17346, "Ha": 3134, "capit": 10063, "aanvallers": 8016, "zag": 22648, "knap": 14399, "Schoon": 6305, "##RIJS": 23615, "Evert": 2527, "Computer": 1876, "paddenstoel": 17210, "oren": 17023, "##wet": 29711, "##competitie": 24682, "##dag": 24780, "Jake": 3684, "Ev": 2515, "worm": 22595, "Geluid": 2857, "Mechelse": 4742, "onmiddellijk": 16535, "uiteindelijk": 20497, "verdediger": 20914, "##gestel": 25613, "offs": 16214, "Col": 1838, "thriller": 20067, "##letsel": 26792, "Social": 6525, "nul": 16159, "##takel": 28879, "##ule": 29218, "Commission": 1868, "idealisme": 13567, "verfijnd": 20977, "##ophorus": 27544, "Tielt": 6941, "##guin": 25814, "Haarlem": 3142, "knipperde": 14423, "komen": 14496, "smalend": 19065, "motiveer": 15825, "##nie": 27312, "burcht": 10001, "achterhaald": 8113, "komst": 14504, "autosnelweg": 8658, "hersteld": 13246, "uitverkocht": 20615, "Vanmorgen": 7235, "Je": 3716, "Vanzelfsprekend": 7237, "##beschouwing": 24273, "Jason": 3710, "glasvezel": 12730, "trok": 20373, "Papa": 5483, "smaragd": 19067, "veeg": 20781, "advertenties": 8200, "cal": 10044, "##dreef": 24941, "stroomt": 19707, "land": 14818, "correcte": 10384, "terreurgroep": 19994, "Som": 6541, "##CA": 23232, "##rutha": 28292, "kersvers": 14206, "##sson": 28666, "##barsten": 24179, "terugkeert": 20018, "verwonderd": 21557, "Lid": 4349, "Ardenne": 878, "grasveld": 12855, "Summer": 6746, "geringste": 12370, "\u00ea": 30058, "stereotype": 19501, "scherm": 18654, "##politiek": 27848, "Versatel": 7323, "haastte": 12992, "##ckaert": 24635, "belletje": 9065, "percentage": 17373, "noodsituatie": 16113, "lui": 15213, "spoken": 19305, "##afdeling": 23863, "wijst": 22472, "coulissen": 10395, "Maaike": 4532, "vervolg": 21476, "turbo": 20416, "omvat": 16288, "##zwijm": 29955, "Robeco": 6016, "rustige": 18493, "getraind": 12504, "##llo": 26914, "ramadan": 17964, "afweging": 8341, "onberispelijk": 16332, "idool": 13581, "zestien": 22733, "##gevolg": 25654, "##materiaal": 27060, "kluit": 14383, "vredes": 22035, "##akis": 23910, "grimas": 12891, "Winston": 7663, "vergroeid": 21020, "##keu": 26470, "Isra\u00ebl": 3641, "zuchtend": 22874, "lijd": 15076, "coma": 10224, "inmiddels": 13752, "Officier": 5292, "Dijssel": 2137, "##ma": 26993, "Comt\u00e9": 1877, "cilindrisch": 10160, "look": 15168, "aantekeningen": 7998, "neu": 16039, "##rijk": 28168, "ori\u00ebnteren": 17041, "verkaveling": 21067, "1897": 273, "Beernem": 1125, "v\u00f3\u00f3r": 22137, "beoefen": 9120, "Kameleon": 3885, "r\u00e9": 18502, "vrijgesproken": 22075, "Francis": 2721, "##riep": 28157, "Juni": 3842, "Blake": 1282, "effectieve": 11181, "##bouwer": 24445, "aankomst": 7947, "gedetineerden": 11964, "##salamander": 28302, "Daarna": 2005, "Council": 1936, "specialiteit": 19227, "##auer": 24113, "##IF": 23408, "Versaille": 7322, "Dewael": 2106, "noordoosten": 16126, "Boudewijn": 1389, "oefen": 16191, "##teau": 28905, "provisorisch": 17851, "Corb": 1918, "Pirate": 5638, "gehoorzaamde": 12073, "inventarisatie": 13866, "Zie": 7792, "##III": 23412, "onmetelijk": 16534, "##wi": 29722, "bevalling": 9373, "kwel": 14755, "dak": 10504, "JP": 3665, "travail": 20329, "Solar": 6538, "Zwarte": 7844, "##lampen": 26698, "geruststellend": 12386, "Az": 989, "gleuf": 12734, "##ACHT": 23165, "rekent": 18170, "##vo": 29519, "##zig": 29895, "doorschemeren": 10893, "##baar": 24148, "private": 17747, "job": 13954, "beduidde": 8850, "Bernhard": 1200, "Binnen": 1262, "Rombouts": 6058, "Top": 7010, "gedenk": 11957, "limousine": 15098, "##liswaar": 26894, "gaarne": 11791, "##brecht": 24460, "##draai": 24929, "musea": 15856, "##rijden": 28164, "Soest": 6533, "Antilliaans": 835, "nogal": 16099, "##gehalte": 25450, "kakkerlak": 14044, "gedempte": 11956, "letterlijk": 14971, "Doug": 2226, "di": 10648, "zwembad": 22944, "##uentin": 29180, "daartoe": 10484, "Dan": 2035, "Ooster": 5368, "88": 507, "bedreigen": 8831, "bijwerkingen": 9564, "opge\u00ebist": 16888, "##bru": 24487, "Nathan": 5089, "##pact": 27673, "##ochtans": 27372, "installaties": 13775, "bedreiging": 8833, "secretaresse": 18839, "Graham": 3035, "##ios": 26253, "bondgenootschap": 9762, "praktijk": 17669, "##bur": 24506, "sla": 18959, "gebruiken": 11910, "geestdrift": 12007, "ober": 16171, "bedanken": 8796, "##atlee": 24100, "gezet": 12634, "##ostoma": 27600, "ondernemer": 16396, "demonstratie": 10605, "haalbaar": 12986, "##eter": 25192, "##ezen": 25227, "blozend": 9700, "Gall": 2802, "weldra": 22340, "##planeet": 27801, "gang": 11807, "nou": 16151, "verteerd": 21411, "waarvoor": 22190, "##glimlach": 25737, "##sleutel": 28525, "organisatie": 17026, "riem": 18301, "##vlaag": 29487, "geschud": 12418, "peuter": 17412, "sterkte": 19511, "olijf": 16232, "cilinder": 10159, "UPC": 7126, "Eigenlijk": 2380, "Davies": 2054, "kostbar": 14578, "luisterde": 15229, "tuinbouw": 20407, "Hoogeveen": 3447, "Mc": 4724, "##speel": 28595, "helderheid": 13163, "Antarctic": 829, "Eve": 2520, "##475": 23097, "Shan": 6395, "bereden": 9143, "conservatieve": 10328, "##lud": 26971, "Hugh": 3484, "##muziek": 27242, "vreedzame": 22041, "O": 42, "Riet": 5984, "lenen": 14948, "##reserve": 28112, "cruise": 10440, "Mika": 4864, "wodka": 22539, "Rep": 5935, "zesduizend": 22730, "absolute": 8070, "##der": 24824, "##percentage": 27738, "poppen": 17606, "ethisch": 11383, "rijk": 18311, "##sprong": 28645, "mankeer": 15349, "##po": 27831, "marteling": 15389, "slijm": 19015, "Fatima": 2587, "Trophy": 7062, "##bakken": 24160, "##iana": 26040, "##voet": 29536, "sijpelde": 18926, "##stijl": 28750, "aussi": 8633, "diplomatie": 10735, "new": 16050, "volkstelling": 21848, "Trevor": 7048, "gespannen": 12444, "deelneming": 10568, "stromend": 19696, "Clercq": 1814, "Davy": 2056, "hink": 13302, "staten": 19439, "geaccepteerd": 11841, "achteraan": 8101, "##tekenen": 28925, "weelderig": 22287, "##verspill": 29419, "siste": 18943, "144": 207, "staatsburger": 19380, "Dul": 2289, "Read": 5876, "Ted": 6840, "fu": 11754, "methoden": 15568, "zevende": 22744, "##1882": 23030, "Rang": 5856, "##ik": 26164, "vazal": 20774, "beschouwd": 9209, "##punt": 27955, "Ardennen": 879, "##traject": 29079, "volgens": 21835, "##tunnel": 29145, "##z\u00e9": 29962, "vangen": 20729, "bovenverdieping": 9845, "imponeren": 13635, "heuvels": 13269, "##in": 26191, "Spinoza": 6597, "dominantie": 10830, "bemanning": 9081, "akelig": 8372, "gespierd": 12448, "##lagen": 26688, "Operatie": 5378, "##schepper": 28356, "blijken": 9648, "##portaal": 27861, "##gor": 25758, "##kerk": 26461, "1886": 262, "durfde": 11067, "Chrysom": 1775, "Greet": 3053, "vrouwtje": 22102, "##bevel": 24308, "##leverancier": 26807, "##elftal": 25073, "##fraude": 25334, "##wijck": 29732, "maal": 15254, "##ksel": 26643, "##GO": 23368, "##ppel": 27877, "EMAILADRES": 2313, "Scotland": 6333, "Oxy": 5435, "Plan": 5646, "Belgische": 1156, "theorie": 20060, "gigantische": 12701, "##MER": 23490, "afscheids": 8305, "verslinden": 21348, "##wachting": 29628, "##ogen": 27400, "dance": 10517, "regisseur": 18141, "sticker": 19535, "ge\u00efnspireerd": 12677, "voel": 21791, "draaien": 10938, "zakenbank": 22655, "Valentijn": 7213, "Stevaert": 6675, "juffrouw": 13992, "##verlening": 29387, "gestoken": 12472, "ploegen": 17533, "loop": 15173, "bosjes": 9810, "duin": 11047, "Koop": 4092, "armen": 8562, "bebloed": 8786, "##sberg": 28312, "Po": 5670, "aanmerking": 7960, "Melan": 4771, "kanalen": 14075, "gelijk": 12167, "##geknipt": 25473, "emeritus": 11272, "stallen": 19405, "ge\u00efnstalleerd": 12678, "##athleen": 24090, "Ville": 7363, "schop": 18747, "##los": 26962, "lichtvoetig": 15036, "##zomer": 29919, "Yamaha": 7719, "verblijf": 20877, "Shi": 6409, "knieblessure": 14410, "Lund": 4498, "##zuchtige": 29934, "dreigende": 10957, "gasten": 11826, "##oep": 27389, "handel": 13028, "AVRO": 550, "##onderhandeling": 27462, "Eli": 2404, "daar": 10467, "verkeerde": 21070, "kar": 14115, "zwever": 22953, "debatten": 10543, "beschouwing": 9212, "opeens": 16815, "uitge": 20507, "overgeven": 17104, "Calvin": 1595, "Emanuel": 2426, "Merlijn": 4807, "Georgia": 2891, "bekerfinale": 8981, "uw": 20672, "##krachten": 26618, "Brian": 1454, "nicht": 16052, "Twitter": 7115, "captain": 10065, "Toneel": 7003, "balans": 8708, "jongedame": 13964, "lawaai": 14878, "opriep": 16954, "gekraak": 12120, "wijken": 22467, "##fiasco": 25265, "##heu": 25928, "weerspiegel": 22298, "corrigeer": 10389, "onrechtmatig": 16556, "debat": 10541, "generaties": 12255, "vreemd": 22042, "hoger": 13347, "##quil": 27971, "buit": 9966, "serieuze": 18877, "Benedictus": 1168, "Angelsaksisch": 805, "People": 5552, "be\u00ebindig": 9523, "##ogenblikken": 27401, "Roger": 6043, "##sion": 28489, "Kou": 4117, "Fox": 2712, "Noordzee": 5234, "beweegreden": 9438, "Clerck": 1813, "##ical": 26053, "aangeven": 7924, "##bord": 24425, "vervalst": 21458, "exclusief": 11423, "##EB": 23282, "Rav": 5867, "nestelde": 16029, "124": 193, "Hanna": 3188, "##gal": 25359, "Alice": 714, "onregelmatig": 16559, "palen": 17226, "Liga": 4365, "##uleerd": 29219, "euvel": 11397, "soldaten": 19165, "Nicole": 5168, "\u00e9cht": 22973, "dwaalde": 11086, "achtervolging": 8137, "##ppi": 27880, "Dog": 2188, "##vlakte": 29491, "ondeugd": 16446, "bejaarde": 8964, "##problemen": 27911, "weekend": 22286, "aanbieden": 7865, "verg": 20984, "Cambodja": 1599, "toneelstuk": 20225, "gevaarlijk": 12521, "##waaien": 29615, "AFM": 534, "##tricida": 29108, "onvruchtbaar": 16747, "##PI": 23586, "opnamen": 16929, "##speelt": 28598, "##raf": 27995, "azijn": 8671, "antiek": 8500, "pensionering": 17367, "##LM": 23475, "##graat": 25769, "slaakte": 18963, "Hall": 3167, "Tel": 6849, "stout": 19626, "Toch": 6985, "tijdelijk": 20089, "oppositiepartij": 16948, "belastingen": 9030, "oppervlakte": 16942, "herinner": 13214, "##naam": 27249, "universiteiten": 20659, ";": 26, "##rini": 28182, "ondergrondse": 16373, "bankiers": 8736, "##eyrick": 25226, "Thomas": 6918, "tol": 20215, "##wetswijziging": 29717, "Palts": 5473, "wachtkamer": 22195, "Oostkamp": 5369, "onthuld": 16606, "Griff": 3067, "##liggende": 26854, "optillen": 16980, "##load": 26916, "sponsor": 19308, "Barr": 1074, "versneld": 21351, "Ad": 608, "Disco": 2156, "Evelien": 2521, "##hem": 25913, "hout": 13463, "gekleed": 12101, "Day": 2057, "##kon": 26584, "banden": 8725, "##foon": 25312, "Zoom": 7816, "FNV": 2551, "burgerlijk": 10009, "##geschiedenis": 25583, "1952": 330, "Bree": 1442, "Ensemble": 2460, "Griffin": 3068, "##geval": 25637, "##own": 27657, "appartementen": 8522, "heerser": 13128, "##DB": 23257, "opgesplitst": 16873, "sterk": 19506, "Alonso": 732, "ontstemd": 16665, "uitgezet": 20554, "##VG": 23721, "rauwe": 17999, "gebruikelijk": 11908, "eenzijdig": 11149, "##vrijheid": 29598, "leren": 14959, "verantwoording": 20844, "gewonde": 12607, "Heist": 3276, "vuil": 22110, "getipt": 12497, "Tsja": 7075, "hiv": 13318, "##EREN": 23319, "constructeur": 10339, "verstond": 21388, "Garden": 2815, "Nummer": 5259, "geleerd": 12152, "strafrecht": 19642, "Elisa": 2408, "Tiff": 6946, "alles": 8412, "jongere": 13971, "precies": 17676, "##kun": 26647, "glimlachen": 12741, "prof": 17786, "Bas": 1078, "##cir": 24627, "KB": 3856, "plofte": 17538, "rooster": 18425, "extra": 11466, "##fel": 25249, "##ificeer": 26128, "##stroom": 28816, "Hertogenbosch": 3336, "pakje": 17216, "##'": 68, "weleer": 22341, "##gegrift": 25445, "##verhaal": 29369, "Garci": 2813, "Irak": 3623, "wijngaard": 22469, "dynamiek": 11103, "verduistering": 20957, "vergunning": 21025, "joch": 13955, "##concours": 24693, "##ethiek": 25195, "Heren": 3320, "minst": 15660, "Recherche": 5885, "trend": 20348, "omringd": 16269, "begeleidde": 8885, "Sen": 6359, "Verwacht": 7334, "##di": 24840, "\u201c": 63, "Ara": 860, "Elena": 2400, "Federic": 2596, "administratieve": 8189, "staatshoofd": 19382, "debuut": 10546, "##bladeren": 24361, "tegenstrijdig": 19913, "1921": 299, "##ash": 24069, "leg": 14912, "panden": 17233, "meegemaakt": 15464, "gekromd": 12125, "##mag": 27015, "Tsi": 7073, "weekblad": 22283, "wanhopige": 22226, "Sant": 6229, "junta": 14005, "##ution": 29265, "lucifer": 15210, "##erhaupt": 25150, "Veronica": 7316, "afkomstig": 8281, "verstaanbaar": 21368, "Bruinsma": 1500, "omschrijven": 16274, "Road": 6010, "Dolf": 2191, "schrijft": 18779, "Kashmir": 3912, "Tienen": 6944, "uitmaakte": 20573, "minste": 15661, "##bloem": 24382, "tekeer": 19917, "noemt": 16097, "schim": 18703, "##stuursvoorzitter": 28838, "eerbiedig": 11153, "Mit": 4904, "conservatorium": 10329, "##ab": 23788, "Duizend": 2287, "huurlingen": 13530, "dammen": 10513, "##arth": 24060, "06": 164, "Baudet": 1095, "daling": 10509, "ingevuld": 13721, "Baden": 1028, "onderstrepen": 16417, "Kan": 3893, "Kroat": 4140, "Axel": 986, "behoorde": 8952, "Spreek": 6608, "Hielke": 3354, "##klots": 26545, "##ssa": 28655, "Silicon": 6441, "##boven": 24446, "beproefd": 9138, "Sar": 6238, "terugtrok": 20026, "kots": 14586, "Ramon": 5849, "Volgend": 7424, "Opmerkelijk": 5379, "##besef": 24275, "West": 7601, "Andy": 798, "opvatting": 16993, "erom": 11349, "Grondwet": 3081, "Professor": 5761, "mengde": 15517, "vervolgd": 21477, "##leren": 26783, "str": 19628, "vakken": 20706, "Willems": 7645, "geestig": 12012, "\u00da": 30049, "sergeant": 18872, "##gewisseld": 25674, "protestants": 17837, "Becker": 1113, "veelbetekenend": 20785, "angstaanjagend": 8480, "Waas": 7500, "combinatie": 10226, "Kyle": 4177, "scherp": 18658, "##ajoor": 23905, "##bei": 24231, "##tour": 29067, "Milo": 4879, "Rita": 6005, "C7": 1560, "promoveerde": 17821, "##doende": 24897, "##paleis": 27682, "bewoning": 9469, "regeerakkoord": 18101, "##BL": 23219, "Kuiper": 4158, "Cla": 1794, "##stemmig": 28729, "Hecke": 3247, "Vragen": 7457, "Yu": 7741, "##liedjes": 26837, "bloedbad": 9664, "neerge": 15989, "##rijdt": 28167, "hing": 13301, "Chap": 1722, "moleculair": 15755, "ongezien": 16518, "beoefend": 9121, "##rtigjarige": 28267, "geworpen": 12616, "Slim": 6489, "portretten": 17627, "thema": 20055, "tik": 20102, "##schok": 28380, "Slachtoffer": 6479, "bouwen": 9829, "tref": 20334, "Oss": 5409, "Timor": 6965, "Fro": 2764, "zondebok": 22827, "##tsj": 29129, "plomp": 17539, "Cav": 1678, "HO": 3133, "ontbering": 16574, "##roep": 28222, "##international": 26246, "Vierde": 7353, "scheen": 18620, "surveillance": 19786, "emotie": 11276, "opliep": 16916, "feminis": 11560, "##financiering": 25284, "Provincie": 5774, "glimmend": 12746, "scoort": 18825, "ontferm": 16594, "voice": 21820, "##wapens": 29644, "Slowaakse": 6495, "Hazes": 3235, "oefeninterland": 16196, "strenger": 19677, "stuk": 19734, "toetste": 20197, "venster": 20824, "ALLE": 537, "beledigend": 9035, "voldoe": 21825, "sportief": 19327, "gewer": 12594, "co\u00f6rdinator": 10407, "Wagner": 7508, "homohuwelijk": 13365, "drijft": 10980, "Wereld": 7585, "verdedigde": 20912, "##PL": 23588, "##t\u00e9": 29161, "heeft": 13117, "twintigtal": 20457, "##igny": 26144, "##nomen": 27336, "##ontplooiing": 27499, "Betsy": 1221, "##weide": 29679, "fractieleider": 11721, "NRC": 5058, "consumeren": 10347, "leerling": 14902, "illegale": 13606, "Paige": 5454, "jonk": 13975, "draag": 10932, "##netwerk": 27296, "verrassende": 21276, "##wormen": 29793, "##vullen": 29606, "jihadist": 13951, "vuile": 22111, "koorts": 14534, "overschot": 17152, "##BEKE": 23214, "##rez": 28126, "##stedenbouwkundig": 28709, "year": 22628, "vastgesteld": 20760, "##gek": 25460, "manschappen": 15357, "bank": 8732, "##negen": 27281, "##WIJK": 23744, "##ung": 29233, "Ninove": 5207, "USS": 7130, "speet": 19251, "Lincoln": 4385, "Sel": 6355, "LA": 4183, "##trein": 29095, "Harris": 3209, "onvriendelijk": 16746, "tabaks": 19822, "cirri": 10169, "sont": 19185, "schild": 18692, "verschil": 21316, "##/": 74, "##TH": 23674, "dosis": 10918, "##nsverduistering": 27354, "nog": 16098, "Myrm": 5037, "inktvis": 13748, "Tan": 6820, "Amnesty": 766, "##bay": 24188, "##kwamen": 26661, "Wevelgem": 7615, "Arn": 905, "kokend": 14480, "onbenullig": 16327, "getuig": 12512, "##chel": 24581, "Boon": 1361, "Jura": 3847, "geestes": 12011, "y": 30045, "prijk": 17716, "Poolse": 5698, "Inter": 3605, "Integendeel": 3602, "tevreden": 20040, "Amphi": 768, "Cal": 1586, "II": 3517, "##roux": 28257, "fictieve": 11570, "##bun": 24504, "Digital": 2132, "lam": 14811, "vergroot": 21021, "Kaapstad": 3868, "Leicester": 4288, "serveren": 18881, "sex": 18888, "##woordenwisseling": 29786, "Pol": 5679, "##iens": 26104, "Pool": 5696, "bult": 9995, "pillen": 17441, "trance": 20307, "##middel": 27129, "Sterk": 6668, "Robbie": 6015, "Springer": 6610, "halfjaar": 13010, "grootmeester": 12940, "rijksmonumenten": 18318, "uitspreken": 20597, "##ban": 24168, "drukker": 11020, "##ijnen": 26157, "leden": 14884, "Nicolaas": 5166, "##schappen": 28341, "uitpuilend": 20580, "##doe": 24891, "blijk": 9646, "Mess": 4812, "verfilming": 20979, "##27": 23067, "achtervolgd": 8134, "gedaagd": 11935, "##zei": 29862, "35": 431, "##zoekend": 29913, "##lden": 26731, "##pan": 27685, "Roemenen": 6036, "simpele": 18931, "##liefhebbers": 26841, "##pta": 27943, "ruggengraat": 18454, "marcheerde": 15363, "Toevallig": 6992, "timmer": 20112, "Veurne": 7343, "##bomen": 24410, "zeventien": 22746, "gedelegeerd": 11954, "##dimensional": 24860, "Oxford": 5434, "##kamer": 26406, "Sarah": 6240, "leerlingen": 14903, "gestort": 12476, "##ritten": 28194, "Brun": 1501, "Aziz": 992, "Golf": 3001, "knoop": 14432, "Empire": 2438, "comit\u00e9": 10233, "dromerig": 11000, "##wennen": 29690, "Zuster": 7835, "Hei": 3261, "voorspeld": 21947, "##getuigd": 25634, "eerstejaars": 11162, "kunstmatig": 14715, "Dierckx": 2127, "##:": 85, "Leer": 4274, "Ronny": 6071, "introduceerde": 13856, "##transacties": 29083, "Joel": 3765, "##eenheden": 25017, "havik": 13099, "59": 468, "uitgelaten": 20521, "Veld": 7262, "##concern": 24690, "##schacht": 28326, "Louvre": 4463, "Westelijke": 7602, "gerommel": 12375, "##verslaggever": 29416, "prostituees": 17833, "gunst": 12971, "crucial": 10439, "##kampioenschap": 26411, "Honor": 3439, "maand": 15258, "vergrootgla": 21022, "##ters": 28961, "Bet": 1216, "overvallen": 17174, "catalogus": 10080, "bevrijding": 9421, "##VH": 23722, "onderling": 16389, "beschrijven": 9215, "vennootschap": 20823, "financi": 11608, "kon": 14506, "Sophie": 6554, "gekend": 12097, "mengeling": 15518, "Hooggerechtshof": 3448, "bi": 9528, "geil": 12085, "##spoor": 28620, "##werd": 29693, "sloop": 19035, "##kiezen": 26478, "Suriname": 6754, "s": 30041, "Spanje": 6572, "##scherm": 28358, "uitgesteld": 20542, "##lassen": 26718, "##lant": 26711, "Holstein": 3421, "BA": 996, "jaarwisseling": 13917, "##ND": 23511, "opstapt": 16973, "Go": 2984, "vissers": 21703, "pupil": 17896, "gevoeld": 12556, "##lica": 26822, "naderen": 15918, "Malone": 4601, "bezorgde": 9509, "command": 10234, "gespecialiseerd": 12445, "verzocht": 21591, "##cup": 24757, "bombarderen": 9754, "spek": 19252, "127": 196, "Serie": 6375, "##breker": 24465, "Karim": 3907, "kijkcijfers": 14243, "Steun": 6673, "Grammy": 3036, "z": 57, "doorzichtig": 10902, "Gemeente": 2863, "fronsend": 11747, "Capital": 1622, "grinnikte": 12897, "Hol": 3405, "vliegen": 21736, "Fredrik": 2746, "##ka": 26391, "##wy": 29802, "Daems": 2014, "Chen": 1735, "animatiefilm": 8485, "envelop": 11306, "ruiter": 18476, "financiering": 11611, "vader": 20692, "overweeg": 17180, "speler": 19257, "wurmde": 22621, "##stond": 28770, "eindexamen": 11216, "Ricard": 5968, "sekte": 18855, "instantie": 13778, "frequent": 11737, "##hard": 25869, "##endijk": 25116, "geheimzinnige": 12063, "##zzo": 29960, "Provinciale": 5773, "1888": 264, "Australi\u00ebr": 970, "Tesla": 6882, "kanten": 14092, "hoogst": 13414, "neemt": 15986, "##emde": 25102, "Nieuwegein": 5177, "500": 456, "Gazastrook": 2830, "zestig": 22736, "religieuze": 18188, "Julien": 3834, "hitte": 13316, "vergaan": 20985, "##manager": 27034, "Onderneming": 5329, "Sem": 6357, "herhalen": 13211, "##Mittal": 23506, "##geveegd": 25641, "wapens": 22237, "Hier": 3355, "krankzinnige": 14617, "ziekenfonds": 22759, "Hidde": 3352, "voordelen": 21902, "flank": 11628, "Marit": 4653, "provincie": 17848, "##schreeuw": 28400, "Leiden": 4290, "rad": 17942, "##lore": 26961, "mijl": 15608, "aansprakelijk": 7987, "Velde": 7263, "kampioenschap": 14070, "stichten": 19531, "Arafat": 865, "vrede": 22034, "Woud": 7706, "Achilles": 595, "##hamer": 25854, "##mur": 27232, "Wessel": 7600, "IV": 3538, "##abi": 23792, "bevoegdheden": 9401, "afgaan": 8226, "Camp": 1605, "##RM": 23619, "Burg": 1536, "multimedia": 15847, "ruige": 18458, "##mogelijkheid": 27184, "Thierry": 6913, "voorgaande": 21907, "##tant": 28892, "Paus": 5528, "principi": 17737, "Virgin": 7375, "glij": 12736, "##ijk": 26153, "Mont": 4960, "intelligent": 13807, "execut": 11429, "##twee": 29155, "ro": 18354, "toets": 20193, "##vio": 29476, "##thus": 28986, "twijfelachtig": 20450, "duivels": 11052, "2005": 386, "bewind": 9455, "onderkomen": 16387, "##tribunaal": 29106, "verschaffen": 21300, "1868": 250, "slip": 19027, "dorps": 10914, "Neder": 5107, "medewerker": 15440, "bedoel": 8819, "##EST": 23325, "barri\u00e8re": 8752, "Milan": 4868, "Luikse": 4487, "knie\u00ebn": 14412, "besturen": 9297, "intentie": 13816, "##masker": 27053, "brul": 9942, "Bug": 1518, "ploegmaat": 17536, "bulder": 9990, "magnetische": 15303, "Waaro": 7498, "schutter": 18819, "Lancelot": 4217, "bladeren": 9622, "nemen": 16020, "regelrecht": 18112, "##lob": 26917, "##gevoerd": 25653, "Siberische": 6422, "hellend": 13173, "Vo": 7410, "machines": 15277, "zoeken": 22802, "hapje": 13061, "innemen": 13753, "modderig": 15714, "afgevoerd": 8258, "echtscheiding": 11114, "arriveren": 8576, "##\u00efst": 29989, "draden": 10941, "Watch": 7544, "manoeuvre": 15356, "##TABEL": 23666, "Big": 1243, "Iedere": 3550, "##neem": 27277, "boven": 9834, "eeuw": 11168, "huisvest": 13492, "Neur": 5144, "dialoog": 10654, "overschre": 17153, "beroepen": 9170, "##illy": 26184, "##rine": 28179, "##CS": 23248, "##plaat": 27793, "taboe": 19826, "##iseerde": 26274, "Vlaamse": 7389, "zooals": 22848, "##otis": 27607, "Keniaans": 3953, "geiten": 12088, "toorts": 20239, "Vroeg": 7470, "snakte": 19101, "##geur": 25635, "##ol": 27424, "Hai": 3160, "antisemitisme": 8503, "Doel": 2182, "##heimer": 25903, "slapende": 18988, "traditie": 20283, "stropdas": 19710, "##scheppen": 28355, "uitgestippeld": 20543, "herinnering": 13218, "scheiding": 18630, "##dekken": 24812, "betogen": 9326, "roya": 18442, "cyclus": 10458, "##dium": 24880, "Dokter": 2189, "Woede": 7677, "godsdienstige": 12778, "negentiend": 16012, "##NO": 23524, "Toy": 7030, "##console": 24698, "extremistisch": 11473, "##sporen": 28623, "##nitz": 27324, "warm": 22245, "verdeeldheid": 20919, "Steno": 6662, "bekeerd": 8969, "##wend": 29687, "beleidsmaker": 9053, "Keizer": 3943, "begeerte": 8883, "Tongeren": 7005, "Station": 6641, "glimlachje": 12743, "##\u00e9l": 29971, "Schneider": 6298, "huw": 13533, "##\u00ec": 30013, "##zaal": 29833, "##verpakking": 29402, "chief": 10134, "bevatten": 9377, "belangen": 9018, "volgen": 21832, "jazz": 13939, "Bram": 1422, "instituten": 13785, "knor": 14439, "klote": 14380, "driejarig": 10970, "Op": 5371, "w\u00e9\u00e9r": 22626, "bindt": 9579, "onmenselijk": 16533, "menig": 15521, "Mobutu": 4915, "gevolgen": 12564, "##bl": 24354, "bebost": 8788, "grijpen": 12884, "##erige": 25154, "cluster": 10197, "projectie": 17813, "56": 465, "Trade": 7035, "##wald": 29635, "onder": 16348, "beleggen": 9045, "ingewijd": 13723, "gekookt": 12115, "brood": 9924, "sloot": 19036, "##pil": 27775, "##gespannen": 25604, "sei": 18849, "Gon": 3004, "##th": 28968, "Indias": 3577, "##1100": 22991, "onschatba": 16566, "Stond": 6694, "generaal": 12252, "pakte": 17222, "lukra": 15233, "Braak": 1412, "Artikel": 919, "##shi": 28464, "Opvallend": 5382, "Mark": 4658, "promoten": 17819, "flinke": 11645, "Paula": 5524, "##248": 23061, "##rank": 28017, "##te": 28902, "uitgestald": 20541, "##robot": 28213, "bondgenoten": 9763, "vaatziekten": 20685, "Koran": 4102, "Rom": 6054, "halfrond": 13011, "onbeweeglijk": 16341, "paren": 17268, "##lift": 26849, "Geze": 2927, "Cas": 1651, "hielp": 13276, "praat": 17657, "werpen": 22412, "Nepal": 5132, "moi": 15751, "bescherm": 9193, "##uka": 29209, "werf": 22380, "Gorinchem": 3017, "breder": 9874, "troosten": 20383, "rampzalig": 17972, "mandaat": 15339, "Series": 6376, "Jessie": 3741, "ijverig": 13598, "kiekje": 14231, "logeerde": 15139, "Lommel": 4435, "sliert": 19014, "##ouwen": 27626, "download": 10925, "schijnt": 18685, "uiterst": 20499, "ondermaats": 16392, "verdwaald": 20959, "Till": 6957, "prominent": 17816, "une": 20650, "Homme": 3425, "aannam": 7963, "konijn": 14510, "uitschieter": 20588, "intelligente": 13808, "Disney": 2158, "Endemol": 2440, "##man": 27032, "boeddhisme": 9712, "zanger": 22666, "##hut": 26028, "##gels": 25502, "slaven": 18991, "kiel": 14232, "Dood": 2211, "ontkend": 16612, "Churchill": 1779, "bedrog": 8847, "gonsde": 12800, "##fout": 25329, "Tobias": 6983, "betreft": 9341, "gsm": 12962, "##haalt": 25832, "kostenbesparing": 14581, "##ELEN": 23303, "verfraai": 20981, "##ohl": 27406, "accent": 8082, "productiviteit": 17780, "Papoea": 5484, "##tapijt": 28894, "\u00e1": 30053, "check": 10126, "Savo": 6254, "vuilnisbak": 22113, "Flevoland": 2664, "Jacques": 3679, "SGP": 6164, "Onlang": 5340, "interieur": 13827, "Veertig": 7255, "testosteron": 20036, "overhandigde": 17109, "elkaar": 11260, "essay": 11367, "Laat": 4191, "##bewustzijn": 24323, "##gara": 25369, "##vergiftiging": 29365, "aanslag": 7980, "kameraad": 14061, "Eury": 2514, "Josef": 3808, "belde": 9032, "worstelaar": 22597, "##gegeten": 25440, "##leuk": 26797, "pluim": 17546, "chagrijnig": 10108, "gaas": 11792, "schandale": 18600, "##llebei": 26906, "gekwetst": 12132, "palm": 17228, "achterliggend": 8121, "gevoelige": 12559, "plek": 17522, "fronste": 11748, "amuseren": 8461, "##chor": 24599, "tolerantie": 20217, "Pandoer": 5478, "toestemming": 20190, "behoefde": 8946, "vlug": 21773, "Vooruit": 7447, "##ant": 24003, "Zand": 7762, "##certificaten": 24567, "liberalisering": 15020, "opzichte": 17009, "Saddam": 6185, "##93": 23148, "na\u00efv": 15975, "##idea": 26075, "##bessen": 24282, "##F": 93, "Eb": 2325, "##\u00f3m": 29990, "spinnen": 19284, "mag": 15292, "Project": 5763, "pati\u00ebnt": 17330, "scherpe": 18659, "dorpeling": 10911, "toilette": 20214, "Loon": 4443, "##lit": 26895, "Police": 5684, "nostalgisch": 16139, "vooraf": 21881, "doelstelling": 10806, "##korting": 26601, "Strateg": 6709, "\u00ef": 30063, "Merk": 4803, "##onn\u00e9": 27489, "inbraken": 13648, "n\u00e9t": 16167, "Bil": 1252, "bereid": 9144, "singles": 18937, "##echt": 25003, "##loosheid": 26951, "gelaatstrek": 12134, "borstkanker": 9805, "kwaadaardig": 14733, "continu\u00efteit": 10360, "vandaar": 20728, "##sap": 28305, "begaafd": 8877, "autre": 8659, "ontmoedigen": 16627, "aandoen": 7879, "Lilian": 4374, "toe": 20129, "swing": 19789, "snijd": 19120, "##camera": 24530, "Peter": 5578, "verlicht": 21143, "Body": 1319, "fastfood": 11526, "ronden": 18401, "COMMISSIE": 1573, "zwaarden": 22916, "grootste": 12948, "##oto": 27608, "Tul": 7090, "helm": 13176, "loodrecht": 15164, "##zout": 29929, "##18": 22999, "reeds": 18090, "##tors": 29065, "Dubai": 2264, "Bow": 1403, "concert": 10294, "##pleister": 27818, "optrekken": 16987, "staatsobligatie": 19383, "ontroerd": 16642, "##WIN": 23745, "Nike": 5195, "diepgaand": 10689, "hollen": 13358, "##kazerne": 26443, "##terra": 28959, "##oo": 27514, "##amine": 23960, "onaanvaardbaar": 16307, "##nstitutionele": 27353, "Gol": 2997, "beroeps": 9171, "Antho": 831, "Pietro": 5621, "##steekt": 28713, "Dexter": 2108, "gescheurd": 12396, "Welt": 7578, "stabiel": 19385, "Schm": 6296, "opklaring": 16901, "geldboete": 12142, "Ny": 5260, "##cine": 24622, "##vic": 29450, "diner": 10723, "gaf": 11797, "##stom": 28769, "##beelden": 24210, "activist": 8163, "lopende": 15181, "au": 8625, "pluis": 17548, "stelt": 19485, "artikelen": 8584, "Villiers": 7364, "vreselijke": 22050, "wenst": 22364, "legende": 14919, "tafel": 19831, "##isch": 26270, "##owicz": 27655, "noodzakelijke": 16118, "bedompt": 8825, "##oux": 27627, "##tura": 29147, "##pati\u00ebnt": 27711, "schuur": 18821, "Oostblok": 5361, "zweefde": 22938, "Mathew": 4697, "Nomad": 5223, "genees": 12243, "openbaring": 16822, "Tunesi\u00eb": 7092, "tand": 19853, "##traditioneel": 29076, "messen": 15555, "Aard": 564, "impasse": 13629, "repliek": 18221, "onwrikba": 16759, "Ketel": 3973, "knopen": 14436, "##OC": 23538, "aanklager": 7944, "Noorder": 5231, "gretig": 12873, "spatte": 19217, "communiceer": 10251, "##mes": 27113, "vloeibare": 21749, "Witt": 7674, "##waren": 29648, "fototoestel": 11710, "sper": 19266, "hongerstaking": 13378, "Tanj": 6824, "Hein": 3272, "verplichting": 21269, "voorwaarde": 21984, "Brigitte": 1460, "gegaan": 12028, "Izegem": 3661, "hangen": 13054, "##eraard": 25140, "Lionel": 4398, "bijgevolg": 9554, "etnisch": 11387, "ga": 11787, "middeleeuwen": 15589, "schadelijk": 18586, "##ski": 28503, "Deurne": 2102, "blanke": 9629, "verongelukt": 21233, "##kunstenaar": 26653, "reserves": 18235, "##polis": 27846, "weggestuurd": 22315, "beursnotering": 9365, "scoorde": 18824, "Liszt": 4404, "Senegal": 6361, "##DM": 23270, "Toen": 6990, "achtergrond": 8112, "vriendschap": 22062, "##oce": 27367, "Ana": 777, "chaos": 10115, "cartoon": 10073, "##looi": 26945, "Sto": 6687, "Ever": 2524, "aangename": 7904, "kweek": 14753, "107": 178, "Eye": 2544, "daarachter": 10469, "##qu": 27962, "##NNEN": 23523, "revolutionair": 18281, "waterdicht": 22254, "##tut": 29153, "##loeter": 26926, "Lennik": 4302, "B\u00f6": 1558, "##ELE": 23302, "fundamentalist": 11769, "valpartij": 20714, "Uber": 7132, "Philharmoni": 5595, "Veneti": 7270, "stiekem": 19539, "##soci\u00ebteit": 28567, "Provence": 5772, "nauwlettend": 15969, "##mechanisme": 27077, "beeltenis": 8865, "vluchtige": 21771, "##etto": 25205, "select": 18856, "aardige": 8050, "bijbel": 9548, "##uck": 29172, "'": 8, "Bornem": 1371, "Milli": 4878, "Vervolg": 7332, "haper": 13060, "##alarm": 23919, "##houdende": 25995, "Nico": 5164, "vloeien": 21751, "##tri": 29105, "afgrond": 8268, "Armeni\u00eb": 903, "CBS": 1564, "##garantie": 25370, "felle": 11559, "vroom": 22097, "RTL": 5815, "rijke": 18313, "omwenteling": 16292, "##songeschiktheid": 28576, "bloemen": 9676, "rock": 18359, "Uni": 7147, "flink": 11644, "Assa": 928, "Leonard": 4307, "dom": 10826, "klom": 14370, "##loos": 26950, "andermans": 8475, "begeleid": 8884, "zwart": 22933, "ster": 19499, "Press": 5734, "##klinken": 26538, "Board": 1313, "blink": 9660, "netten": 16032, "rechtsstaat": 18053, "verdienstelijk": 20930, "Ahmed": 662, "voeten": 21812, "fontein": 11674, "Maarten": 4538, "geloofde": 12183, "gemeente": 12211, "grandio": 12844, "maag": 15247, "Californi\u00eb": 1591, "eigentijdse": 11204, "KPN": 3862, "derde": 10621, "##vest": 29442, "blikken": 9653, "distributie": 10759, "Navarr": 5101, "##schakelen": 28333, "##TOR": 23680, "maximum": 15419, "Markt": 4660, "focus": 11660, "Griet": 3066, "boekhouding": 9725, "##dief": 24846, "geur": 12518, "tandenborstel": 19856, "krullen": 14697, "Schwartz": 6326, "liggende": 15073, "##kijken": 26482, "schoondochter": 18736, "##ries": 28158, "Guillaume": 3104, "Laurent": 4251, "Direct": 2152, "aanvoerder": 8023, "Ru": 6113, "slaaf": 18960, "spot": 19331, "##lamp": 26697, "##zoekers": 29914, "##source": 28581, "##zwart": 29950, "splitsing": 19299, "Lizzie": 4416, "Tag": 6806, "ambities": 8444, "Ging": 2956, "holocaust": 13359, "ontlenen": 16622, "sleutelbeen": 19010, "maxima": 15416, "##personen": 27744, "##23": 23052, "paste": 17322, "levenslust": 14997, "##PCC": 23576, "Claire": 1797, "Vince": 7367, "geruststelling": 12387, "controleren": 10370, "modellen": 15717, "##crypt": 24737, "gluurde": 12768, "Kwi": 4175, "Gelet": 2853, "jagers": 13923, "revanche": 18279, "huren": 13521, "verstomd": 21387, "rufi": 18450, "geschapen": 12391, "kristalle": 14657, "kussens": 14725, "Peri": 5562, "afgewerkt": 8261, "quota": 17916, "##vak": 29294, "Hoi": 3404, "##ertoe": 25171, "Mario": 4651, "Philip": 5596, "Monique": 4955, "machine": 15275, "ooievaar": 16777, "verhinder": 21039, "##brink": 24475, "Wageningen": 7507, "scherpschutter": 18661, "##pakken": 27677, "Agn": 654, "aarzelde": 8057, "toepast": 20173, "##co\u00f6rdinator": 24723, "VOLGEN": 7187, "thuiskomen": 20070, "kippenvel": 14270, "##register": 28072, "vernietiging": 21219, "##HR": 23392, "verhandeling": 21032, "gouvernement": 12819, "horrorfilm": 13450, "orang": 17016, "##icht": 26056, "zwijgen": 22958, "##management": 27033, "samenstellen": 18532, "Renat": 5932, "atlas": 8616, "paprika": 17249, "Cock": 1832, "Sak": 6197, "hooligan": 13424, "knokken": 14430, "he": 13103, "monster": 15780, "ouderen": 17056, "zestienjarige": 22735, "##bewaarder": 24312, "Hussein": 3499, "##dja": 24883, "vernield": 21215, "soort": 19186, "succes": 19757, "Salt": 6207, "romantiek": 18393, "dieet": 10670, "gerapporteerd": 12338, "##KOM": 23450, "kwestie": 14758, "##lep": 26778, "stinkend": 19567, "kronkelend": 14672, "waardeer": 22155, "Louis": 4458, "##systemen": 28866, "republikein": 18229, "ouderwetse": 17060, "ontslaa": 16648, "junior": 14002, "domme": 10834, "Edgar": 2343, "Montgomery": 4964, "cultuur": 10448, "afwezig": 8346, "bin": 9575, "z\u00f3": 22970, "##sluis": 28536, "##eerder": 25025, "sculpturen": 18832, "Food": 2691, "opponent": 16943, "subliem": 19750, "##atar": 24083, "fusie": 11781, "gezondheid": 12648, "tendens": 19963, "##friend": 25340, "repetitie": 18219, "##MK": 23493, "internetsite": 13838, "##cap": 24535, "Derby": 2091, "voordracht": 21906, "Ruud": 6147, "nipt": 16082, "##imus": 26190, "bewaring": 9435, "relevant": 18184, "Tafel": 6805, "##wick": 29725, "##acht": 23813, "onthulling": 16609, "vreugde": 22051, "##duin": 24977, "aansprak": 7986, "##reta": 28118, "##voorstelling": 29562, "##ENS": 23313, "##ost": 27599, "Tenzij": 6868, "##thor": 28983, "Delft": 2074, "slurf": 19056, "##vlijt": 29506, "vermoord": 21207, "theoretische": 20059, "Soms": 6547, "veroorzaken": 21246, "foutje": 11715, "bla": 9615, "##cut": 24762, "Bouw": 1400, "##pras": 27885, "##lichamen": 26825, "167": 218, "##ben": 24250, "onbewogen": 16342, "Lufthansa": 4484, "bovenal": 9836, "##zucht": 29932, "##heel": 25891, "Carl": 1636, "muren": 15854, "##thi": 28981, "lancering": 14817, "zuurstof": 22906, "##ampton": 23965, "##85": 23139, "##lijke": 26862, "##etje": 25196, "Wilhelm": 7640, "picknick": 17418, "##uma": 29225, "##of": 27393, "ik": 13604, "gewonden": 12608, "explosief": 11453, "##ruim": 28276, "zuivel": 22891, "Vandenbergh": 7231, "Reyn": 5953, "hindoe": 13300, "4x100": 454, "##stel": 28720, "Ronaldo": 6067, "beende": 8867, "nieuwszender": 16073, "vijfde": 21659, "exclusieve": 11424, "Ska": 6472, "Too": 7008, "aandelen": 7876, "jij": 13952, "##kolom": 26574, "oprichten": 16950, "interviews": 13844, "Magdalena": 4572, "Borgerhout": 1368, "Lock": 4422, "bestuur": 9299, "##400": 23086, "##bby": 24194, "verwisseld": 21549, "hervorming": 13259, "grasland": 12854, "hulpeloos": 13507, "nervos": 16027, "pappa": 17248, "krijgshe": 14647, "Square": 6612, "brengt": 9887, "Bin": 1261, "meesterlijk": 15488, "taken": 19839, "##amerika": 23958, "2001": 382, "Fransch": 2732, "Hy": 3505, "Slot": 6492, "kenden": 14174, "Sergej": 6373, "onbeperkt": 16330, "biolog": 9596, "afschuwelijk": 8308, "vertrouweling": 21447, "vrouwelijke": 22100, "##aties": 24094, "##gekruld": 25479, "##ice": 26054, "##itische": 26307, "##komende": 26579, "##disciplinair": 24874, "##vin": 29469, "##zal": 29843, "ongeval": 16505, "verschijnen": 21311, "Lebbeke": 4264, "Edinburgh": 2344, "verdrietig": 20946, "##pakt": 27680, "##trekken": 29097, "genuanceerd": 12281, "60": 469, "Jeltsin": 3724, "zaaien": 22636, "gekeerd": 12095, "Jorien": 3804, "gymnasium": 12976, "##FA": 23337, "connectie": 10321, "Koopman": 4094, "Kitty": 4015, "Ski": 6473, "Rose": 6085, "balkon": 8712, "Hand": 3183, "##voorraad": 29557, "##prefectuur": 27889, "fuck": 11755, "Internationaal": 3607, "machteloos": 15281, "##concept": 24689, "parasol": 17264, "##geleid": 25493, "Sy": 6773, "druppel": 11026, "keurmerk": 14220, "pech": 17344, "##oogleden": 27517, "parochie": 17284, "dader": 10492, "fundering": 11772, "goudmijn": 12818, "geweten": 12597, "aard": 8041, "##orzaak": 27586, "noot": 16131, "stier": 19540, "Belgi\u00eb": 1158, "beslissende": 9233, "beroemd": 9166, "verwaarloos": 21494, "##AC": 23163, "Lulu": 4494, "Drive": 2252, "##middelen": 27130, "Dolly": 2194, "Neil": 5124, "games": 11804, "##daad": 24771, "##rill": 28175, "dwars": 11094, "plein": 17517, "bulldozer": 9994, "Nederlandsche": 5113, "dicht": 10659, "geboekt": 11886, "Nationaal": 5091, "vluchteling": 21767, "##broeck": 24477, "Shit": 6414, "schrijvers": 18784, "##choorsteenmantel": 24598, "Bolivia": 1339, "integer": 13798, "kans": 14085, "Zonder": 7812, "##hoge": 25959, "##vrouw": 29601, "sterke": 19507, "water": 22253, "stevige": 19527, "##tribune": 29107, "Swiss": 6772, "##agentschap": 23883, "##moto": 27211, "Nikki": 5198, "Poe": 5673, "plekke": 17524, "motorrijder": 15832, "verklaren": 21089, "##moeilijk": 27180, "ontspoord": 16658, "##vernieuwing": 29398, "betere": 9323, "frontale": 11750, "##ologie": 27436, "##igne": 26142, "hoofdklasse": 13388, "R": 44, "gevoelig": 12558, "registreren": 18146, "beheersen": 8936, "bekostig": 9002, "AFC": 533, "uitdrukkelijk": 20489, "wendde": 22353, "##80": 23134, "first": 11617, "begerig": 8888, "wandelpad": 22220, "bevat": 9375, "Neo": 5129, "flatgebouw": 11632, "##FT": 23351, "Ravel": 5868, "Effect": 2368, "Tw": 7107, "geweldige": 12590, "##schijn": 28368, "Poll": 5689, "##door": 24914, "##salaris": 28303, "Owen": 5432, "hommels": 13363, "onderdanig": 16359, "Berk": 1188, "verbluft": 20884, "verlopen": 21163, "##jongens": 26375, "##talig": 28884, "Clark": 1801, "Schra": 6312, "passie": 17317, "uitgroeien": 20558, "##commandocentrale": 24672, "##ifera": 26123, "Greg": 3054, "vreedzaam": 22040, "ontkom": 16619, "FP": 2553, "Plotseling": 5666, "Cleveland": 1815, "diploma": 10733, "meeslepend": 15481, "mogelijkheden": 15748, "afnemen": 8296, "Eed": 2354, "gebrek": 11902, "linksback": 15110, "Liechtenstein": 4351, "diefstal": 10671, "Oegand": 5283, "Prometheus": 5764, "##wyn": 29803, "doorbracht": 10874, "uitgestrekte": 20546, "Slag": 6480, "Zelden": 7779, "Spelers": 6586, "##leraar": 26782, "##loot": 26952, "##eira": 25050, "Brandenburg": 1425, "hackers": 12997, "spreekkamer": 19339, "vierduizend": 21642, "Limburgse": 4382, "stapel": 19424, "Run": 6131, "figuur": 11579, "Robben": 6013, "hadden": 12999, "##melding": 27098, "gesitueerd": 12425, "daadkracht": 10463, "inventaris": 13865, "##begaanbaar": 24215, "##zuil": 29937, "Ballet": 1048, "Bloem": 1300, "rent": 18209, "verkoo": 21100, "##dreun": 24944, "Kim": 4000, "lemmet": 14947, "knoei": 14427, "##oc": 27366, "benadrukt": 9098, "toerist": 20177, "Hannover": 3192, "strakke": 19647, "rust": 18488, "##schieten": 28366, "##galerij": 25361, "verdenk": 20922, "verraad": 21270, "gerichte": 12366, "Schel": 6275, "blokjes": 9682, "##donker": 24910, "trainen": 20294, "Donovan": 2210, "Wiegel": 7626, "kritiek": 14658, "Sofie": 6535, "verjagen": 21066, "vulde": 22118, "##down": 24924, "enorm": 11297, "rechterlijk": 18044, "porno": 17618, "illegaal": 13605, "bloedvergi": 9671, "Luis": 4488, "getuigde": 12513, "vertegenwoordig": 21412, "##RW": 23629, "eiwitt": 11231, "broeierig": 9905, "Wist": 7671, "Pall": 5469, "bonkte": 9768, "barsten": 8754, "hangmat": 13055, "dossier": 10919, "CSU": 1576, "Dal": 2024, "SK": 6165, "stopt": 19613, "##LK": 23473, "klaargemaakt": 14280, "mei": 15496, "##DD": 23259, "Scho": 6299, "##bul": 24502, "##oneens": 27471, "stervende": 19519, "Gij": 2947, "religie": 18186, "Vlaming": 7395, "burgerrechten": 10012, "hellingen": 13175, "Gel": 2845, "stimuleer": 19563, "Edison": 2345, "Vic": 7346, "doorbraak": 10873, "vertoon": 21429, "colbert": 10213, "volume": 21866, "##schets": 28361, "##idor": 26090, "Fr\u00e9d\u00e9ric": 2770, "##CC": 23234, "##aki": 23909, "##scheuren": 28362, "##gravure": 25782, "##odrom": 27381, "##hav": 25880, "volgers": 21836, "verrassend": 21275, "##slaan": 28511, "##hra": 26007, "retor": 18263, "rekrute": 18172, "Beatles": 1106, "snuiven": 19134, "bakboord": 8699, "##nnes": 27330, "manier": 15342, "ui": 20468, "regionale": 18138, "##adelijk": 23837, "##sdienst": 28434, "garant": 11816, "sloeg": 19029, "##modellen": 27173, "cheque": 10132, "##MA": 23484, "binnenland": 9588, "portefeuille": 17621, "Haan": 3140, "Astrid": 936, "leraar": 14956, "blaffen": 9625, "##schuim": 28416, "Back": 1026, "##naren": 27262, "re\u00eble": 18286, "rockband": 18360, "##minuten": 27146, "Nov": 5252, "Sheri": 6408, "getiteld": 12498, "##wan": 29637, "##hardop": 25870, "Lehman": 4286, "Sociale": 6526, "frame": 11725, "aanstekelijk": 7991, "##gers": 25572, "Han": 3182, "daaraan": 10468, "##cca": 24546, "explo": 11446, "##scheld": 28348, "Rum": 6129, "ingedeeld": 13700, "levensstijl": 14999, "lichamelijk": 15024, "##sio": 28488, "variant": 20742, "GSM": 2786, "letter": 14969, "Banks": 1058, "##zit": 29905, "idioo": 13578, "##AAF": 23156, "##aise": 23900, "fascistisch": 11524, "Open": 5374, "On": 5322, "relatie": 18175, "Vink": 7372, "piraten": 17451, "Cu": 1967, "Valerie": 7216, "prinses": 17739, "Vander": 7233, "bevrijd": 9419, "gift": 12697, "wil": 22482, "Cynthia": 1981, "me": 15423, "stellen": 19478, "##ya": 29808, "Hilar": 3364, "opengesperd": 16827, "Fuchs": 2772, "Shar": 6398, "partijgenote": 17297, "##aantallen": 23775, "##pistool": 27786, "##ali": 23926, "Mel": 4770, "##supplement": 28849, "liquide": 15118, "##ifo": 26130, "ANTWERPEN": 543, "trakteer": 20303, "Totaal": 7021, "verkoopt": 21103, "##phyl": 27764, "##mobil": 27168, "Kontich": 4088, "##explosie": 25223, "rondliep": 18405, "toppen": 20244, "Maduro": 4567, "oordeelde": 16783, "motoren": 15828, "anonimi": 8495, "##kampen": 26409, "##mar": 27044, "2021": 402, "flexibel": 11640, "Belgisch": 1155, "boog": 9780, "##handelaar": 25858, "Gou": 3021, "Madame": 4560, "infrarood": 13693, "waakt": 22143, "slank": 18984, "##allo": 23938, "##bewoner": 24320, "##kett": 26468, "verbijsterd": 20868, "Schalke": 6268, "##stijds": 28745, "##anga": 23985, "##gedoken": 25421, "Castel": 1662, "Hay": 3232, "Lente": 4304, "Jar": 3706, "klus": 14385, "leerde": 14899, "linkerzij": 15107, "w": 56, "##laarzen": 26674, "Godfried": 2987, "dooie": 10868, "vrachtwagens": 22030, "onvermijdelijk": 16721, "Theater": 6903, "Tra": 7033, "min": 15635, "##proberen": 27908, "prikkel": 17724, "Siberi\u00eb": 6423, "Haarlemmer": 3143, "les": 14960, "Gord": 3014, "wrede": 22609, "zelfmoord": 22708, "##almaar": 23940, "##paard": 27670, "gehouden": 12076, "hogepriester": 13346, "hond": 13368, "ridder": 18299, "opgetogen": 16878, "vertraging": 21434, "zendt": 22722, "##jarige": 26356, "bedoeling": 8822, "##800": 23135, "gecorrigeerd": 11932, "##eerbare": 25021, "Titus": 6975, "Fanta": 2575, "riviertje": 18353, "##houdt": 26000, "##ering": 25157, "##bepalend": 24253, "Sleutel": 6487, "aanklacht": 7943, "binnenzak": 9593, "sidderen": 18910, "verblind": 20881, "##ken": 26451, "Maasmechelen": 4541, "tegenover": 19907, "##verlamming": 29385, "Jesus": 3742, "flirt": 11647, "00": 154, "##0": 75, "ongeneeslijk": 16493, "gehore": 12075, "gecontroleerd": 11931, "koek": 14452, "ge\u00efsoleerd": 12687, "muzikale": 15869, "wist": 22532, "strooi": 19701, "shoppen": 18903, "##bevolking": 24310, "HET": 3131, "seconden": 18837, "##geschroefd": 25589, "Gus": 3115, "Bastenaken": 1086, "Hang": 3186, "regentschap": 18123, "turbulent": 20417, "Fir": 2647, "\u00db": 30050, "##IC": 23399, "Deventer": 2105, "dwaal": 11085, "Arc": 870, "lachen": 14788, "kast": 14133, "Sabrin": 6180, "Par": 5485, "##onderzoek": 27466, "boosaardig": 9789, "verduisterd": 20956, "gezagvoerder": 12622, "Med": 4744, "symptomen": 19803, "verrukkelijk": 21295, "Heleen": 3282, "Verdomme": 7287, "strategische": 19659, "Chinese": 1750, "donder": 10838, "snauw": 19104, "ongeloofwaardig": 16483, "##igoni": 26145, "##utter": 29268, "##ootje": 27532, "Alva": 743, "Sarkozy": 6242, "slang": 18982, "aanspreken": 7988, "geschiedenis": 12398, "Brug": 1495, "Chicago": 1742, "afkomst": 8280, "wapenbezit": 22235, "##spruit": 28647, "Lier": 4357, "wie": 22445, "##eth": 25194, "daargind": 10474, "##eens": 25019, "tit": 20120, "beurt": 9367, "Male": 4591, "standaard": 19416, "transparantie": 20318, "##hia": 25932, "##nijverheid": 27321, "zonnebril": 22837, "ProRa": 5751, "Jenkins": 3726, "meegaan": 15460, "Pli": 5662, "herbergier": 13193, "Spier": 6593, "retorisch": 18264, "##vriendelijke": 29593, "Kruishoutem": 4153, "##belde": 24245, "arg": 8553, "Hmm": 3386, "best": 9264, "zaal": 22640, "afwas": 8339, "week": 22282, "##11": 22990, "##bb": 24190, "##grim": 25794, "Q": 30023, "##cchi": 24547, "##room": 28244, "Duitstalige": 2284, "verzachten": 21566, "voegde": 21788, "Worth": 7705, "beklimming": 8994, "bedenking": 8810, "pizza": 17458, "aanschaf": 7978, "straffe": 19640, "nachtmerrie": 15906, "woensdag": 22547, "stuw": 19746, "onweersbui": 16749, "Eragon": 2467, "##bescherming": 24272, "Vak": 7208, "##wierp": 29729, "kwartfinale": 14748, "ki": 14227, "##spreken": 28634, "Broeder": 1480, "opgebouwd": 16850, "oost": 16797, "grondgebied": 12926, "Continental": 1907, "halfbroer": 13008, "Fil": 2632, "zoo": 22847, "Southern": 6561, "##baan": 24147, "2010": 391, "Eeklo": 2356, "##sturing": 28835, "kenners": 14181, "##hin": 25941, "papiertje": 17247, "verhuld": 21057, "hertog": 13250, "Koninklijke": 4086, "bedenk": 8806, "pad": 17209, "##arts": 24064, "bezaaid": 9478, "##zeg": 29857, "skelet": 18955, "##quette": 27969, "ondervond": 16427, "##kant": 26423, "onfortuinlijk": 16460, "dreunend": 10962, "succesvolle": 19760, "##klonk": 26541, "spinnensoort": 19285, "##86": 23140, "##verenigingen": 29363, "Winter": 7664, "consequent": 10324, "##filmpje": 25278, "##agi": 23887, "beleg": 9041, "##etti": 25204, "Rec": 5882, "##toilet": 29048, "kosten": 14580, "Tegen": 6844, "konden": 14507, "klikken": 14354, "recht": 18036, "##aert": 23859, "schuldeiser": 18811, "overeenkomst": 17089, "##pel": 27726, "Bernie": 1201, "##lome": 26938, "dist": 10758, "irriteren": 13902, "##eonato": 25134, "##gehandeld": 25451, "koraal": 14556, "toetreding": 20192, "##yne": 29820, "Precie": 5729, "pijn": 17430, "greppel": 12872, "Cir": 1786, "streef": 19663, "betast": 9316, "##BA": 23208, "##lion": 26888, "flexibiliteit": 11642, "##NV": 23532, "broos": 9928, "onzinnig": 16767, "##Y": 110, "aristocra": 8558, "Tadzji": 6804, "edelsten": 11126, "uitgang": 20503, "##utz": 29269, "stekel": 19471, "beklaag": 8986, "Wind": 7656, "Band": 1053, "##ains": 23897, "citaat": 10170, "teruggekeerd": 20010, "verlegd": 21131, "##luister": 26974, "Club": 1825, "wijfje": 22464, "Ooit": 5354, "spanning": 19213, "penningmeester": 17361, "##promoot": 27931, "behulpzaam": 8961, "Huys": 3504, "stemmen": 19489, "##gestoten": 25620, "schreef": 18769, "##motor": 27212, "##tau": 28900, "spelen": 19256, "Cera": 1703, "richten": 18293, "Harelbeke": 3202, "tijdrit": 20096, "Vlissingen": 7406, "##trakteerd": 29080, "Gouden": 3024, "Slo": 6490, "schrijver": 18783, "##aap": 23779, "gedecideerd": 11945, "sne": 19106, "Anderson": 788, "gevoel": 12555, "topmanager": 20243, "visuele": 21705, "Bayer": 1098, "Carrefour": 1647, "aardbeien": 8044, "bestemd": 9279, "##\u00fa": 30020, "script": 18831, "Elk": 2413, "troebel": 20366, "doek": 10791, "##duik": 24976, "##hal": 25846, "##sresultaat": 28654, "rotonde": 18429, "Lazio": 4259, "##ippo": 26255, "##323": 23077, "##arc": 24029, "42": 444, "Kat": 3918, "schoorvoetend": 18745, "statistiek": 19444, "##hoofdcommissaris": 25978, "inbraak": 13647, "Belgique": 1154, "neg": 16004, "##07": 22983, "Economie": 2335, "verkozen": 21108, "##figuren": 25272, "kampt": 14071, "##knijp": 26552, "slachtoffers": 18972, "##bewerken": 24316, "benoemd": 9109, "sowie": 19199, "Dino": 2148, "reflex": 18097, "lans": 14857, "##\u00ebrs": 29985, "geleefd": 12150, "##knecht": 26550, "tent": 19971, "dorre": 10916, "concrete": 10304, "doelmatig": 10802, "tomaten": 20221, "Gelderland": 2848, "Rice": 5970, "##HO": 23388, "Moszk": 4992, "vlotte": 21765, "##UN": 23701, "pijpleiding": 17436, "##psa": 27938, "Rijd": 5988, "superieur": 19776, "##behandeling": 24225, "##sey": 28458, "coach": 10200, "spaargeld": 19203, "Concertgebouw": 1880, "Electrabel": 2396, "##KER": 23444, "smeris": 19084, "Investment": 3616, "##res": 28110, "uitvinding": 20618, "dienstplicht": 10681, "##d\u00e9": 24997, "Atto": 953, "online": 16530, "Chevrolet": 1740, "motieven": 15823, "##dronken": 24960, "gazon": 11839, "versie": 21332, "longen": 15157, "toeristen": 20178, "woon": 22575, "Saph": 6237, "onvolledig": 16739, "halt": 13016, "neerslachtig": 15998, "AE": 532, "##droeg": 24956, "Arj": 894, "Weinstein": 7568, "protesteerde": 17839, "##logisch": 26933, "##reizen": 28080, "vakblad": 20701, "uitzend": 20632, "kleden": 14315, "krijste": 14651, "Arno": 910, "##hang": 25863, "##kam": 26405, "Sigur": 6436, "Constantinopel": 1902, "bevallig": 9372, "##dwalen": 24994, "afgespeeld": 8252, "##BAL": 23209, "##fle": 25295, "Hap": 3194, "##urige": 29252, "blog": 9680, "statistisch": 19446, "misplaatst": 15688, "verpest": 21256, "Rome": 6059, "About": 584, "Bijvoorbeeld": 1250, "Prodi": 5756, "natuur": 15957, "##nemers": 27286, "##vloed": 29511, "##\u00f3r": 29992, "dreiging": 10958, "Society": 6528, "Critici": 1956, "Krijg": 4131, "rein": 18155, "##AA": 23155, "jongeren": 13972, "Nouvelle": 5251, "penis": 17359, "omslag": 16278, "verbeterd": 20861, "##borough": 24429, "overnames": 17147, "asfalt": 8592, "##weggetje": 29677, "fan": 11505, "lijf": 15078, "pluche": 17545, "heb": 13105, "duiken": 11043, "hoofdrolspeler": 13399, "vervuild": 21486, "verbeteren": 20863, "Costa": 1932, "##voetbal": 29537, "t": 30042, "kerkelijke": 14193, "##put": 27959, "Marg": 4632, "##ati": 24091, "notulen": 16150, "gruwelijk": 12960, "rechercheur": 18035, "##curve": 24760, "Gent": 2879, "Hoekstra": 3394, "##apparaten": 24020, "Gay": 2828, "landgenoten": 14828, "Wend": 7580, "spirituele": 19293, "zelden": 22701, "##ieux": 26116, "f": 30028, "AA": 524, "Hagen": 3156, "shows": 18908, "##balans": 24163, "##tai": 28874, "Vluchtelingen": 7408, "gemeentebestuur": 12212, "gordijnen": 12812, "Vrolijk": 7472, "gedronken": 11991, "opmars": 16922, "rechtmatig": 18046, "preventie": 17710, "##aid": 23892, "##cata": 24542, "Maxwell": 4720, "By": 1554, "referentie": 18096, "Malt": 4602, "rekken": 18171, "tra": 20271, "regeringsleider": 18130, "gewenst": 12593, "doop": 10870, "provocatie": 17852, "farmacie": 11518, "##hemd": 25914, "plekje": 17523, "probeer": 17753, "ontketend": 16617, "verbinden": 20871, "financi\u00ebn": 11613, "onderbreken": 16354, "media": 15444, "leefde": 14888, "##vissers": 29484, "rinkelde": 18331, "effect": 11177, "bakker": 8702, "live": 15126, "beteken": 9318, "drinkwater": 10990, "stilgelegd": 19553, "uitstoot": 20607, "##\u00e8vre": 29969, "opgeleid": 16858, "marcheren": 15364, "wijdde": 22460, "Fitz": 2652, "gespleten": 12450, "##por": 27858, "##39": 23084, "behoeft": 8947, "##har": 25867, "hogescholen": 13349, "Zwitser": 7856, "Navo": 5102, "Sik": 6438, "##gru": 25808, "b\u00e8ta": 10032, "hoofdplaats": 13394, "17": 220, "erg": 11330, "Sap": 6236, "90": 509, "anders": 8476, "Primer": 5740, "hoogtijdag": 13420, "grafiek": 12839, "diende": 10674, "schijn": 18681, "Hilton": 3368, "Comme": 1863, "onderdrukt": 16364, "strijden": 19683, "45": 447, "##sgraad": 28461, "replica": 18220, "Rijswijk": 5998, "wolven": 22560, "forceren": 11679, "Sir": 6463, "Noah": 5214, "beroving": 9180, "##even": 25213, "later": 14873, "\u00f6": 30068, "zwerf": 22947, "moordzaak": 15797, "artistiek": 8586, "gevuld": 12570, "binnenstad": 9591, "Leopold": 4311, "McD": 4729, "deuk": 10640, "##SH": 23640, "tranen": 20308, "Patrick": 5518, "situatie": 18945, "petroleum": 17411, "Roman": 6056, "ontwerpers": 16692, "ruimtevaart": 18472, "##AM": 23177, "Anja": 814, "##signaal": 28477, "schoongemaakt": 18737, "mieren": 15603, "onwerkelijk": 16754, "buitenechtelijk": 9971, "lekker": 14941, "grif": 12878, "##drie": 24947, "##gezelschap": 25689, "geprobeerd": 12325, "Lippens": 4400, "refereer": 18094, "aspect": 8598, "Control": 1908, "##blazer": 24366, "##psyche": 27939, "##ddin": 24800, "##eid": 25041, "afwisselend": 8351, "Kies": 3993, "genezing": 12261, "huishoudster": 13488, "patho": 17329, "volg": 21828, "Moor": 4971, "##MU": 23501, "##afspraken": 23871, "verweren": 21524, "##card": 24538, "##oxide": 27661, "house": 13462, "##uwe": 29273, "neef": 15983, "broeder": 9901, "Servi\u00ebr": 6383, "actiefilm": 8156, "Pal": 5459, "Kai": 3877, "Boel": 1328, "cap": 10061, "##mode": 27171, "theoretisch": 20058, "T": 46, "Azerbeidzjan": 990, "brug": 9933, "voorkeur": 21918, "kijk": 14242, "##bout": 24443, "##gestuwd": 25624, "##n": 126, "monopolie": 15777, "verstrekken": 21396, "belt": 9076, "loodgieter": 15163, "waan": 22145, "beroofd": 9177, "##competentie": 24681, "##avia": 24130, "bestoken": 9283, "Francesca": 2717, "##romp": 28235, "Normandi\u00eb": 5244, "eetzaal": 11167, "verbale": 20849, "##gesleept": 25595, "1839": 239, "##kur": 26654, "ontleend": 16621, "pluk": 17549, "ontvang": 16670, "schrapp": 18766, "##30": 23070, "schoolplein": 18733, "soul": 19193, "giftige": 12699, "analisten": 8463, "Globe": 2981, "mysterieus": 15875, "##IEK": 23403, "##ras": 28024, "Say": 6256, "##schijven": 28369, "000": 155, "##verblijf": 29345, "##stoornis": 28772, "##naalden": 27248, "aangemerkt": 7901, "boei": 9716, "zeehonden": 22676, "Sig": 6434, "NIET": 5051, "Spa": 6564, "##EV": 23330, "Madeleine": 4563, "petitie": 17410, "##col": 24660, "##helft": 25908, "vierkante": 21648, "##uitrusting": 29204, "A2": 522, "Margaretha": 4634, "Wenne": 7582, "Mijnheer": 4862, "kleren": 14339, "stopgezet": 19609, "SCH": 6161, "stembus": 19487, "verfomfaaid": 20980, "gelijkaardig": 12168, "verwikkeld": 21546, "##don": 24906, "verleen": 21128, "##verhuur": 29373, "Beschikking": 1210, "Eck": 2330, "speerpunt": 19250, "Campo": 1608, "Kni": 4046, "##houwen": 26003, "Conservatieve": 1897, "##toezicht": 29047, "##voetballer": 29540, "Cruz": 1964, "bezoeker": 9503, "racisme": 17939, "droge": 10996, "geklemd": 12102, "echt": 11108, "##kunde": 26648, "Museeuw": 5023, "Ferguson": 2613, "##IEN": 23404, "ogenschijnlijk": 16222, "twitter": 20459, "export": 11458, "##monster": 27195, "stad": 19388, "eigenschap": 11202, "Lager": 4204, "strijken": 19688, "64": 475, "Marokkaans": 4668, "concentreren": 10291, "afdalen": 8218, "machtspositie": 15288, "##vijand": 29459, "gezworen": 12655, "inhoudelijke": 13737, "Scheffer": 6272, "plat": 17502, "##wording": 29789, "Tr": 7032, "cavalerie": 10086, "novelle": 16153, "##trekkingskracht": 29101, "apparaten": 8519, "krans": 14618, "karretje": 14125, "informatica": 13687, "koper": 14540, "gebit": 11879, "Wyn": 7715, "Zedelgem": 7771, "Sud": 6736, "##concludeerd": 24692, "detail": 10635, "neefje": 15984, "##pti": 27946, "zuiden": 22879, "##titel": 29026, "##kuiken": 26645, "binnengehaald": 9583, "doorbroken": 10877, "koopt": 14530, "Keep": 3938, "weer": 22290, "opslagruimte": 16965, "vertrouwd": 21443, "gelijkenis": 12170, "aanstaande": 7989, "Solo": 6540, "\"": 6, "euthanasie": 11396, "##gewerkt": 25670, "##erre": 25168, "constater": 10336, "snowboard": 19131, "##\u00e8ne": 29965, "ambulance": 8453, "1917": 295, "vereerd": 20967, "abt": 8075, "bespied": 9256, "##jockey": 26368, "##zwoeg": 29956, "##aandeelhouder": 23768, "Rotterdam": 6096, "Armeens": 902, "Koninklijk": 4085, "integraal": 13799, "pensioen": 17363, "##WA": 23739, "##witz": 29765, "buitenlands": 9977, "definitief": 10578, "geldt": 12146, "stofwolk": 19582, "Meerdere": 4754, "schout": 18761, "taxi": 19879, "Prix": 5749, "Anit": 813, "##lezen": 26814, "gooide": 12805, "lossen": 15193, "##doelstelling": 24895, "##uri": 29250, "Inspecteur": 3596, "Politiek": 5688, "lijk": 15080, "##helst": 25912, "BRUSSEL": 1010, "besmettelijk": 9245, "keer": 14157, "Fu": 2771, "sweat": 19788, "juli": 13998, "\u2019": 62, "bloes": 9679, "Walker": 7516, "droger": 10998, "Masa": 4686, "Mahler": 4578, "Stadion": 6622, "klaagde": 14276, "rukte": 18480, "##augh": 24114, "##EZ": 23335, "##LEN": 23466, "##97": 23152, "1795": 227, "Rodrig": 6028, "##salon": 28304, "##besteding": 24286, "gierend": 12693, "Teddy": 6841, "schepencollege": 18648, "Evan": 2517, "mensenrechten": 15536, "topsporter": 20250, "quiz": 17914, "lusteloos": 15240, "theologisch": 20057, "popmuziek": 17605, "##700": 23126, "Ferrer": 2618, "dobber": 10772, "meedogenloos": 15458, "deden": 10555, "krulde": 14696, "past": 17320, "##park": 27696, "isolatie": 13906, "Leger": 4284, "notitieboekje": 16149, "leraren": 14957, "Bondscoach": 1352, "##tempo": 28941, "##atrice": 24104, "meewerken": 15493, "brandweer": 9867, "regerings": 18129, "##vechter": 29320, "Second": 6344, "NOC": 5055, "ontwikkeling": 16698, "kregen": 14631, "drukken": 11019, "Kasper": 3916, "vari\u00ebren": 20745, "##zonder": 29921, "ontwikkelings": 16700, "hypotheek": 13546, "bestuursli": 9306, "##zender": 29872, "##88": 23143, "aanhouden": 7939, "fris": 11741, "verhaaltje": 21029, "Surinaams": 6753, "Dag": 2015, "Hoge": 3401, "##sstrijd": 28667, "Center": 1695, "Coach": 1827, "Mol": 4936, "zwakke": 22925, "##aandeel": 23767, "Bijzonder": 1251, "Patricia": 5517, "zeventienjarige": 22748, "complot": 10275, "progressie": 17809, "##gezelschappen": 25690, "vermomming": 21206, "Rupel": 6132, "hoofdpunten": 13396, "stijve": 19548, "Document": 2177, "gedood": 11978, "gedoopt": 11981, "onbelangrijk": 16324, "##temperatuur": 28940, "Marokko": 4669, "weddenschap": 22270, "##grafie": 25773, "Vader": 7205, "##sprogramma": 28644, "##prent": 27891, "##iteit": 26299, "onthaal": 16600, "uitgebreid": 20509, "voetgangers": 21814, "Thro": 6927, "Fontaine": 2690, "bestookt": 9285, "geringe": 12369, "doodmoe": 10853, "Dubois": 2267, "Barcelona": 1067, "Lopez": 4446, "medeoprichter": 15437, "Zoal": 7805, "blunder": 9703, "effecten": 11178, "Antwerpen": 844, "Terneuzen": 6873, "studeer": 19719, "##RR": 23624, "schijt": 18687, "inzicht": 13891, "beschuldiging": 9222, "##EM": 23308, "##TE": 23669, "bu": 9952, "sussen": 19787, "aura": 8632, "rebel": 18021, "Ada": 609, "Under": 7145, "Vendex": 7269, "pose": 17628, "conflict": 10314, "Pati\u00ebnten": 5515, "desbetreffend": 10627, "schamen": 18597, "plasma": 17498, "vaartuig": 20682, "grondslag": 12930, "Gerw": 2912, "Volgens": 7425, "onttrokken": 16668, "##staart": 28676, "Ag": 646, "##ziekte": 29888, "IMF": 3527, "Oro": 5401, "Hees": 3260, "##ch\u00e9": 24612, "zesentwintig": 22731, "Gene": 2870, "##bloei": 24381, "dieven": 10706, "omzoomd": 16299, "Rau": 5866, "Zimbabwe": 7800, "##modern": 27174, "poster": 17637, "Iowa": 3618, "Sul": 6741, "GE": 2781, "terminal": 19986, "Un": 7144, "wissen": 22531, "##bron": 24481, "voeteneind": 21813, "vriendin": 22057, "nastreef": 15943, "##cauda": 24544, "Spielberg": 6592, "fantasie\u00ebn": 11512, "Drents": 2246, "uniek": 20652, "glazen": 12731, "##broek": 24480, "krachtiger": 14610, "gat": 11834, "Lamb": 4209, "hup": 13520, "##genoten": 25534, "zwier": 22955, "future": 11782, "Ham": 3174, "schipbreuk": 18707, "##marche": 27046, "partijen": 17295, "##ndre": 27272, "sopraan": 19189, "##soorten": 28579, "institutie": 13786, "persoon": 17399, "excuses": 11427, "hervormd": 13257, "noteerde": 16144, "vonk": 21873, "Gerhard": 2904, "Deelnemer": 2066, "hooghartig": 13409, "Claus": 1806, "Speed": 6580, "praten": 17673, "Dienst": 2125, "onnavolgba": 16540, "dynamisch": 11104, "opstond": 16977, "ni\u00e9t": 16084, "Vlieg": 7400, "collect": 10215, "Shanghai": 6396, "##light": 26856, "vwo": 22135, "samenvatting": 18534, "spiegel": 19271, "eraan": 11316, "##pra": 27882, "bezetten": 9485, "sneuvel": 19117, "##gunstig": 25818, "lot": 15194, "ter": 19978, "genezen": 12260, "Great": 3049, "fiets": 11572, "genegeerd": 12248, "##bom": 24409, "Groene": 3076, "uitblijven": 20475, "zoiet": 22813, "Cru": 1961, "kip": 14268, "zwakker": 22926, "roodbruin": 18411, "vertaalde": 21406, "##gestuurd": 25623, "##teerd": 28914, "sancties": 18544, "A4": 523, "##ieten": 26113, "Kunst": 4162, "vergelijking": 21002, "##1829": 23006, "zorgde": 22858, "##springen": 28637, "1926": 304, "schaamte": 18574, "weiland": 22329, "zondig": 22829, "##idius": 26087, "drive": 10991, "Diverse": 2163, "##vrucht": 29603, "##gordijn": 25760, "sporters": 19325, "Pomp": 5693, "bewindslieden": 9457, "groef": 12900, "##onvoorwaardelijk": 27511, "woning": 22569, "##oever": 27392, "##une": 29232, "spuwde": 19366, "kilo": 14252, "Italianen": 3653, "Minsk": 4890, "aangeschaft": 7912, "gezondheidszorg": 12650, "##dell": 24819, "out": 17064, "doordeweeks": 10879, "##phor": 27761, "apr": 8526, "gekozen": 12119, "flits": 11648, "luchthaven": 15205, "Brahms": 1419, "Tobback": 6982, "lavendel": 14877, "Snow": 6521, "omhelsde": 16258, "producenten": 17774, "##rgen": 28128, "##stations": 28703, "infanterie": 13681, "schuilt": 18806, "Pont": 5695, "primitief": 17733, "Marjori": 4657, "automatisering": 8647, "gedoofd": 11979, "alsjeblief": 8422, "jonger": 13970, "##ima": 26185, "beticht": 9325, "komiek": 14499, "bevestigde": 9391, "plof": 17537, "fortuin": 11698, "geworden": 12615, "maatschappelijk": 15272, "vraag": 22022, "namens": 15937, "samengevat": 18526, "Dol": 2190, "##beet": 24214, "tilde": 20107, "vangt": 20731, "##rug": 28272, "motorfiets": 15829, "Kenn": 3955, "Indonesisch": 3584, "##inski": 26233, "##scoop": 28425, "meervoud": 15478, "Gunnar": 3112, "Linden": 4389, "stootte": 19606, "##peper": 27736, "##nummer": 27357, "correct": 10383, "barbecue": 8743, "##tra": 29071, "##durende": 24987, "financi\u00eble": 11612, "##wijf": 29735, "narcis": 15941, "hot": 13453, "instinct": 13783, "VA": 7173, "rond": 18399, "onheil": 16523, "praatje": 17658, "Damrak": 2034, "brandwonden": 9868, "triest": 20356, "want": 22231, "Jones": 3785, "gedeputeerde": 11960, "winstgevend": 22514, "rijkdom": 18312, "Halle": 3168, "Ankara": 816, "Individu": 3581, "Kid": 3991, "##istiek": 26294, "##auri": 24117, "##rang": 28016, "##ridder": 28152, "##woningen": 29780, "bar": 8740, "Staal": 6617, "Circuit": 1787, "botste": 9821, "probleem": 17757, "eindeloos": 11215, "kalf": 14047, "##guard": 25811, "ambtenaren": 8450, "traumatische": 20328, "##neming": 27287, "onhandig": 16522, "##mael": 27014, "##koepel": 26565, "Colombiaans": 1850, "##sman": 28542, "kent": 14186, "##\u00e0": 30008, "##UG": 23695, "Google": 3007, "##elde": 25067, "Thu": 6928, "kruiwagen": 14692, "exemplaren": 11432, "Liefst": 4355, "kapers": 14103, "Getuigen": 2916, "Helaas": 3279, "Boston": 1383, "identificeren": 13574, "Shah": 6393, "span": 19207, "dwong": 11102, "schoonheid": 18738, "##eheran": 25040, "filialen": 11590, "rotzak": 18435, "Research": 5940, "buurland": 10023, "##gekeerd": 25462, "##nek": 27282, "high": 13289, "71": 485, "gefocust": 12022, "veruit": 21450, "alledaagse": 8398, "inspiratiebron": 13769, "Adidas": 615, "tegengestelde": 19902, "##styl": 28842, "slungel": 19055, "##led": 26737, "aangaan": 7885, "Aes": 631, "opvallende": 16989, "##vle": 29493, "pi": 17413, "Zap": 7765, "twintig": 20455, "Traditione": 7036, "geschut": 12419, "bestemming": 9280, "Touch": 7025, "gaande": 11789, "vorst": 22014, "gehoorzame": 12074, "##eniveau": 25119, "broederschap": 9903, "##second": 28435, "##extremist": 25224, "Antwerpse": 845, "Penny": 5549, "##embargo": 25101, "##juffrouw": 26384, "##klassieker": 26518, "bereik": 9146, "landde": 14822, "groenten": 12909, "moer": 15737, "##loge": 26929, "c": 30026, "luxueuze": 15243, "parlementslid": 17283, "Post": 5713, "##vocht": 29521, "##verbetering": 29342, "##poort": 27853, "##icula": 26068, "Limburger": 4381, "Aberdeen": 581, "Erica": 2476, "1400": 206, "schriftelijk": 18776, "Medio": 4749, "##by": 24519, "Instituut": 3601, "Yama": 7718, "gehandhaafd": 12048, "##later": 26724, "##avond": 24133, "##wespen": 29708, "achttien": 8145, "positief": 17631, "gedachte": 11940, "Basel": 1079, "ezel": 11474, "jas": 13936, "Paris": 5495, "wachttijd": 22199, "onderbreking": 16355, "emotioneel": 11278, "varieer": 20744, "sperma": 19267, "98": 519, "Pac": 5449, "verband": 20850, "verlof": 21157, "break": 9872, "won": 22561, "##sloten": 28533, "##divisie": 24882, "myst": 15873, "Hampson": 3181, "oostelijk": 16798, "##hawk": 25882, "bonzen": 9775, "vroegere": 22090, "Pedro": 5535, "bijeen": 9551, "etiket": 11385, "##ence": 25112, "piepklein": 17423, "interpretatie": 13839, "##voering": 29533, "vertraagd": 21432, "Holl": 3408, "Set": 6384, "Simeon": 6446, "glinsterend": 12749, "Martens": 4675, "RADIO": 5807, "Bro": 1476, "Miguel": 4859, "##go": 25747, "##breuk": 24469, "##entegen": 25128, "Ave": 977, "vragen": 22031, "mooi": 15788, "##gezwolle": 25704, "Bu": 1510, "amendement": 8454, "##ED": 23285, "radiator": 17946, "Gaat": 2791, "tekende": 19920, "Grim": 3071, "DOOR": 1999, "Belfas": 1149, "Hitchcock": 3383, "laken": 14809, "leid": 14927, "##Hoofdstuk": 23396, "##treft": 29094, "Meri": 4801, "platte": 17508, "Komt": 4078, "genoodzaakt": 12275, "Beek": 1121, "Spe": 6575, "gehuurd": 12083, "gekweld": 12131, "schedel": 18616, "bioscopen": 9601, "##aya": 24139, "Samso": 6216, "Hove": 3477, "Kenmerkend": 3954, "sigaren": 18917, "##bahn": 24158, "diplomatiek": 10736, "kustwacht": 14728, "commotie": 10247, "vuren": 22124, "vleugels": 21733, "dienst": 10678, "Ela": 2392, "nevel": 16048, "lichtgewond": 15032, "medio": 15449, "markten": 15382, "vermeend": 21176, "woede": 22541, "##ternauw": 28957, "afronden": 8300, "##trokken": 29115, "routinier": 18439, "sappig": 18550, "neven": 16049, "##vaux": 29315, "Vleuten": 7399, "speer": 19249, "foto": 11702, "meubil": 15574, "anoniem": 8493, "motel": 15820, "paragraaf": 17257, "verbazen": 20853, "kastelen": 14137, "##toer": 29038, "Milieu": 4871, "Wielsbeke": 7628, "gestolen": 12473, "essenti\u00eble": 11370, "inwoneraantal": 13884, "##1010": 22989, "Plots": 5665, "instorting": 13790, "Hout": 3474, "Atlan": 943, "Perkament": 5563, "Iris": 3627, "Rubi": 6115, "steriel": 19505, "Enterprise": 2461, "geuren": 12519, "dankbaar": 10519, "gezelligheid": 12632, "##rivier": 28198, "netvlies": 16036, "register": 18142, "arena": 8552, "Manfred": 4613, "##alisatie": 23929, "##ray": 28032, "contact": 10349, "hele": 13166, "Financi\u00ebn": 2642, "East": 2323, "Sedert": 6349, "ontbinden": 16576, "Kapelle": 3900, "Race": 5827, "Eddy": 2341, "verkocht": 21097, "uitgifte": 20556, "hoofdingang": 13385, "omdat": 16239, "spionage": 19287, "reageert": 18010, "Fed": 2592, "metrostation": 15571, "Harold": 3206, "compagnie": 10260, "nationale": 15949, "##vouwen": 29578, "Lief": 4353, "Sti": 6681, "##llah": 26904, "roep": 18370, "woonruimte": 22581, "tekenfilm": 19922, "vastzat": 20768, "##slapeloze": 28517, "##imo": 26189, "Kemp": 3949, "kromme": 14665, "Belgen": 1152, "type": 20460, "##grootvader": 25805, "##mentaal": 27107, "rijd": 18307, "bedraagt": 8826, "statuten": 19448, "uitdager": 20487, "omslachtig": 16277, "##issa": 26282, "toetsen": 20194, "##druppel": 24968, "##dok": 24900, "investeer": 13867, "expert": 11442, "beweerd": 9440, "Hollanders": 3411, "overleefd": 17131, "Montreal": 4965, "stikken": 19550, "buur": 10022, "vegetarisch": 20801, "Happy": 3196, "beveiliger": 9381, "Cathy": 1675, "##PP": 23594, "##nietigingswapen": 27315, "Jerom": 3733, "perfectie": 17376, "Rechercheur": 5886, "gaat": 11793, "##rano": 28018, "oplaaien": 16906, "Dora": 2216, "rechtszaal": 18057, "centimeter": 10099, "doorsnee": 10897, "stamboom": 19407, "Alain": 682, "telt": 19957, "Libanon": 4340, "verdwe": 20961, "sceptisch": 18568, "G\u00e9rard": 3126, "overwegen": 17181, "vriend": 22053, "Juli": 3829, "Bulgaars": 1525, "Far": 2577, "Verbaasd": 7280, "##tochten": 29035, "baarmoeder": 8680, "##zwemmen": 29953, "vormen": 22010, "concerten": 10295, "drie\u00ebntwintig": 10976, "220": 407, "zweet": 22942, "sedert": 18846, "hersenen": 13243, "DNA": 1997, "uitkomen": 20565, "zwemmen": 22945, "##\u00e9\u00e9n": 29978, "ivoor": 13910, "##OW": 23572, "biotechnologie": 9602, "netwerk": 16037, "gestraft": 12478, "Ali": 713, "deuropening": 10644, "Goethe": 2994, "##56": 23110, "##98": 23153, "##meijer": 27092, "SBS": 6158, "ING": 3530, "Travel": 7042, "woorden": 22586, "##leuning": 26799, "december": 10548, "olie": 16226, "##cyclus": 24766, "zangeres": 22667, "##knip": 26553, "aardappel": 8042, "boeien": 9717, "kwam": 14744, "seriemoordenaar": 18874, "Schil": 6288, "Universal": 7152, "Jens": 3729, "Rebecc": 5880, "bestemmingsplan": 9281, "##BR": 23223, "handeling": 13033, "##graph": 25778, "##holland": 25964, "##huizen": 26020, "aangereikt": 7910, "##ruilen": 28275, "Romeinse": 6062, "hartje": 13087, "Imp": 3568, "vizier": 21712, "koppig": 14552, "##loch": 26921, "dadelijk": 10490, "went": 22366, "##rog": 28226, "Full": 2776, "stranden": 19656, "##rdy": 28037, "Whi": 7617, "voertuigen": 21801, "mondiale": 15769, "opper": 16936, "cijfers": 10158, "drempel": 10960, "##identiteitskaart": 26079, "##ager": 23884, "gezorgd": 12652, "1800": 231, "Bangladesh": 1056, "montage": 15782, "op": 16804, "royalty": 18443, "##bar": 24176, "86": 505, "##overzicht": 27646, "Re": 5874, "##min": 27139, "Jordaanoever": 3800, "dodental": 10789, "draak": 10940, "duurzaamheid": 11078, "gram": 12840, "jonkvrouw": 13976, "occ": 16185, "Volksgezondheid": 7429, "boekjaar": 9726, "villa": 21672, "##mil": 27137, "elektrisch": 11243, "97": 518, "doordringen": 10881, "Prinsjesdag": 5746, "Neurenberg": 5145, "Annette": 825, "Bloom": 1307, "Gentse": 2881, "uitkijken": 20564, "##blad": 24359, "##ee\u00ebn": 25030, "afgeleverd": 8242, "Kunnen": 4161, "##IFA": 23409, "verdwijnt": 20965, "recentelijk": 18028, "TNO": 6795, "##eau": 24999, "Artsen": 921, "Li": 4336, "##belang": 24241, "Boges": 1333, "Wacht": 7502, "Voorzichtig": 7448, "fantaseer": 11510, "Buffalo": 1517, "##O": 102, "monsieur": 15779, "Packard": 5451, "regionaal": 18137, "Dance": 2036, "bloedverwant": 9672, "manipuleren": 15348, "toestaan": 20186, "blijf": 9644, "##gingen": 25726, "retrospectie": 18267, "Jiang": 3747, "##iviteit": 26325, "lib": 15016, "##UT": 23706, "lonkt": 15161, "Freud": 2752, "Geo": 2884, "##beth": 24298, "##doet": 24899, "parallelle": 17259, "##undai": 29231, "Groenin": 3077, "##coureur": 24719, "vliegveld": 21742, "schilders": 18700, "##jagen": 26347, "ontspanning": 16657, "##worth": 29797, "STVV": 6171, "##dische": 24873, "Keur": 3978, "##film": 25277, "##houding": 25998, "##ten": 28942, "neer": 15987, "Zondag": 7811, "econo": 11118, "##imb": 26186, "##koud": 26606, "eco": 11115, "Floor": 2669, "Nympha": 5261, "geconfronteerd": 11928, "Malm\u00f6": 4600, "voorpagina": 21938, "slimme": 19023, "##unch": 29228, "##vos": 29576, "harp": 13080, "pu": 17873, "lidstaten": 15040, "paviljoen": 17341, "te": 19883, "##chi": 24589, "Beurs": 1227, "heette": 13133, "Mertens": 4809, "dreef": 10952, "Adams": 611, "auditie": 8628, "##\u00f6": 146, "behoor": 8951, "Klooster": 4039, "heerlijk": 13122, "schud": 18797, "poos": 17600, "onze": 16760, "##ieve": 26118, "##macht": 27011, "Mack": 4555, "Bri": 1453, "Guardian": 3094, "gedupeerd": 11998, "wagen": 22201, "Terry": 6877, "##sseldorf": 28659, "mistig": 15697, "dinosauri\u00ebr": 10727, "smeerlap": 19076, "##uni": 29234, "##king": 26493, "Slu": 6497, "verkrijgen": 21115, "##uth": 29263, "benutten": 9116, "##-": 72, "acceptatie": 8084, "commentar": 10239, "national": 15948, "raar": 17933, "##versiering": 29414, "Zij": 7796, "afspraakje": 8319, "##stift": 28742, "Saba": 6176, "Stra": 6703, "Groenland": 3078, "work": 22593, "##schandaal": 28336, "ongewenste": 16512, "honor": 13381, "Mir": 4893, "serveerster": 18880, "play": 17511, "Nieuw": 5175, "vooraanstaande": 21880, "Junior": 3843, "Blijf": 1294, "omzetten": 16297, "H": 35, "ontaard": 16573, "Drag": 2237, "griste": 12899, "schroeven": 18790, "Fenerbah": 2609, "handels": 13035, "retro": 18266, "##jacht": 26345, "Kust": 4168, "drukt": 11022, "fl": 11623, "Bock": 1317, "##craft": 24726, "##raketten": 28007, "##g\u00e9": 25825, "##61": 23116, "##telling": 28936, "##stinkt": 28756, "Volk": 7426, "mystiek": 15877, "fase": 11525, "##53": 23107, "opgeruimd": 16870, "Leeuwarde": 4278, "##ijden": 26150, "Herk": 3324, "Elfen": 2403, "##partijvoorzitter": 27702, "fil": 11586, "tax": 19878, "##roepen": 28223, "roofvlieg": 18415, "vissen": 21699, "##donck": 24907, "uitgedaagd": 20511, "schep": 18646, "stroomde": 19705, "plooi": 17540, "dochtertje": 10779, "Dichter": 2119, "omgekeerde": 16248, "ongenaakba": 16491, "Hemi": 3296, "web": 22265, "##chan": 24573, "Soedan": 6531, "##251": 23063, "dubieuze": 11033, "##troeven": 29112, "verbouwereerd": 20893, "gelijknamig": 12174, "Toyota": 7031, "Geest": 2841, "##honderd": 25972, "Inge": 3593, "bezorgt": 9511, "statisch": 19443, "Nadia": 5072, "Stephan": 6664, "\u00d4": 30048, "opportu": 16944, "welgestelde": 22342, "Cuba": 1968, "donkerblauw": 10844, "jochie": 13956, "##RIJ": 23614, "tablet": 19824, "ingang": 13697, "##rage": 27997, "Barclay": 1068, "verkiezingen": 21083, "kantoorgebouw": 14097, "Tineke": 6969, "##ZA": 23749, "##bestaan": 24283, "##freak": 25336, "Baarle": 1018, "heersend": 13127, "Felicit": 2603, "P": 43, "genoten": 12279, "Straat": 6704, "Machelen": 4552, "Batt": 1092, "gladde": 12723, "insect": 13760, "Lea": 4261, "##szins": 28867, "versleten": 21347, "schemering": 18641, "insuline": 13796, "##tenue": 28948, "scouts": 18829, "verlichtte": 21147, "medaille": 15427, "luier": 15222, "arrange": 8567, "terugkerend": 20020, "##UWE": 23709, "Knokke": 4049, "Toni": 7006, "##wer": 29692, "kwijtraakt": 14766, "Speer": 6582, "lawine": 14879, "aangetast": 7919, "achterna": 8123, "gerucht": 12379, "waanzin": 22146, "##vliegtuigen": 29503, "##overtredingen": 27641, "gehuil": 12078, "vervaardig": 21452, "##inni": 26230, "##monitor": 27194, "##gedwongen": 25431, "##kunst": 26652, "woeker": 22545, "m\u00e9t": 15881, "behuizing": 8959, "bedolven": 8824, "dansvloer": 10526, "##traditie": 29075, "buffel": 9956, "gekweekt": 12130, "praktisch": 17670, "gekapt": 12094, "huilend": 13477, "beurtelings": 9368, "##binnen": 24347, "##bood": 24415, "Ku": 4154, "Surre": 6756, "Pier": 5614, "Goddank": 2986, "Mechelen": 4741, "schrille": 18788, "##pir": 27783, "kunsthistoric": 14714, "staatsbezoek": 19379, "grot": 12952, "exotisch": 11434, "gestapeld": 12461, "##52": 23106, "uitgeput": 20530, "hygi\u00ebne": 13541, "nazi": 15972, "##ketting": 26469, "##stad": 28680, "Independent": 3572, "Drugs": 2259, "##aleb": 23924, "##avec": 24128, "economie": 11120, "vergaard": 20986, "##uitgaven": 29201, "eenoogkreeftjes": 11136, "overzees": 17193, "##ziet": 29894, "Litouwen": 4408, "oefende": 16192, "##klap": 26512, "embleem": 11270, "remmen": 18198, "variabele": 20741, "asperge": 8600, "gesprek": 12455, "##ander": 23974, "rooms": 18422, "Klaassen": 4019, "betreuren": 9346, "eenzaam": 11146, "Kelly": 3946, "March": 4628, "fysiek": 11784, "oppositie": 16946, "smekend": 19078, "warmer": 22247, "##afgesproken": 23867, "prijzengeld": 17722, "##termijn": 28955, "Advies": 625, "camouflage": 10051, "##kinderen": 26492, "Castle": 1665, "drankje": 10950, "aangrijpend": 7935, "stoom": 19601, "##ck": 24634, "Joe": 3761, "Dominique": 2199, "Panorama": 5480, "concessies": 10297, "favorieten": 11536, "##onic": 27480, "##wold": 29769, "##ares": 24038, "bestond": 9284, "mantel": 15358, "Thy": 6932, "Werkelijk": 7592, "##gemeente": 25512, "sluipen": 19047, "##diefstal": 24847, "Hub": 3481, "##vol": 29545, "##lengte": 26775, "##bau": 24186, "##rial": 28135, "##ggi": 25708, "tram": 20305, "keizerlijke": 14165, "kanselier": 14087, "benzinestation": 9119, "gestorven": 12477, "schrijfster": 18778, "sterrenbeeld": 19513, "vervelen": 21465, "##lepel": 26779, "fik": 11584, "piano": 17415, "##kok": 26570, "Afwezig": 645, "werknemer": 22398, "##EE": 23287, "keurde": 14216, "Lelystad": 4296, "cr\u00e8che": 10442, "overhaast": 17107, "##lek": 26767, "##elenbos": 25071, "GRO": 2785, "gedraaid": 11984, "##ovitsj": 27649, "##PG": 23584, "laag": 14771, "Bourg": 1393, "##duif": 24975, "kunsten": 14709, "900": 510, "Louw": 4464, "hinder": 13295, "##gehoord": 25457, "##duwde": 24993, "geopereerd": 12291, "Yvette": 7745, "Griek": 3061, "weerstand": 22300, "radicalis": 17949, "huiskamer": 13491, "strijdlustig": 19686, "Per": 5557, "Ram": 5844, "l": 30034, "Deportivo": 2090, "uren": 20664, "voorsprong": 21953, "##bedrijven": 24205, "250": 414, "Ap": 847, "##index": 26200, "Noch": 5217, "beslag": 9230, "Harry": 3211, "Stefan": 6651, "##teridae": 28952, "vergeten": 21005, "biezen": 9544, "Klinkhamer": 4037, "Sieb": 6427, "Saga": 6191, "##rre": 28263, "WW": 7490, "##special": 28591, "Win": 7655, "Basil": 1080, "Morgan": 4980, "##beschrijving": 24274, "Tijd": 6950, "##1834": 23008, "verlossen": 21166, "##feliciteerd": 25251, "luxe": 15242, "grinnikend": 12895, "##recensent": 28042, "Grand": 3039, "installatie": 13774, "klagen": 14287, "Energie": 2442, "snurken": 19135, "paaltje": 17200, "1970": 348, "Stri": 6714, "Emmanuel": 2434, "mosterd": 15818, "D66": 1987, "Leverkusen": 4329, "##pillen": 27776, "Walt": 7522, "beervlinder": 8870, "achterstand": 8129, "gelegenheid": 12157, "Kr": 4119, "##gedane": 25416, "Gemeenschap": 2861, "betrapp": 9337, "produceren": 17776, "bolletjes": 9749, "aangetoond": 7920, "Voeg": 7413, "##nspireerd": 27351, "Popp": 5702, "technologisch": 19894, "##infrastructuur": 26207, "Keyser": 3981, "trein": 20338, "##1816": 23002, "eindpunt": 11222, "principes": 17736, "##gaan": 25354, "www": 22622, "##schoenen": 28379, "bladzijde": 9624, "manieren": 15343, "Roeland": 6032, "##VA": 23712, "verlichting": 21146, "gezinnen": 12642, "##duur": 24990, "apostel": 8514, "Groep": 3079, "Florent": 2673, "knokkel": 14429, "toppers": 20246, "##1862": 23023, "begroeiing": 8910, "juichen": 13993, "##verkeer": 29374, "programmering": 17808, "transparant": 20317, "##mijn": 27136, "1896": 272, "Pete": 5576, "Cent": 1694, "Jimm": 3752, "zonnig": 22843, "##hel": 25905, "geschied": 12397, "krijsend": 14650, "##1872": 23027, "vertaling": 21409, "generatie": 12254, "volgeling": 21831, "admiraal": 8190, "Pacific": 5450, "bondscoach": 9764, "erfpacht": 11329, "directie": 10741, "grie": 12874, "##yceum": 29812, "Ed": 2339, "##ifax": 26120, "betaald": 9310, "geschoten": 12411, "uni": 20651, "Storm": 6699, "Arsenal": 914, "##hu": 26011, "km": 14389, "##overleg": 27637, "Overpelt": 5430, "Copa": 1914, "Liberia": 4343, "smakelijk": 19062, "plaatsvond": 17477, "Pereir": 5559, "##partijen": 27701, "Greenpeace": 3051, "knarsen": 14401, "ruimtestation": 18471, "furieu": 11777, "Zo": 7804, "gevoetbald": 12561, "kapot": 14109, "Matth": 4704, "spontaan": 19310, "roekeloos": 18367, "frisse": 11743, "##redactie": 28055, "##schoot": 28389, "##schrijving": 28410, "VT4": 7193, "Salamander": 6202, "loodsen": 15166, "Millennium": 4876, "streaming": 19661, "##joy": 26382, "aanmerkelijk": 7959, "aangewezen": 7930, "Turken": 7098, "bezuinigingen": 9515, "harten": 13085, "windmolens": 22499, "##rey": 28125, "##uys": 29279, "gepassioneerd": 12303, "Spaanse": 6566, "wereldranglijst": 22374, "verzoek": 21592, "toegeven": 20145, "Eagles": 2320, "raapte": 17932, "Stru": 6719, "RAAD": 5806, "beukte": 9359, "Yorkse": 7734, "ervoor": 11363, "types": 20463, "zal": 22663, "Birgit": 1268, "omgang": 16243, "inderdaad": 13660, "slaperig": 18989, "##petit": 27751, "Tiffany": 6947, "ofschoon": 16216, "verzorging": 21603, "verlangde": 21124, "voorkwam": 21921, "voorlichter": 21924, "##mogensbeheerder": 27187, "catwalk": 10085, "be\u00efnvloed": 9526, "rokers": 18382, "storen": 19615, "##ction": 24741, "Nijmeegse": 5191, "onschuldige": 16569, "regelmatig": 18111, "Fowler": 2711, "##ANS": 23186, "Kor": 4101, "significant": 18925, "vertrouwen": 21448, "opduiken": 16814, "vul": 22117, "uitvoer": 20619, "vaak": 20675, "vriendelijk": 22054, "Bernadette": 1198, "Academ": 589, "Weer": 7559, "druiven": 11016, "verschillend": 21318, "Betty": 1223, "##voor": 29555, "innovatie": 13756, "ingetrokken": 13719, "bekendmaking": 8975, "toedoen": 20132, "ridders": 18300, "##oth": 27604, "enthousiast": 11302, "##ding": 24864, "##men": 27102, "uitnodigend": 20577, "autoriteit": 8657, "zware": 22932, "schoppen": 18748, "gew": 12572, "misselijk": 15690, "##remmen": 28097, "Silver": 6443, "##bestuur": 24291, "inwendig": 13881, "exploitatie": 11449, "Viking": 7358, "##commissaris": 24675, "inzien": 13892, "talisman": 19846, "Dj": 2167, "##stu": 28823, "uitdagend": 20486, "Tsa": 7072, "geconcentreerd": 11927, "Berlin": 1195, "kwellen": 14756, "order": 17020, "homme": 13362, "Clare": 1799, "knaagdier": 14391, "geproefd": 12327, "Philippe": 5598, "feit": 11551, "kassei": 14132, "Aarschot": 568, "uitlating": 20568, "revalidatie": 18278, "Lucht": 4474, "Turkse": 7101, "##lingen": 26881, "binnen": 9580, "##nadien": 27254, "##sorteer": 28580, "rolstoel": 18388, "Notodont": 5248, "pensioenen": 17364, "artiest": 8581, "borstelworm": 9803, "Fla": 2655, "Explorer": 2537, "ref": 18093, "hang": 13052, "olieverf": 16229, "##1865": 23024, "tracer": 20275, "Loterij": 4453, "cello": 10092, "resulteer": 18259, "vurig": 22125, "commandant": 10235, "##pping": 27881, "##jon": 26372, "##fil": 25275, "Laure": 4247, "laser": 14864, "Schrijver": 6316, "formidabel": 11688, "zwaait": 22911, "ontruiming": 16647, "Liam": 4337, "acute": 8171, "opzicht": 17008, "##WS": 23747, "omhulsel": 16263, "Marin": 4647, "Esther": 2488, "##god": 25748, "##sty": 28841, "brokkel": 9913, "angst": 8479, "##vertrouwen": 29427, "##dien": 24848, "daaropvolgend": 10481, "##Wetenschappelijk": 23748, "##iseerd": 26273, "turen": 20418, "Verb": 7279, "herinnerde": 13216, "VK": 7182, "postzegel": 17641, "Aruba": 922, "krabbelde": 14602, "##ara": 24024, "Sno": 6520, "##blessure": 24370, "Graa": 3029, "TV": 6799, "Gerard": 2897, "gedecoreerd": 11946, "Frits": 2762, "##gangers": 25367, "Head": 3238, "Lach": 4197, "##abele": 23791, "##cirkel": 24630, "volgde": 21829, "Sudan": 6737, "InBev": 3571, "##yre": 29825, "idealist": 13568, "Regional": 5910, "Kosovo": 4113, "##gaf": 25358, "helse": 13181, "heidens": 13141, "##DC": 23258, "Roland": 6050, "genade": 12237, "Asp": 927, "frase": 11730, "Elisabeth": 2409, "belanghebbende": 9019, "schaduw": 18588, "verkondig": 21098, "Girl": 2963, "Bouch": 1388, "rustiger": 18494, "Dover": 2229, "graan": 12831, "##EL": 23300, "1905": 283, "gastvrij": 11830, "Bent": 1175, "Lummen": 4496, "hoofdtrainer": 13404, "Wereldoorlog": 7588, "Zonne": 7814, "judo": 13989, "referendum": 18095, "bluf": 9702, "uitstapje": 20599, "Cell": 1689, "wrok": 22617, "werpt": 22413, "##leef": 26742, "paniek": 17235, "##PLA": 23589, "##W": 109, "pyjama": 17906, "etappe": 11378, "schalen": 18595, "##verhalen": 29370, "preventief": 17711, "Asil": 926, "trilde": 20357, "aantoonbaar": 8000, "nadacht": 15908, "NASA": 5043, "##15": 22996, "##sfeer": 28459, "Lynch": 4512, "##bruikbare": 24490, "Guy": 3120, "bevorder": 9410, "RUIMTE": 5817, "renteverhoging": 18211, "overgangs": 17096, "benieuwd": 9106, "omstreden": 16282, "voortbestaan": 21961, "##unne": 29239, "##automaat": 24121, "##GS": 23370, "erfgename": 11327, "waterpolo": 22258, "extreem": 11468, "allengs": 8403, "negende": 16010, "fikse": 11585, "gehecht": 12056, "genoteerd": 12278, "gaven": 11838, "onderbouw": 16352, "##gezwaaid": 25703, "klapte": 14298, "schaal": 18571, "piepte": 17424, "##geleden": 25487, "sabotage": 18511, "vlammen": 21721, "lees": 14906, "reik": 18151, "kant": 14091, "personeel": 17393, "##aliseren": 23931, "Kool": 4091, "compleet": 10268, "huiselijk": 13483, "logeren": 15141, "sociologie": 19148, "##kapitein": 26431, "##kolonie": 26575, "koolstof": 14525, "##mon": 27192, "##\u00ee": 30015, "Bush": 1545, "##portret": 27864, "Bj\u00f6rk": 1275, "Honduras": 3431, "adviseurs": 8208, "Turijn": 7096, "vooraanstaand": 21879, "bacteri\u00ebn": 8689, "verspreiding": 21364, "Mexicaanse": 4823, "##staat": 28677, "##chef": 24580, "procedures": 17763, "dozijn": 10927, "##kleden": 26521, "##nieuw": 27316, "vleiend": 21727, "TMF": 6794, "fanatiek": 11506, "impulsie": 13643, "veerboot": 20793, "vooroorlogs": 21934, "besmetting": 9246, "barre": 8750, "gingen": 12711, "pissebed": 17452, "hok": 13351, "clan": 10182, "Reynders": 5954, "Auvergne": 973, "##ides": 26080, "Christie": 1766, "fout": 11712, "Schaap": 6264, "benoemen": 9111, "madame": 15290, "vijanden": 21655, "gevoelens": 12557, "##on": 27456, "tirade": 20117, "Onduidelijk": 5336, "Miles": 4869, "Veendam": 7249, "focusse": 11661, "##slag": 28515, "##bracht": 24453, "##actie": 23827, "Brain": 1420, "zetel": 22738, "hero\u00efne": 13238, "##rot": 28252, "Easy": 2324, "Can": 1609, "adviseerde": 8205, "like": 15093, "##schaft": 28331, "vraagt": 22024, "##verhoging": 29371, "herkozen": 13228, "kuil": 14703, "assisen": 8603, "steeds": 19455, "##ault": 24116, "##recordhouder": 28052, "Gary": 2819, "Chip": 1752, "moordenaars": 15796, "##handig": 25860, "Dijksma": 2134, "prost": 17831, "##ga": 25353, "wipte": 22521, "Perfect": 5561, "cr": 10410, "civil": 10179, "##zakje": 29841, "veroorzaakte": 21245, "senaat": 18861, "Muller": 5012, "##gele": 25486, "donkerbruin": 10845, "sein": 18850, "##ella": 25083, "Dis": 2155, "verachtelijk": 20834, "##voudig": 29577, "koken": 14479, "Dy": 2302, "Maur": 4711, "voetballers": 21809, "door": 10871, "2015": 396, "vaccin": 20688, "##plaatje": 27794, "##VW": 23734, "Dublin": 2266, "##festival": 25256, "Geheim": 2843, "complexe": 10271, "Binnenhof": 1263, "afgewezen": 8262, "zone": 22830, "##gesleten": 25596, "##weven": 29719, "kil": 14250, "##assortiment": 24078, "##prille": 27903, "opent": 16837, "##for": 25314, "moeite": 15733, "Spong": 6600, "benzinemotor": 9118, "##voort": 29563, "##gezaaid": 25683, "Werkgevers": 7595, "Ralph": 5843, "zegevierde": 22688, "1964": 342, "langere": 14845, "vrijwilliger": 22084, "##ritme": 28193, "clubs": 10196, "England": 2453, "Lara": 4233, "Gutenberg": 3118, "opgepikt": 16866, "struikgewas": 19718, "vette": 21622, "kleven": 14350, "Hel": 3278, "verbinding": 20872, "##bediende": 24201, "client": 10189, "korpschef": 14563, "motorkap": 15831, "##doelpunt": 24894, "knagen": 14394, "gu": 12963, "moeders": 15727, "##bleef": 24368, "##est": 25189, "aanhouding": 7941, "stimulans": 19562, "Strip": 6717, "deze": 10646, "##her": 25917, "Tyr": 7121, "vastgemaakt": 20759, "##ran": 28012, "##ingham": 26213, "Pap": 5482, "klinisch": 14360, "series": 18875, "vingers": 21682, "Ost": 5410, "opgevouw": 16884, "adolescent": 8191, "verhuisd": 21053, "Donald": 2201, "Divisie": 2164, "faalde": 11476, "commentator": 10240, "samengevoegd": 18527, "terugbetaald": 20003, "##opening": 27537, "Av": 974, "controleer": 10368, "overwogen": 17191, "overleden": 17128, "##meesteres": 27090, "##uku": 29212, "strafschoppen": 19645, "kust": 14726, "sectie": 18842, "Veldhoven": 7264, "bedroefd": 8845, "toegangsweg": 20136, "onaardig": 16308, "buurtschap": 10028, "Omroep": 5320, "sterfelijk": 19503, "televisieserie": 19952, "verwaarloosd": 21495, "imposante": 13638, "Winkel": 7660, "technologie": 19892, "punct": 17891, "vanmiddag": 20732, "beschieting": 9199, "vervanger": 21460, "##single": 28484, "knaap": 14392, "gepasseerd": 12302, "olympisch": 16235, "standpunt": 19419, "##pleegt": 27815, "duiden": 11041, "Regio": 5909, "##cis": 24631, "Bloomberg": 1308, "Margaret": 4633, "worden": 22591, "arbo": 8539, "Earth": 2322, "Crypt": 1965, "Manchester": 4609, "herhaalt": 13210, "bewaking": 9430, "geld": 12141, "Financial": 2640, "fundament": 11768, "woont": 22582, "##ckel": 24637, "ondoordringba": 16450, "Sch": 6262, "sterkst": 19509, "##likte": 26871, "Dave": 2050, "##aerts": 23860, "Helsinki": 3293, "volstaa": 21857, "##geweest": 25665, "Sab": 6175, "Chase": 1729, "ouwe": 17067, "geneesmiddel": 12246, "dwangarbeid": 11091, "Bot": 1385, "gekregen": 12121, "netto": 16033, "##reuning": 28120, "Corporation": 1927, "Kanaal": 3894, "harnas": 13079, "langdurige": 14841, "No": 5213, "Via": 7345, "autopsie": 8655, "timing": 20111, "vrees": 22046, "##chia": 24590, "##where": 29721, "##leu": 26796, "Keltisch": 3947, "##splinter": 28615, "##geving": 25646, "opheffen": 16894, "##wond": 29774, "##dor": 24916, "0900": 168, "##ademing": 23839, "voorkomen": 21920, "behandelt": 8930, "dichtst": 10664, "terugkeer": 20016, "Volle": 7433, "vergroten": 21023, "##brieven": 24472, "##dak": 24784, "##gerelateerde": 25565, "##staf": 28683, "Sterker": 6669, "management": 15334, "Steenbergen": 6649, "contingent": 10358, "Orde": 5388, "Havana": 3224, "volwaardig": 21867, "schenk": 18643, "kwalitatie": 14741, "pet": 17408, "ruzie": 18498, "achtste": 8143, "##\u00ebl": 29980, "Bran": 1423, "onbeholpen": 16320, "##kus": 26655, "##llereerst": 26910, "nagedacht": 15923, "##xx": 29807, "Saedel": 6186, "oplopen": 16917, "medailles": 15428, "congres": 10320, "draf": 10942, "woedend": 22542, "Michelle": 4839, "dun": 11059, "kasteel": 14136, "Antonius": 842, "Comedy": 1859, "aandachtig": 7872, "##schop": 28390, "dierenarts": 10699, "##volger": 29547, "Bulgarije": 1526, "weet": 22306, "atmosfeer": 8620, "Smits": 6510, "geleidelijk": 12160, "1894": 270, "##lak": 26693, "##App": 23206, "##heet": 25896, "schadelijke": 18587, "Record": 5891, "vijfjarig": 21664, "Express": 2539, "ongestoord": 16502, "##vrouwen": 29602, "##kwartier": 26662, "##velden": 29331, "Ob": 5270, "ondiep": 16448, "##enburg": 25111, "Soci\u00e9t\u00e9": 6529, "solidariteit": 19167, "gooi": 12804, "##pitten": 27788, "geliefd": 12165, "imam": 13615, "afhankelijk": 8273, "Toren": 7013, "ontgaa": 16596, "schurken": 18818, "nieuwste": 16072, "vechten": 20777, "##GE": 23356, "overhandigen": 17110, "##azz": 24143, "##belastingbetaler": 24244, "Spits": 6599, "Remc": 5927, "faillissement": 11493, "##hle": 25947, "##plaatsvervangend": 27797, "Afrikaans": 642, "##tini": 29015, "15": 209, "bewoording": 9473, "Kampioen": 3891, "Hab": 3148, "##volk": 29548, "hutten": 13525, "enthousiasme": 11301, "jullie": 13999, "Marilyn": 4646, "##fusie": 25350, "Pon": 5694, "capaciteit": 10062, "schat": 18608, "noord": 16120, "##functies": 25347, "River": 6007, "universeel": 20655, "maximaal": 15417, "Wetenschappe": 7611, "print": 17740, "waardeloos": 22156, "##makerij": 27027, "Magnus": 4575, "Mei": 4762, "toegewijd": 20147, "programmeer": 17806, "verlengde": 21139, "Sav": 6253, "structuren": 19713, "##otes": 27603, "##genote": 25533, "Omstreek": 5321, "meneer": 15514, "onderkant": 16386, "voorzet": 21992, "Ib": 3540, "Life": 4363, "moderniseren": 15720, "Park": 5496, "##knars": 26549, "Woluwe": 7689, "Gevolg": 2920, "##Nobel": 23535, "perzik": 17405, "taxonomisch": 19881, "##fase": 25241, "koesteren": 14467, "Soeharto": 6532, "1941": 319, "schok": 18718, "Flynn": 2682, "signalement": 18923, "verward": 21507, "Aalbers": 554, "Verhe": 7298, "reuze": 18275, "##anjer": 23992, "##iel": 26099, "##klop": 26543, "gehangen": 12052, "##IST": 23434, "##oliemaatschappij": 27431, "##pend": 27732, "Mirror": 4898, "bent": 9113, "marechaussee": 15366, "voortgezet": 21968, "##hora": 25986, "fax": 11537, "kolf": 14485, "Come": 1858, "herenigd": 13202, "Dat": 2048, "investeerders": 13870, "Ellis": 2420, "steentje": 19466, "##methyl": 27119, "##pp": 27875, "##verzekering": 29437, "schrift": 18775, "man": 15333, "Waterloo": 7546, "Geef": 2836, "besluiten": 9241, "Denemarken": 2085, "kantine": 14093, "##ILL": 23417, "##via": 29449, "##list": 26893, "domineren": 10833, "##OCK": 23539, "##raken": 28005, "##pijn": 27771, "cursus": 10452, "snor": 19129, "plaatselijke": 17468, "tap": 19862, "Leopoldsburg": 4312, "veen": 20791, "gedrag": 11985, "Sachs": 6182, "##rta": 28266, "mond": 15766, "troon": 20380, "jagen": 13921, "Andries": 795, "Eta": 2490, "Alexis": 705, "functies": 11760, "##gezakt": 25685, "Vil": 7360, "uitgegroeid": 20515, "geraadpleegd": 12331, "vlieger": 21737, "verdelen": 20920, "##luizen": 26975, "Apache": 848, "Bryan": 1508, "dossiers": 10920, "Zidane": 7791, "merkwaardig": 15552, "klampte": 14290, "##komen": 26578, "Mecklenburg": 4743, "intrigerend": 13852, "Fokker": 2685, "##OUW": 23569, "Reuters": 5945, "vervanging": 21461, "Alison": 716, "##derdaad": 24826, "bedrieglijk": 8836, "bonen": 9766, "kruit": 14691, "baseren": 8760, "Vivi": 7386, "bruut": 9951, "performance": 17377, "##resultaat": 28116, "##de": 24804, "Colin": 1841, "##stra": 28781, "Glas": 2973, "zang": 22665, "##ontwerper": 27506, "kostuum": 14585, "gehaald": 12043, "schoen": 18715, "Ble": 1291, "ondiepe": 16449, "beschermen": 9196, "varken": 20748, "##300": 23071, "Carey": 1633, "##wa": 29613, "uitstekende": 20604, "##ak": 23906, "versperd": 21357, "pagina": 17213, "1986": 364, "##egelijkertijd": 25036, "impliceer": 13633, "##klasse": 26515, "Hallo": 3169, "relatief": 18176, "machtsmisbruik": 15287, "Kamerverkiezing": 3889, "vurige": 22126, "08": 166, "103": 174, "Audi": 956, "Burgemeester": 1537, "omzetgroei": 16296, "##LIN": 23472, "##lijn": 26864, "Nicc": 5159, "Sh": 6390, "##ur": 29244, "monteur": 15784, "##waardig": 29624, "gekruist": 12127, "##adre": 23847, "clich\u00e9": 10188, "##pistolen": 27785, "veteranen": 21619, "complex": 10270, "##varen": 29308, "gezicht": 12636, "##ieren": 26109, "bedekte": 8803, "Tracy": 7034, "plus": 17554, "berichtte": 9164, "zondagochtend": 22825, "##kijkt": 26486, "Cons": 1895, "instituut": 13788, "Myr": 5036, "recherche": 18034, "Beers": 1126, "ontdekt": 16588, "schreeuwde": 18771, "##leur": 26801, "toegelaten": 20141, "Bekende": 1140, "Pseudo": 5781, "##kleed": 26523, "##UST": 23705, "Pepijn": 5555, "verstandhouding": 21371, "##lta": 26968, "achtervolger": 8136, "automobilist": 8649, "implicatie": 13632, "aangereden": 7909, "opschudd": 16962, "verstevigd": 21381, "plaatsvind": 17475, "rimpel": 18329, "tarief": 19865, "Krijt": 4132, "shirt": 18897, "ziekenhuizen": 22761, "##ychida": 29814, "Daarom": 2007, "##ingenieur": 26211, "##matig": 27063, "erf": 11323, "condoom": 10310, "##boot": 24423, "intercom": 13820, "##lieden": 26835, "Magazine": 4570, "zorgvuldig": 22865, "##bericht": 24265, "erkent": 11341, "proviand": 17845, "overall": 17073, "gehalveerd": 12047, "Beer": 1124, "##uichot": 29191, "dageraad": 10500, "kreeg": 14629, "weg": 22307, "beschuldig": 9217, "##kapital": 26430, "Bes": 1209, "1977": 355, "afgesloten": 8251, "onderscheidt": 16406, "50": 455, "##ifi": 26125, "dat": 10532, "grapje": 12848, "correctie": 10385, "Na": 5064, "##verkopen": 29381, "opwinding": 17005, "##euze": 25210, "##gus": 25820, "lever": 15002, "Bois": 1336, "lijn": 15085, "Scandinavi\u00eb": 6259, "##elijkheid": 25078, "Reve": 5946, "##osh": 27591, "Dries": 2250, "kidnap": 14229, "##betaling": 24297, "knuffel": 14444, "Binnenlands": 1264, "stadsdeel": 19396, "Azi\u00eb": 993, "##hals": 25850, "discreti": 10750, "Pauline": 5525, "Ajah": 673, "leunde": 14980, "##minister": 27143, "gebaar": 11859, "##paadje": 27667, "Hans": 3193, "Expeditie": 2534, "renovatie": 18208, "Immers": 3566, "Mor": 4975, "Rasmussen": 5863, "roem": 18368, "vruchten": 22109, "zangvogel": 22668, "Ierse": 3555, "gedragen": 11986, "Toronto": 7016, "##kreeft": 26624, "ma": 15246, "afgelegen": 8240, "onsamenhangend": 16564, "##spatten": 28589, "inlichtingen": 13750, "know": 14442, "##rol": 28229, "kunt": 14721, "##kandidate": 26417, "bezield": 9490, "##ryn": 28296, "##MD": 23488, "##fondsen": 25308, "hooggeplaatste": 13408, "##ish": 26278, "betoverend": 9334, "talloze": 19848, "850": 504, "##tuig": 29139, "tegemoet": 19898, "Silvi": 6444, "snelle": 19113, "voorouders": 21936, "voorspellen": 21949, "##gger": 25707, "schikken": 18688, "Netwerk": 5141, "##RI": 23611, "aanzien": 8037, "mol": 15754, "verminderen": 21189, "geplaatst": 12310, "Gesprek": 2914, "##eerbaar": 25020, "Sunweb": 6749, "geworteld": 12617, "Bueno": 1516, "tastbaar": 19873, "##iets": 26114, "Brugge": 1496, "full": 11756, "##FB": 23338, "agenten": 8363, "gehakt": 12046, "zilveren": 22779, "Ont": 5346, "bestormd": 9286, "kak": 14043, "##lippen": 26890, "Simons": 6449, "eindzege": 11225, "geschreeuwd": 12415, "##ro": 28210, "##ches": 24587, "uitbundig": 20485, "WIL": 7485, "beledigen": 9034, "behandeld": 8926, "geplunderd": 12316, "Kasom": 3913, "weten": 22425, "friet": 11740, "##town": 29070, "mandje": 15340, "##corp": 24714, "tellen": 19955, "OCMW": 5263, "##fur": 25349, "rivaliteit": 18350, "##ocephalus": 27368, "stukken": 19737, "Eet": 2365, "bo": 9705, "badjas": 8691, "##begrotingstekort": 24223, "marktwerking": 15384, "##cker": 24639, "Borg": 1367, "stalen": 19404, "##schenen": 28352, "Oezbekistan": 5288, "Wiske": 7669, "1880": 258, "juni": 14001, "synthetisch": 19809, "plicht": 17530, "Militaire": 4873, "##overwinning": 27644, "zending": 22721, "kade": 14039, "aangepast": 7906, "capitulatie": 10064, "formatie": 11685, "oversteken": 17159, "conclusie": 10302, "bedoelde": 8821, "hoekschop": 13335, "kleine": 14328, "Rochus": 6022, "##deed": 24808, "Boven": 1401, "##model": 27172, "Donker": 2207, "Schoen": 6300, "gehandicapten": 12051, "Vught": 7478, "adapt": 8172, "##itie": 26304, "hoorn": 13432, "##geruimd": 25574, "##dustrieel": 24989, "schaken": 18592, "Moeskroen": 4927, "Tj": 6977, "##middag": 27128, "naderde": 15916, "##makelij": 27024, "gebied": 11877, "arbeidskrachten": 8534, "Balkenende": 1045, "##uze": 29281, "opletten": 16911, "slimmer": 19024, "identificatie": 13572, "Exxon": 2541, "ontsteltenis": 16664, "special": 19222, "afgerond": 8247, "##ceae": 24549, "gebleven": 11882, "##hartverscheurend": 25876, "##per": 27737, "##grote": 25806, "stenen": 19496, "confrontatie": 10317, "Osaka": 5404, "sarcastisch": 18552, "titels": 20122, "korte": 14568, "zwaargewicht": 22918, "dunne": 11061, "tarwe": 19868, "bevriezen": 9418, "##lick": 26830, "verdrag": 20942, "leesbaar": 14907, "##1833": 23007, "##car": 24537, "piek": 17419, "##smeekt": 28544, "bracht": 9852, "Proto": 5768, "beursgang": 9362, "exploiteren": 11451, "knippen": 14422, "##gegevens": 25442, "vorming": 22012, "aandeelhouders": 7875, "##bedient": 24202, "gekwalificeerd": 12129, "hap": 13059, "aanbrengen": 7870, "zwaaiend": 22909, "Sci": 6330, "Fleming": 2661, "##stedt": 28710, "##kreeg": 26625, "voorgelegd": 21909, "##bird": 24350, "topclub": 20241, "##bis": 24351, "las": 14863, "voren": 22004, "initiatief": 13741, "Standard": 6633, "RTV": 5816, "tocht": 20128, "milieu": 15621, "gehaa": 12042, "##schrift": 28403, "##type": 29160, "Semi": 6358, "350": 432, "Logisch": 4427, "bekroning": 9005, "Khalil": 3985, "Polder": 5681, "##gave": 25379, "##kopen": 26593, "globale": 12755, "##sser": 28661, "synagoge": 19805, "ingezameld": 13727, "ontevreden": 16593, "begint": 8894, "geval": 12525, "Champagne": 1715, "1847": 244, "Naam": 5065, "Heineken": 3273, "Theems": 6905, "Marion": 4652, "kaart": 14027, "vrachtschip": 22028, "beurskoers": 9364, "bestuurd": 9300, "##jir": 26367, "bestempeld": 9282, "##drup": 24967, "BNP": 1007, "lief": 15045, "verslagen": 21339, "socialism": 19143, "Dick": 2120, "volgende": 21834, "Pieper": 5613, "openging": 16829, "##soldaten": 28571, "##irtuoos": 26265, "aanhoudende": 7940, "tas": 19869, "inspireren": 13771, "81": 499, "1869": 251, "patriottis": 17333, "voorlaatste": 21922, "sympathiek": 19800, "##lokken": 26937, "hoofden": 13384, "droomde": 11008, "##kken": 26502, "conci\u00ebrge": 10298, "Aha": 660, "kuchte": 14701, "##tekening": 28926, "analyse": 8465, "##ylo": 29817, "klauterde": 14310, "ziel": 22766, "omloop": 16267, "overname": 17146, "##ovac": 27630, "##kwekerij": 26664, "amusant": 8459, "kelder": 14168, "##kabel": 26397, "gordijn": 12811, "##301": 23072, "recensie": 18025, "regelde": 18106, "vlekke": 21729, "Plas": 5649, "##iscus": 26272, "misdadig": 15674, "Eurocommissaris": 2504, "Libane": 4339, "tegenkom": 19905, "instrumenten": 13795, "Vara": 7239, "##slid": 28526, "Congres": 1887, "Klim": 4034, "##verdachte": 29350, "publicist": 17882, "##OV": 23570, "GB": 2780, "slappe": 18990, "Natural": 5095, "zitting": 22794, "believ": 9062, "Roos": 6078, "Hoger": 3402, "carrosserie": 10072, "ongeduld": 16469, "Daartoe": 2010, "Cher": 1737, "plaag": 17462, "##ribas": 28138, "Factor": 2562, "tomaat": 20220, "Britney": 1470, "Dam": 2029, "Europa": 2506, "Staten": 6639, "berokken": 9176, "hitparade": 13314, "160": 215, "arrestatiebevel": 8571, "##vill": 29467, "aantrekken": 8006, "##kaai": 26392, "##lau": 26726, "Portugees": 5709, "Stadsschouwburg": 6625, "Cabaret": 1580, "registreer": 18144, "werkloos": 22395, "##noy": 27349, "Koninginnedag": 4083, "maaltijden": 15256, "Ar": 859, "bewusteloos": 9476, "##haas": 25835, "belandde": 9016, "##flits": 25300, "Vermeend": 7309, "uitgelekt": 20524, "##azi": 24142, "schel": 18633, "Topman": 7011, "Mabel": 4546, "grensgebied": 12868, "schril": 18787, "vrije": 22070, "gediend": 11967, "viaduct": 21628, "wijden": 22462, "##gedragen": 25424, "##uil": 29194, "consortium": 10331, "##zwegen": 29951, "Ves": 7339, "gehes": 12065, "huisvrouw": 13494, "toonde": 20236, "powiat": 17652, "bepaal": 9127, "Pep": 5553, "kweken": 14754, "##PF": 23583, "79": 495, "aan": 7862, "##geeft": 25433, "Landkreis": 4223, "ozon": 17197, "su": 19747, "##gewicht": 25672, "onderzee\u00ebr": 16437, "##zy": 29957, "Char": 1723, "Product": 5757, "Bron": 1484, "Kaiser": 3878, "bekentenis": 8979, "Prinsengracht": 5744, "losgeld": 15186, "##voetbalinterland": 29539, "vampier": 20721, "bestuurders": 9302, "Good": 3006, "Temple": 6863, "tong": 20228, "##mis": 27148, "keel": 14154, "Omni": 5319, "verhaallijn": 21028, "namen": 15936, "Emmen": 2435, "Blue": 1310, "Sierra": 6432, "gelijke": 12169, "schorre": 18752, "Institute": 3600, "Vol": 7421, "Syl": 6776, "wenselijk": 22362, "revolutionaire": 18282, "Lab": 4194, "middeleeuws": 15590, "velden": 20814, "Ay": 987, "##atief": 24093, "meegewerkt": 15466, "##vergoeding": 29366, "omstandigheden": 16280, "Toby": 6984, "ontmaskerd": 16624, "##pels": 27729, "bron": 9920, "Harriet": 3208, "baby": 8685, "migratie": 15606, "##IB": 23398, "##abri": 23800, "zuiver": 22892, "secundair": 18845, "om": 16237, "effectief": 11180, "batterij": 8775, "##\u00f3ra": 29993, "WK": 7486, "##trots": 29120, "Hierna": 3358, "Ba": 1014, "Galax": 2799, "Jij": 3749, "trut": 20399, "Stravinsky": 6711, "verwachten": 21499, "Bestuur": 1215, "##leb": 26733, "##lers": 26785, "dinsdagavond": 10730, "koersdoel": 14463, "##RA": 23601, "##sbeleid": 28311, "overgeleverd": 17101, "toon": 20232, "mortier": 15809, "zorgeloos": 22860, "##otter": 27611, "Tett": 6889, "vrijkomen": 22078, "##stein": 28718, "redde": 18074, "duw": 11080, "GVB": 2787, "knikt": 14418, "beluisterd": 9077, "ontploffen": 16635, "Robin": 6018, "Span": 6569, "##brouwen": 24486, "noemde": 16093, "Janet": 3694, "verbluffend": 20883, "##ici": 26058, "##site": 28493, "beklemtoon": 8992, "dergelijk": 10622, "##\u00e9s": 29975, "toespeling": 20183, "tournee": 20262, "coureurs": 10403, "keur": 14215, "koopwoning": 14531, "psychiatrisch": 17865, "ram": 17963, "angstvallig": 8483, "averechts": 8662, "##mor": 27202, "schuif": 18800, "albums": 8382, "##elaar": 25059, "##fractie": 25331, "##nationalistische": 27263, "arrogant": 8577, "JAN": 3662, "bezien": 9491, "basisplaats": 8763, "euforie": 11389, "u": 30043, "M": 40, "merkte": 15551, "##strasse": 28792, "toneel": 20224, "Frey": 2753, "politieagenten": 17577, "western": 22422, "kroonluchter": 14675, "##zeker": 29864, "S\u00e9": 6789, "heffing": 13136, "##vliegen": 29500, "Gaal": 2789, "lucratieve": 15211, "love": 15198, "rem": 18194, "##thro": 28985, "CD": 1565, "Hi": 3351, "Rie": 5982, "##stand": 28693, "##stead": 28706, "Kok": 4070, "Hedwig": 3250, "##onnen": 27488, "afgelopen": 8243, "Stephanie": 6665, "##vor": 29567, "Gerry": 2910, "##BERG": 23215, "##dheid": 24839, "Mia": 4829, "##tief": 28995, "##ietwat": 26115, "verdien": 20925, "Hendrick": 3299, "##ets": 25198, "signaleer": 18922, "sector": 18843, "zit": 22791, "Henri": 3309, "hopeloos": 13437, "vanmorgen": 20733, "##emb": 25100, "##ight": 26141, "bonnetje": 9769, "##veld": 29330, "game": 11803, "Yoshi": 7736, "bezig": 9493, "E\u00e9n": 2545, "Castili\u00eb": 1664, "levering": 15008, "oplossen": 16918, "speculatie": 19233, "Friese": 2758, "merkbaar": 15547, "##been": 24211, "Lauren": 4248, "##stig": 28743, "##vorm": 29570, "Records": 5892, "spreid": 19342, "##pathie": 27710, "##smith": 28547, "spons": 19307, "Kalm": 3883, "USA": 7128, "gedroomd": 11993, "steile": 19469, "held": 13158, "Twaalf": 7108, "##CR": 23247, "thuiswedstrijd": 20074, "##FO": 23347, "arriveer": 8574, "##chirurg": 24593, "##rezen": 28127, "Fa": 2554, "perceel": 17371, "##rks": 28205, "Rotterdamse": 6098, "degradeerde": 10585, "Alaska": 684, "##iseert": 26275, "stink": 19566, "parodie": 17286, "Krabb": 4121, "bijvoorbeeld": 9563, "##righeid": 28162, "limiet": 15096, "##hebber": 25888, "koppeling": 14550, "fotografe": 11704, "prijs": 17718, "triomf": 20363, "##schoten": 28395, "[MASK]": 4, "bedoeld": 8820, "kortweg": 14573, "##SI": 23641, "aanleg": 7954, "segment": 18848, "Habsburg": 3150, "DJ": 1995, "gecomponeerd": 11925, "Gisteren": 2968, "treiter": 20342, "details": 10637, "##spaar": 28583, "Nina": 5205, "dol": 10819, "##stoet": 28763, "Uiteindelijk": 7135, "Atlantic": 945, "##ders": 24831, "Voer": 7415, "huizen": 13502, "ambtstermijn": 8452, "analog": 8464, "dagboek": 10496, "autobiografie": 8642, "benauwd": 9101, "tussentijds": 20428, "bom": 9751, "level": 14985, "ontwapening": 16687, "##drang": 24938, "##gewoel": 25676, "##ndez": 27270, "klikte": 14355, "##herstel": 25920, "Boussoufa": 1398, "kleurrijke": 14347, "Amstelveen": 771, "##LTO": 23481, "Private": 5747, "redacteur": 18071, "economisch": 11121, "geveld": 12542, "Islamitisch": 3638, "medici": 15446, "boete": 9735, "intimidatie": 13847, "Java": 3712, "##vac": 29290, "eraf": 11318, "plakken": 17484, "sch": 18569, "toorn": 20238, "##staande": 28674, "Dwa": 2299, "bak": 8698, "bevelhebber": 9386, "##vermaak": 29394, "Kon": 4079, "York": 7733, "Georg": 2887, "opdrachtgever": 16812, "leuze": 14984, "talen": 19843, "Louise": 4459, "jongetje": 13973, "zondag": 22822, "##pke": 27791, "Bijna": 1249, "prestaties": 17698, "klimmen": 14358, "Pou": 5717, "quasi": 17911, "gemak": 12199, "bedrijfsleven": 8840, "kraag": 14594, "Gore": 3016, "China": 1748, "ingetogen": 13718, "zinnetje": 22788, "zusters": 22904, "##vlucht": 29517, "gewraakt": 12618, "Vandenbroucke": 7232, "socialist": 19144, "overging": 17106, "1899": 275, "ecologisch": 11116, "320": 428, "Kiki": 3997, "crypto": 10441, "soorten": 19187, "thee": 20053, "Plant": 5648, "##paar": 27669, "Lar": 4232, "##ffel": 25259, "beperkt": 9135, "##talent": 28883, "establishment": 11371, "saai": 18504, "toevluchtsoord": 20203, "##str\u00f6m": 28822, "Gerechtsho": 2901, "wandelde": 22216, "vertolkt": 21426, "woonkamer": 22579, "##beuk": 24302, "##DE": 23260, "zadel": 22646, "##worp": 29794, "Isra\u00eblisch": 3643, "Grunberg": 3091, "beboet": 8787, "raadselachtig": 17922, "onverdraaglijk": 16718, "eilanden": 11209, "sproei": 19353, "##OORD": 23560, "##ody": 27382, "misdadigers": 15676, "bon": 9758, "wandelgang": 22218, "verdedigers": 20915, "chocolade": 10142, "onwettig": 16756, "##ari": 24040, "kantonrechter": 14095, "pletter": 17526, "Schouw": 6310, "editie": 11127, "melden": 15505, "daardoor": 10473, "pole": 17569, "Sound": 6559, "Reggi": 5904, "wereldkampioen": 22373, "zwakte": 22927, "##klik": 26534, "##strooi": 28814, "Mott": 4995, "verstaan": 21367, "econom": 11119, "regeerperiode": 18103, "Mona": 4946, "protesteer": 17838, "jager": 13922, "raken": 17959, "bezocht": 9500, "Joris": 3805, "125": 194, "Kawa": 3932, "##onja": 27485, "Pers": 5566, "non": 16104, "1854": 246, "##lachen": 26682, "bakkerij": 8703, "vervatte": 21463, "Problem": 5754, "nagels": 15925, "Wim": 7653, "samenwerken": 18536, "draait": 10939, "gevarieerd": 12535, "kwaliteits": 14743, "62": 473, "##houder": 25996, "noordoostelijke": 16125, "oprit": 16956, "##emi": 25104, "Martin": 4678, "trainer": 20295, "##\u00e9l\u00e9": 29972, "##flex": 25299, "G\u00e9": 3125, "ribben": 18290, "Abbas": 573, "fotografie": 11708, "##2200": 23047, "##gewaa": 25660, "solo": 19173, "discriminatie": 10751, "Minsten": 4891, "kanshebber": 14089, "moza\u00efek": 15836, "geduldig": 11996, "zaklamp": 22659, "verenigingen": 20975, "bleek": 9636, "golfbaan": 12796, "##LEM": 23465, "hotels": 13456, "##dock": 24889, "hervormen": 13258, "gevecht": 12537, "Heerlen": 3258, "##ndy": 27273, "rij": 18304, "tweelingbroer": 20442, "ernstige": 11348, "##CB": 23233, "nie": 16055, "Zuider": 7828, "doodziek": 10864, "biefstuk": 9540, "hiervan": 13288, "mand": 15338, "demonstraties": 10606, "##kavel": 26442, "ontbloot": 16578, "kr": 14593, "Pamel": 5475, "gillen": 12707, "ministers": 15656, "Audrey": 957, "Thuis": 6929, "Lat": 4239, "##dil": 24858, "daglicht": 10502, "baten": 8774, "coca\u00efne": 10203, "Charlotte": 1728, "raadsman": 17925, "wiskundige": 22523, "Harvey": 3214, "trouwen": 20393, "govern": 12821, "jurylid": 14011, "Coninck": 1888, "Hotspur": 3469, "Richard": 5972, "tentoongesteld": 19975, "oppermachtig": 16939, "Wald": 7513, "Guido": 3102, "krijt": 14652, "##bbel": 24191, "Kristin": 4136, "Leef": 4269, "breid": 9879, "##schrijvers": 28409, "Rozen": 6112, "##knuppel": 26558, "JC": 3663, "kennismaking": 14184, "delen": 10594, "yoghurt": 22630, "onweer": 16748, "statement": 19438, "opstand": 16970, "Sun": 6747, "onaangenaam": 16302, "Beng": 1171, "horde": 13440, "teleurstellend": 19949, "eenheden": 11132, "compliment": 10274, "Capelle": 1621, "m\u00f3et": 15883, "soepel": 19153, "Hirsi": 3378, "onstuimig": 16571, "ossen": 17048, "bossen": 9811, "##struc": 28818, "afpersing": 8297, "Animal": 811, "hechtenis": 13110, "ondernemers": 16397, "Music": 5026, "verwoesting": 21554, "atletiek": 8619, "##bben": 24192, "ann\u00e9e": 8492, "nonsens": 16107, "uitgeoefend": 20528, "zielen": 22767, "AD": 530, "##supporters": 28850, "Alejandr": 696, "Teresa": 6871, "waarnemer": 22174, "kras": 14623, "Ober": 5272, "huisdier": 13482, "Rood": 6074, "buitenshuis": 9979, "culinair": 10444, "gered": 12347, "vertellen": 21416, "ge\u00ebrfd": 12662, "Janine": 3695, "leegte": 14894, "minutieu": 15665, "##kruimel": 26640, "nettowinst": 16034, "Diederik": 2124, "##cro": 24732, "Aangezi": 560, "Marvel": 4681, "idee": 13569, "leugens": 14975, "##47": 23096, "allerlaatste": 8410, "##enbach": 25109, "IJssel": 3523, "muilezel": 15841, "vijandelijk": 21654, "##our": 27622, "verondersteld": 21229, "elektronische": 11249, "borstkas": 9806, "##zzi": 29959, "uitgaans": 20502, "##verandering": 29338, "1910": 288, "Harrison": 3210, "glippen": 12750, "schuim": 18807, "X": 30024, "##gevangen": 25639, "ONDER": 5265, "stromen": 19695, "zoge": 22810, "hou": 13457, "bewapend": 9432, "Mitchell": 4906, "Anders": 787, "Kin": 4002, "##enswaardige": 25126, "waterleiding": 22255, "##ata": 24082, "Bossche": 1382, "##eft": 25034, "Bundesliga": 1532, "splitst": 19300, "passieve": 17319, "Sacr": 6183, "wangedrag": 22223, "meewarig": 15492, "##ificatie": 26127, "lichte": 15028, "##inae": 26193, "wiel": 22448, "peterselie": 17409, "538": 461, "##begrip": 24221, "emoties": 11277, "Cer": 1702, "schacht": 18583, "##atha": 24089, "##wand": 29638, "benoemde": 9110, "##oda": 27375, "dienstverlening": 10684, "##gedrongen": 25426, "tuin": 20406, "##leger": 26754, "##opsis": 27553, "Tand": 6821, "controversie": 10374, "toelaat": 20156, "vochtig": 21778, "##alsnog": 23946, "moderne": 15719, "Connexxion": 1891, "Nieuws": 5182, "allochtoon": 8416, "klaagt": 14277, "Gil": 2949, "christendemocra": 10149, "gebeurtenissen": 11876, "gr": 12823, "heet": 13132, "##knokt": 26555, "behaard": 8921, "Luitenant": 4490, "lamp": 14812, "kartel": 14126, "dialect": 10652, "Wilders": 7638, "acteer": 8150, "Addis": 612, "evolutie": 11417, "vijf": 21658, "##weleens": 29684, "##vlinder": 29507, "Seth": 6385, "smeren": 19081, "##8": 83, "Marc": 4626, "Rey": 5952, "figuurlijk": 11580, "opgebeld": 16847, "opstelling": 16975, "Coast": 1829, "krijgsgevangen": 14646, "ge\u00ebxploiteerd": 12668, "Sa": 6173, "frustrerend": 11753, "Gott": 3020, "liefhebber": 15052, "Legio": 4285, "Suske": 6760, "##mars": 27051, "##veren": 29361, "bok": 9741, "geldschieter": 12145, "##anta": 24004, "##g": 119, "Brothers": 1489, "##oom": 27522, "firma": 11616, "fantastisch": 11513, "Bach": 1025, "Onze": 5351, "Nee": 5117, "trollen": 20375, "Samenwerking": 6214, "Canarisch": 1615, "futuristisch": 11783, "impliciet": 13634, "smal": 19064, "Dittrich": 2162, "Gezondheidszorg": 2930, "besefte": 9228, "tekort": 19926, "rommel": 18396, "Alitalia": 717, "planeten": 17487, "mosdiertjes": 15812, "besteed": 9270, "negentienjarig": 16013, "strikte": 19691, "Wilrijk": 7650, "dagvaarding": 10503, "Key": 3980, "Burn": 1541, "arrondissement": 8578, "rederij": 18085, "##croft": 24733, "##theorie": 28976, "eten": 11380, "luitenant": 15232, "Jessica": 3740, "oorspronkelijk": 16791, "seminar": 18860, "Palermo": 5464, "Deleu": 2073, "jouw": 13986, "Nancy": 5078, "##d": 116, "sterft": 19504, "Zoek": 7806, "##obelprijswinnaar": 27364, "##knoop": 26556, "##try": 29126, "houden": 13460, "verbrok": 20904, "niets": 16059, "##len": 26773, "##neembaar": 27278, "ertegen": 11355, "gewezen": 12598, "halfgeleider": 13009, "afkeurend": 8276, "verhuren": 21059, "Blanc": 1283, "poets": 17563, "Raven": 5869, "schuifelde": 18802, "levendig": 14989, "manipulatie": 15347, "schilderachtig": 18694, "beurzen": 9369, "kletst": 14343, "natuurlijk": 15962, "giftig": 12698, "superheld": 19775, "cosmetica": 10394, "kopje": 14545, "2007": 388, "uitgesloten": 20538, "veiliger": 20807, "##silo": 28480, "Time": 6960, "##istisch": 26295, "huurde": 13527, "##ric": 28140, "Gen\u00e8ve": 2883, "Merckx": 4797, "##tournee": 29068, "Oek": 5285, "Helemaal": 3283, "Kapitein": 3901, "##rassen": 28026, "concurrentie": 10306, "eindigen": 11219, "Kwart": 4174, "Salvador": 6209, "##kleurige": 26533, "vruchtbare": 22107, "##star": 28699, "misbruik": 15670, "geroofd": 12376, "##mission": 27153, "Peeters": 5538, "Pay": 5532, "gekleurd": 12104, "gigantisch": 12700, "##raat": 27984, "##rada": 27991, "lidstaat": 15039, "##verbinding": 29343, "Veneti\u00eb": 7271, "stem": 19486, "##aarde": 23782, "middenmoot": 15598, "Consumenten": 1904, "machinegewe": 15276, "Carol": 1642, "##rooi": 28242, "Beiers": 1135, "Schot": 6306, "Annie": 826, "minderheden": 15639, "motorfietsen": 15830, "controles": 10371, "Tani": 6823, "ken": 14171, "Norton": 5246, "02": 158, "toeval": 20198, "##keren": 26458, "volksgezondheid": 21845, "##straal": 28782, "225": 408, "Schipper": 6292, "humanitaire": 13514, "relatieve": 18178, "gewonnen": 12610, "##zaad": 29829, "##eerd": 25022, "##gewezen": 25671, "##\"": 66, "Sterre": 6671, "Afrikane": 643, "commerci\u00eble": 10244, "goddelijk": 12773, "mineralen": 15644, "bloosde": 9692, "index": 13661, "lachten": 14793, "Baar": 1017, "night": 16074, "precieze": 17677, "afscheiding": 8304, "##CO": 23244, "archipel": 8547, "##lanbureau": 26700, "Wanne": 7528, "statistieken": 19445, "luiken": 15224, "##more": 27203, "liedjes": 15044, "##etter": 25203, "##klank": 26511, "minimum": 15651, "##STE": 23658, "##trainer": 29077, "##afide": 23869, "bezinning": 9496, "##koek": 26563, "Trouwen": 7065, "wekelijks": 22332, "##5": 80, "aangebracht": 7888, "Allen": 725, "Wesley": 7599, "Pre": 5728, "benaming": 9100, "sjokte": 18952, "bandleden": 8728, "Universitair": 7155, "Oceaan": 5274, "geboden": 11884, "morgenochtend": 15807, "Meso": 4811, "Old": 5301, "Island": 3639, "slijt": 19017, "verspreid": 21361, "##overwogen": 27645, "busje": 10018, "Ren\u00e9": 5934, "helikopter": 13170, "##winst": 29758, "Arnhem": 908, "bek": 8968, "Buch": 1511, "overstemd": 17160, "Ke": 3936, "vasthouden": 20764, "Mooie": 4969, "##ASH": 23197, "natuurgebied": 15959, "Bo": 1312, "brandstof": 9865, "vitamine": 21710, "##zover": 29930, "Angelina": 803, "straf": 19637, "##sverkiezingen": 28852, "Lake": 4207, "Gandhi": 2808, "flavi": 11636, "Indonesi\u00eb": 3585, "manifest": 15344, "fatsoen": 11529, "observeren": 16182, "schijnen": 18683, "sier": 18911, "Cant": 1618, "beschuldigend": 9221, "deuntje": 10641, "satire": 18556, "wagon": 22203, "Tor": 7012, "##scha": 28321, "##avu": 24134, "inhaal": 13733, "##WC": 23740, "##2": 77, "org": 17024, "speeltuin": 19248, "onveranderd": 16714, "prestige": 17702, "werkgroep": 22392, "bitter": 9608, "Toon": 7009, "duivel": 11051, "opgeven": 16880, "verticaal": 21420, "finish": 11614, "verzoeken": 21593, "##hydr": 26033, "verkennen": 21076, "voormalige": 21929, "##dreiging": 24942, "##moulin": 27216, "Hoe": 3391, "##atum": 24108, "Felipe": 2604, "Gru": 3090, "concurreren": 10307, "middags": 15585, "AMSTERDAM": 540, "##an": 23967, "##aux": 24125, "vals": 20716, "modern": 15718, "##bloed": 24380, "oktober": 16224, "wind": 22497, "Alzheimer": 745, "geopend": 12290, "besturing": 9298, "adjunct": 8186, "toelating": 20159, "duikt": 11045, "##getrokken": 25632, "##DEL": 23261, "##tail": 28875, "Boy": 1408, "opvarende": 16992, "##RF": 23609, "blauwe": 9632, "##tim": 29010, "wedstrijden": 22276, "keken": 14167, "##erusten": 25173, "27": 418, "Keulen": 3977, "vooralsnog": 21886, "ochtend": 16188, "5": 20, "Kha": 3983, "Tubeke": 7087, "Rwanda": 6149, "##weef": 29664, "##herziening": 25924, "1909": 287, "Stro": 6718, "genocide": 12267, "von": 21870, "##klampt": 26510, "\u00e4": 30055, "##rem": 28095, "Conn": 1889, "Hind": 3372, "toevoeging": 20206, "verzacht": 21565, "##fokker": 25305, "curator": 10450, "diverse": 10765, "afspiegeling": 8316, "Ste": 6643, "Ian": 3539, "vergezeld": 21008, "Discovery": 2157, "Halic": 3166, "weken": 22333, "Wyatt": 7714, "grondwettelijk": 12935, "##cht": 24603, "##itor": 26309, "z\u00e9lf": 22969, "Beyonc\u00e9": 1235, "bankrekening": 8738, "streep": 19667, "##bezit": 24325, "##BO": 23221, "##group": 25807, "ratione": 17996, "formule": 11690, "Curtis": 1977, "real": 18012, "Warren": 7537, "diens": 10677, "##liezen": 26847, "gegadigde": 12029, "mocht": 15711, "finishte": 11615, "Vos": 7454, "gediscrimineerd": 11971, "Sad": 6184, "President": 5732, "##IN": 23420, "PA": 5436, "fietsen": 11573, "rub": 18447, "Jullie": 3836, "hamer": 13022, "##streek": 28798, "konvooi": 14520, "begroeting": 8913, "French": 2751, "Princip": 5742, "Gans": 2810, "Robb": 6012, "leveren": 15007, "##gevecht": 25640, "verzen": 21584, "kinderachtig": 14259, "Tucker": 7088, "Koets": 4065, "bovenstaande": 9843, "tussendoor": 20424, "worsteling": 22600, "kousen": 14591, "##camp": 24531, "sep": 18868, "Werkgelegenheid": 7594, "1858": 247, "##UI": 23696, "##ellini": 25088, "onderhevig": 16380, "knoopte": 14434, "bewustzijn": 9477, "ingredi\u00ebnten": 13729, "festiviteit": 11567, "Justine": 3851, "passeer": 17311, "jaren": 13932, "Ambacht": 752, "Antonia": 840, "Zwan": 7841, "##beurt": 24305, "##tatie": 28899, "##tunica": 29144, "Rupo": 6134, "Columb": 1853, "campagne": 10052, "Johnson": 3777, "geprivatiseerd": 12324, "society": 19146, "##lees": 26748, "##NG": 23514, "transactie": 20310, "NMBS": 5054, "##lappen": 26714, "##heart": 25885, "kreeftachtigen": 14628, "History": 3381, "Leon": 4306, "frank": 11729, "milder": 15620, "gevel": 12541, "pot": 17642, "toehoorder": 20149, "Dijkstal": 2135, "##terminal": 28956, "Fly": 2681, "groepswedstrijd": 12916, "##bloemen": 24383, "verdraaid": 20941, "geroosterd": 12378, "Indiana": 3575, "Passion": 5510, "braaf": 9851, "smak": 19061, "##blauwe": 24364, "tegenwoordig": 19916, "tact": 19828, "gesneden": 12440, "verdedigd": 20911, "groeide": 12902, "Swan": 6767, "knabbel": 14393, "vermaak": 21171, "##gebruikers": 25411, "bedienen": 8817, "hoofdkantoor": 13387, "origine": 17038, "on": 16300, "prioriteit": 17743, "Dortmund": 2223, "Hong": 3433, "voortgang": 21966, "177": 225, "Indi\u00eb": 3582, "Florenc": 2672, "Veiligheid": 7259, "universele": 20656, "borg": 9799, "werken": 22387, "Eijk": 2381, "##uijt": 29193, "Samar": 6212, "moed": 15724, "poule": 17649, "##lat": 26722, "Tri": 7049, "fluweel": 11657, "Syri\u00ebrs": 6786, "voortduren": 21963, "box": 9846, "ontspring": 16659, "Molenbeek": 4940, "sessie": 18885, "eerstvolgend": 11163, "onbeschoft": 16335, "opmerking": 16925, "volhoud": 21839, "vrijwillige": 22083, "##gebrand": 25406, "##ucci": 29168, "##wagens": 29631, "lijkschouwer": 15082, "overstappen": 17157, "Katrien": 3927, "Holocaust": 3418, "verweten": 21531, "kegel": 14160, "##eringen": 25158, "tal": 19842, "Tja": 6978, "Zulte": 7833, "re\u00ebel": 18285, "geel": 12004, "##vrij": 29596, "druk": 11017, "Ceulemans": 1706, "behouden": 8958, "##ova": 27629, "fascinatie": 11520, "onbetrouwbaar": 16338, "kolossale": 14492, "fluister": 11650, "avonturier": 8668, "schalde": 18594, "gedownload": 11982, "stoet": 19576, "strop": 19709, "Kuip": 4157, "bescherming": 9197, "bezat": 9479, "ontslagen": 16650, "retour": 18265, "binnendrong": 9582, "rots": 18430, "adem": 8176, "##coup": 24717, "Hetero": 3343, "Technische": 6837, "haal": 12985, "vrachtwagen": 22029, "Jefferson": 3721, "##molen": 27190, "handen": 13038, "dag": 10494, "gebeden": 11866, "##front": 25344, "Jacobus": 3677, "##script": 28428, "Byrne": 1555, "parkeergarage": 17274, "##mbri": 27074, "800": 497, "col": 10211, "explosieve": 11454, "Hamas": 3175, "sleurde": 19008, "Kunt": 4165, "gebroken": 11906, "verschuiving": 21329, "pijpen": 17435, "##ngelooflijk": 27305, "reizigers": 18163, "Pegg": 5539, "Rembrandt": 5926, "sympathisant": 19801, "Istanboel": 3645, "knop": 14435, "natte": 15954, "smid": 19088, "stapten": 19431, "gehurkt": 12082, "avondje": 8665, "##pad": 27674, "schoenen": 18716, "Vermeersch": 7311, "ontwikkelen": 16697, "Shirley": 6413, "##illi": 26180, "optie": 16978, "geduwd": 11999, "overgaan": 17094, "##ever": 25215, "Hoeveel": 3396, "##stuurt": 28839, "bedel": 8804, "ongeldig": 16476, "intro": 13854, "wrak": 22607, "beveiligd": 9379, "TC": 6791, "##hou": 25992, "Fortis": 2703, "##kijk": 26481, "Kerst": 3969, "werkende": 22388, "##fan": 25237, "Freddy": 2743, "gesponsord": 12452, "huishouden": 13486, "Rhod": 5960, "Little": 4410, "suggereren": 19764, "wraak": 22606, "schoorsteen": 18744, "houtskool": 13466, "##tram": 29081, "Herre": 3332, "doodgaan": 10851, "Biggles": 1244, "##zaag": 29830, "##singel": 28483, "alsof": 8423, "berm": 9165, "##aoui": 24016, "##geknepen": 25472, "##rod": 28216, "vredesakkoord": 22036, "Rue": 6121, "##HAN": 23375, "prikken": 17727, "B\u00e9": 1557, "##seksualiteit": 28442, "##werk": 29696, "##zien": 29891, "Pop": 5700, "nummers": 16161, "Gul": 3108, "##mura": 27233, "hoofdstuk": 13403, "##gsman": 25809, "Graafschap": 3031, "landinwaarts": 14834, "plas": 17497, "##zetting": 29879, "verkeersongeluk": 21072, "Terra": 6874, "opdrachten": 16811, "run": 18482, "duiven": 11053, "Stam": 6629, "##MAN": 23485, "asbest": 8591, "83": 501, "verwijst": 21541, "suggestie": 19765, "##voerster": 29534, "uitspraak": 20594, "##boom": 24419, "raming": 17967, "##chner": 24595, "##eerden": 25024, "##me": 27076, "Jorge": 3803, "uitsluiten": 20591, "vastzitten": 20769, "##eschrokken": 25180, "kleintjes": 14334, "schrale": 18764, "eerste": 11161, "##MT": 23499, "overheids": 17117, "beweeglijk": 9437, "##peda": 27720, "Fried": 2755, "raket": 17960, "boodschapper": 9779, "Tim": 6959, "versierd": 21333, "grootmacht": 12939, "verspillen": 21359, "##kleeft": 26524, "##rokken": 28228, "##misbruik": 27149, "omgezet": 16254, "MR": 4528, "beladen": 9013, "diertje": 10703, "terugkeren": 20019, "##34": 23079, "##spreidingsgebied": 28633, "hol": 13353, "Aga": 647, "onvoldoende": 16737, "vreet": 22048, "##tsch": 29127, "##scholing": 28383, "begaan": 8878, "##feld": 25250, "dergelijke": 10623, "bezegeld": 9480, "##rente": 28105, "Rustig": 6143, "ci": 10156, "##nov": 27347, "divisie": 10768, "##b\u00e9": 24520, "zwangerschap": 22931, "audit": 8627, "bepalen": 9130, "jaloezie": 13925, "overvloed": 17178, "##producer": 27916, "2006": 387, "H\u00e8": 3511, "vriendinnetje": 22059, "weifelend": 22324, "verwachtingen": 21501, "Pinkpop": 5630, "voortdurende": 21965, "strelen": 19674, "waarnaar": 22171, "dichter": 10662, "Europeaan": 2508, "Symphon": 6782, "link": 15103, "terstond": 20001, "waarom": 22177, "facturen": 11490, "Mut": 5031, "Ou": 5415, "##lucht": 26969, "##profiteerd": 27926, "Stekene": 6657, "componisten": 10280, "veracht": 20833, "Zambia": 7760, "scheeps": 18622, "vrijwillig": 22082, "##school": 28387, "o": 30037, "stelsel": 19483, "allerhand": 8409, "Mobiliteit": 4914, "##turbine": 29148, "beet": 8874, "vieze": 21652, "Bog": 1331, "godin": 12776, "gep": 12297, "plant": 17493, "VNO": 7185, "##kade": 26400, "gebrand": 11900, "herhaald": 13207, "##gelden": 25485, "##qu\u00e9": 27976, "Werknemers": 7596, "##campagne": 24532, "eenvoud": 11142, "overschaduwd": 17151, "Volkswagen": 7432, "Botswana": 1386, "Mes": 4810, "1844": 243, "##mini": 27142, "vooruit": 21979, "##leman": 26771, "##eten": 25191, "vindingrijk": 21676, "Amateur": 750, "ca": 10033, "koestert": 14468, "Pyral": 5802, "##gund": 25817, "Fijn": 2631, "bezoekje": 9505, "lelijk": 14945, "basisscholen": 8764, "##building": 24497, "hobby": 13322, "##wit": 29763, "Micro": 4845, "Slowakije": 6496, "harte": 13083, "##tekort": 28927, "berekend": 9153, "##vari": 29309, "knorrig": 14440, "##idani": 26073, "Timmer": 6962, "##winnen": 29756, "voet": 21802, "zenuw": 22724, "ogen": 16219, "##lez": 26813, "Tik": 6953, "zuilen": 22889, "##slaap": 28512, "binnengekomen": 9584, "alledaags": 8397, "Onwillekeurig": 5350, "Mar": 4622, "##o": 127, "vuurwapen": 22132, "beoordeling": 9126, "Mallory": 4599, "Mountain": 4998, "Berkeley": 1190, "voorgeschoteld": 21910, "##gelaten": 25483, "illustreer": 13612, "landelijk": 14823, "Angelo": 804, "Bruyn": 1507, "Dodge": 2180, "gefinancierd": 12019, "plechtig": 17512, "verdampt": 20909, "##commissarissen": 24676, "concept": 10292, "bezoekt": 9506, "Dracht": 2236, "afgeven": 8257, "Ayl": 988, "overheersen": 17113, "Nero": 5136, "afgebakend": 8228, "overeenkomsten": 17090, "##iola": 26249, "##dio": 24868, "knu": 14443, "Verhoeven": 7300, "boord": 9786, "cowboy": 10405, "##ervorst": 25175, "ontvankelijk": 16675, "##tta": 29131, "##wegen": 29676, "hopelijk": 13436, "verontwaardigd": 21237, "Cara": 1627, "##suitdrukking": 28847, "manager": 15335, "##roome": 28245, "##gevallen": 25638, "Kho": 3988, "Line": 4391, "boeven": 9738, "##kraan": 26615, "Tjalling": 6979, "vertrouwelijke": 21446, "Haven": 3226, "##og": 27398, "STAND": 6170, "containers": 10352, "##lou": 26964, "verorber": 21247, "##kamers": 26407, "Duivel": 2285, "ingeschakeld": 13713, "Katja": 3926, "wakker": 22205, "##eks": 25054, "zuster": 22903, "immuun": 13626, "straatje": 19636, "Boek": 1325, "Republikeins": 5938, "koker": 14481, "behoeften": 8949, "Grad": 3033, "Olivier": 5307, "zaden": 22647, "Belastingdienst": 1147, "flesje": 11638, "##GD": 23355, "werkelijkheid": 22386, "vensterbank": 20825, "indiaan": 13662, "alinea": 8393, "herrie": 13240, "list": 15120, "ontbinding": 16577, "wonderbaarlijk": 22564, "Eindhovense": 2387, "Henin": 3305, "pleister": 17518, "beauty": 8785, "kronen": 14667, "toereikend": 20174, "Notre": 5249, "horloge": 13447, "invalshoek": 13863, "Lind": 4386, "##houdster": 25999, "menen": 15515, "Stads": 6624, "hoge": 13345, "##guy": 25822, "Nederland": 5108, "##RIS": 23616, "##tier": 28998, "Hope": 3458, "##spin": 28609, "Bond": 1350, "##thema": 28975, "bergen": 9158, "verschroeid": 21325, "enkele": 11294, "Ang": 799, "##che": 24578, "neerslag": 15999, "achteruitgang": 8133, "klassiekers": 14309, "etablissement": 11375, "bankbiljetten": 8733, "Taylor": 6833, "kever": 14225, "##TZ": 23688, "##aga": 23878, "Petit": 5581, "##schroeven": 28413, "gadesloeg": 11795, "geregeld": 12354, "##ssel": 28658, "tieners": 20083, "orthodoxe": 17047, "wandelen": 22217, "##slachtoffers": 28514, "Sneijder": 6516, "ineenstorting": 13680, "##onjour": 27486, "##waden": 29629, "Shu": 6419, "doen": 10811, "Katie": 3925, "##conflict": 24695, "##\u00f1": 30016, "##misdrijf": 27151, "##lokaal": 26935, "haring": 13077, "##verzoek": 29438, "##versus": 29423, "##hef": 25897, "##lectuur": 26736, "##zat": 29854, "Kre": 4127, "verovering": 21253, "Portugezen": 5711, "fok": 11663, "##lef": 26750, "buik": 9964, "Mauri": 4713, "walvissen": 22211, "##uren": 29247, "De": 2058, "viering": 21646, "##spookt": 28619, "##winning": 29757, "angstige": 8482, "riet": 18303, "zwak": 22924, "herkennen": 13225, "##87": 23141, "Gud": 3098, "schokte": 18721, "##wijk": 29736, "Hell": 3287, "bevind": 9395, "president": 17696, "sentimenteel": 18867, "Leipzig": 4294, "Constant": 1900, "verliefd": 21148, "##coalitie": 24655, "##uft": 29183, "nimmer": 16081, "kiezen": 14239, "Ferri": 2619, "kromp": 14666, "lampen": 14813, "goedkeur": 12784, "overmacht": 17141, "##203": 23039, "spelletje": 19261, "oorverdovend": 16794, "bezorgen": 9510, "Sankt": 6227, "lesbisch": 14961, "inbreuk": 13651, "Stefano": 6653, "gecre\u00eberd": 11934, "afzetting": 8355, "extremisme": 11471, "koningin": 14514, "##bijdrage": 24339, "##pool": 27852, "##restaurant": 28114, "155": 212, "Schotse": 6308, "Vietnam": 7354, "##loop": 26947, "Jim": 3751, "ellendig": 11266, "##boel": 24400, "vermogens": 21204, "##bag": 24157, "##lijnen": 26865, "eentje": 11140, "terreinwagen": 19991, "\u00d3": 30047, "knie": 14409, "Buckingham": 1513, "Nobel": 5215, "vermoeid": 21199, "zoekt": 22804, "##ablo": 23797, "##ast": 24079, "diepvries": 10694, "vermoeide": 21200, "##peil": 27724, "car": 10067, "##voedingsmiddelen": 29525, "kraam": 14598, "steeg": 19456, "Brinkman": 1464, "##buk": 24501, "Spel": 6584, "monitor": 15772, "Pas": 5507, "##nkbare": 27328, "eenvoudige": 11144, "tombe": 20222, "rooskleurig": 18424, "Suk": 6740, "210": 405, "Bates": 1090, "beschoten": 9207, "bioscoop": 9600, "Nathalie": 5088, "investeerde": 13868, "raasde": 17935, "Weimar": 7566, "afkorting": 8282, "vloeide": 21750, "##beker": 24235, "##zelf": 29866, "gemiddelde": 12224, "Kamer": 3886, "berghelling": 9159, "verstrek": 21395, "##toernooi": 29040, "lagere": 14807, "bidden": 9535, "Unesco": 7146, "ontwikkelt": 16701, "bedwingen": 8853, "Historic": 3379, "sporen": 19322, "speel": 19238, "metaal": 15558, "stempel": 19493, "pic": 17416, "Ang\u00e9lique": 809, "##bos": 24433, "verwend": 21522, "##vision": 29481, "Hoegaarden": 3392, "##ouders": 27618, "zweer": 22941, "Jager": 3680, "opvangen": 16991, "##glu": 25742, "##prestatie": 27896, "leer": 14898, "##ucky": 29173, "Mili": 4870, "##VEN": 23718, "inboedel": 13645, "hoogwaardig": 13421, "##jah": 26350, "medisch": 15450, "Vorig": 7451, "file": 11587, "maar": 15266, "opgeroepen": 16868, "horizontaal": 13445, "gedwee": 12000, "Stadium": 6623, "gewaagd": 12574, "##kins": 26494, "zeg": 22684, "##spekt": 28599, "Religie": 5924, "hasj": 13092, "Beth": 1219, "##58": 23112, "##cent": 24554, "facilit": 11485, "Ultra": 7143, "##rat": 28027, "##gewoonte": 25679, "berichtje": 9163, "##moed": 27177, "frons": 11746, "fitness": 11622, "##herstructurering": 25921, "##tild": 29009, "braken": 9854, "Gio": 2960, "ontwikkelingen": 16699, "News": 5152, "satijn": 18555, "leeftijd": 14891, "running": 18486, "##lept": 26780, "Kiev": 3994, "eilandje": 11210, "HIJ": 3132, "##lax": 26728, "collage": 10214, "##AAN": 23159, "Kalf": 3881, "lijve": 15092, "nuttige": 16165, "##verlof": 29392, "Rij": 5987, "ijsberen": 13591, "zakken": 22658, "meestal": 15484, "dinosaurus": 10728, "Las": 4237, "Gun": 3111, "Prof": 5760, "Bl": 1277, "Ralf": 5841, "ambtenaar": 8449, "##gelovig": 25501, "Dwars": 2300, "##trekker": 29099, "topsport": 20249, "##speelde": 28596, "toegangspoort": 20135, "kastanjebruin": 14135, "buiten": 9967, "##ou": 27614, "Pa": 5445, "##CM": 23242, "dolle": 10825, "Val": 7211, "stijgt": 19546, "Universit": 7154, "Baas": 1019, "hun": 13517, "VRT": 7191, "Passa": 5509, "##andra": 23979, "##out": 27624, "oogenblik": 16771, "tred": 20331, "##veel": 29322, "##track": 29072, "co\u00f6rdinatie": 10406, "naam": 15891, "##leg": 26751, "##blazen": 24365, "barbaren": 8742, "##gul": 25815, "mogelijkheid": 15749, "##vriend": 29591, "Barneveld": 1072, "##lic": 26821, "groeit": 12905, "repertoire": 18217, "##inspecteur": 26234, "##vlo": 29509, "##cken": 24638, "Vee": 7246, "gevangen": 12527, "kiezer": 14240, "stevig": 19526, "spullen": 19362, "warrig": 22249, "rossig": 18427, "Farm": 2580, "##brengen": 24467, "Atlas": 948, "##bewaking": 24313, "Schengen": 6278, "Molukken": 4943, "delegatie": 10593, "##geraden": 25555, "verschuldigd": 21330, "##lum": 26978, "evalueren": 11401, "profiel": 17794, "Pf": 5589, "Regisseur": 5911, "adellijke": 8175, "wo": 22538, "onschadelijk": 16565, "lachwekkend": 14794, "Juda": 3824, "##schreven": 28402, "74": 488, "jungle": 14000, "Wonder": 7691, "brevi": 9889, "klaver": 14314, "##kommer": 26580, "Onderzoek": 5334, "Lit": 4405, "##slaat": 28513, "##onis": 27482, "verzorg": 21599, "Paulo": 5526, "exemplaar": 11431, "vertolking": 21425, "##CTIE": 23250, "##geworpen": 25680, "liggen": 15072, "##SW": 23662, "Uitgeverij": 7137, "luguber": 15212, "trek": 20343, "polder": 17568, "##bouillon": 24439, "short": 18904, "##grijze": 25792, "Show": 6418, "Boedapest": 1322, "Info": 3590, "bijzondere": 9567, "Put": 5796, "tactiek": 19829, "Karl": 3909, "database": 10534, "Burke": 1540, "nederlagen": 15979, "jammerlijk": 13928, "lasten": 14866, "spongi": 19306, "Gina": 2955, "opsporing": 16967, "simpel": 18930, "Engeland": 2446, "discipline": 10745, "achterstallig": 8128, "Vicky": 7347, "##circuit": 24628, "Trent": 7046, "##organisatie": 27570, "spoor": 19315, "hoedanig": 13326, "136": 202, "sjo": 18951, "550": 464, "Soe": 6530, "haven": 13096, "Aan": 558, "HAAG": 3129, "bevel": 9384, "archieven": 8546, "tanks": 19859, "slag": 18973, "##prins": 27905, "gegrom": 12040, "Wagen": 7506, "##keer": 26445, "penseel": 17362, "effectenbeur": 11179, "kruising": 14686, "botanische": 9814, "fun": 11758, "toernooi": 20180, "eetlust": 11166, "natrium": 15953, "Bonn": 1355, "volslagen": 21856, "##ward": 29646, "Maldegem": 4590, "Sheffield": 6404, "openheid": 16831, "prototype": 17844, "##OD": 23540, "Pendergast": 5545, "Imag": 3565, "Rousseau": 6103, "##besproken": 24281, "Hoofddorp": 3443, "##mani": 27037, "##sini": 28485, "broeikasgassen": 9906, "ondergaan": 16367, "##wein": 29680, "verbitterd": 20875, "##dina": 24861, "1951": 329, "kam": 14057, "Ryan": 6152, "Todd": 6986, "dubbelspel": 11031, "hernieuw": 13232, "onbekende": 16322, "topscorer": 20248, "Hotel": 3468, "broei": 9904, "Leuven": 4325, "kennelijk": 14179, "verzwakken": 21608, "verlengen": 21140, "Ibrahim": 3542, "evolutionair": 11418, "Merkel": 4804, "tips": 20116, "##FOR": 23348, "voorzien": 21995, "ballad": 8713, "ge\u00efmproviseerd": 12673, "##derhand": 24829, "Leo": 4305, "leest": 14908, "Hyp": 3509, "auteursrecht": 8636, "##long": 26941, "##onsumentenbond": 27493, "##leund": 26798, "##raadslid": 27979, "##toevoer": 29046, "ongewone": 16516, "fi": 11568, "##advertentie": 23851, "verklaar": 21085, "##kooi": 26587, "archief": 8545, "logo": 15147, "##lay": 26729, "trio": 20362, "Waren": 7534, "Falk": 2568, "zat": 22669, "Oei": 5284, "site": 18944, "g\u00e9": 12978, "##baat": 24152, "##yon": 29823, "##vik": 29465, "Revu": 5950, "diepgang": 10690, "constitu": 10338, "bocht": 9706, "First": 2649, "kracht": 14606, "gepolijst": 12317, "afspraak": 8318, "meebreng": 15455, "##veiling": 29328, "circus": 10167, "##oord": 27526, "opvolgen": 16997, "Cos": 1931, "tasje": 19870, "spaghetti": 19206, "Verzekering": 7338, "##geschoold": 25585, "boerderij": 9732, "Kristof": 4137, "##virus": 29477, "geslepen": 12432, "stoppen": 19612, "gerelateerd": 12358, "Pei": 5540, "brandend": 9860, "gepensioneerd": 12305, "cabine": 10036, "ouderwets": 17059, "afgehandeld": 8234, "presenteer": 17693, "rechtvaardig": 18058, "##AG": 23169, "##shire": 28468, "RBC": 5809, "Wandel": 7526, "voltallig": 21859, "reparatie": 18215, "opgeschort": 16871, "##ship": 28467, "espresso": 11366, "Mou": 4996, "lachje": 14790, "##ometer": 27445, "stuiten": 19732, "voltooid": 21861, "airbag": 8369, "Water": 7545, "code": 10206, "from": 11745, "Cruise": 1963, "Harmonie": 3205, "Mon": 4945, "Kameroen": 3888, "Macedoni\u00eb": 4550, "pessimistisch": 17406, "McCarthy": 4727, "stoplicht": 19610, "##dorf": 24917, "Zagreb": 7755, "##q": 129, "volkeren": 21842, "raadplegen": 17920, "voetballer": 21808, "Fashion": 2582, "##schuld": 28418, "zovele": 22870, "unieke": 20653, "locomotief": 15132, "fotograaf": 11703, "##gestemd": 25615, "##plex": 27821, "##diensten": 24850, "onvolkomenhe": 16738, "52": 459, "Noo": 5225, "ellebogen": 11263, "hechten": 13109, "import": 13636, "kerstboom": 14204, "lang": 14839, "##ENE": 23312, "Celest": 1687, "zodanig": 22798, "Larry": 4234, "internationaal": 13833, "##ub": 29165, "voorraad": 21940, "bedevaart": 8813, "reddings": 18078, "zelfverdediging": 22714, "Sam": 6211, "Permanent": 5564, "Argentijn": 885, "Town": 7029, "Cam": 1596, "Rein": 5916, "daarin": 10475, "geregistreerd": 12356, "shorttrack": 18905, "vloer": 21758, "voorbij": 21897, "verzucht": 21605, "Campert": 1607, "kartonne": 14128, "##zin": 29900, "labyrint": 14786, "onweerstaanbaar": 16751, "Stal": 6627, "AM": 539, "omgedoopt": 16245, "Randall": 5853, "##cast": 24540, "##erde": 25142, "India": 3574, "Atl\u00e9tic": 951, "begin": 8890, "ge\u00efn": 12674, "ruzi\u00ebn": 18499, "##anke": 23994, "##stick": 28741, "gracht": 12833, "onverstaanbaar": 16727, "##pop": 27855, "mineraal": 15643, "knarste": 14402, "vijfhonderd": 21663, "##lopers": 26958, "buitenaf": 9969, "Arkon": 897, "##chudding": 24608, "scholen": 18723, "Neen": 5119, "langzame": 14854, "onderdanen": 16358, "##quot": 27975, "##torren": 29064, "Earl": 2321, "Levi": 4330, "beeldhouw": 8859, "##UE": 23694, "systeem": 19810, "terugkomen": 20021, "voorwerp": 21989, "Geometr": 2886, "Leven": 4328, "elementen": 11252, "opnieuw": 16932, "omringend": 16270, "Martijn": 4677, "verloochen": 21159, "##anni": 23997, "Enschede": 2459, "oase": 16169, "huilde": 13475, "Racing": 5829, "beveelt": 9378, "inkomen": 13744, "mislukt": 15686, "Swi": 6770, "##leer": 26747, "geregeerd": 12353, "aangegeven": 7891, "##iaal": 26034, "##ijer": 26152, "freelance": 11734, "aansluit": 7982, "runder": 18484, "geografisch": 12285, "Fred": 2741, "dompel": 10835, "ANC": 541, "Tussen": 7104, "verzetten": 21587, "##gras": 25779, "Cris": 1955, "democra": 10599, "##hallen": 25849, "Bijenkorf": 1247, "Global": 2980, "kunstmatige": 14716, "designate": 10629, "Jennifer": 3728, "versplinter": 21360, "prins": 17738, "Kant": 3896, "stomme": 19591, "stedelijk": 19451, "stomverbaasd": 19595, "Regina": 5907, "##num": 27356, "##dragers": 24936, "meiden": 15498, "Jersey": 3735, "ju": 13987, "nigro": 16076, "Jane": 3692, "##thy": 28987, "Gur": 3114, "##EW": 23333, "Yve": 7744, "##steden": 28708, "verdedigen": 20913, "Linda": 4387, "belastingdienst": 9029, "##uff": 29181, "3500": 433, "extreemrechts": 11469, "dezelfde": 10647, "##apparaat": 24019, "hoeren": 13336, "roffel": 18379, "##SL": 23646, "##girl": 25728, "informateur": 13686, "##kastje": 26439, "kier": 14234, "ruimer": 18465, "uitsluiting": 20593, "Trevi": 7047, "meldpunt": 15507, "waagde": 22140, "##anji": 23993, "bureaucratie": 10003, "Overwegend": 5431, "##fragment": 25332, "Spider": 6590, "Atlantis": 946, "noorden": 16123, "Joegoslavi\u00eb": 3764, "##brigade": 24473, "anti": 8498, "##84": 23138, "getint": 12496, "bordeel": 9794, "decennia": 10550, "Fabian": 2557, "##alle": 23937, "grootouder": 12942, "bloeddruk": 9666, "Anneke": 822, "Vitesse": 7382, "bord": 9793, "krijger": 14644, "Moorsel": 4974, "Zuidelijke": 7827, "ontwerp": 16689, "##boe": 24396, "Vorm": 7452, "Glo": 2979, "Calv": 1594, "##berichten": 24266, "zij": 22772, "fans": 11509, "co\u00f6rdineer": 10408, "##zie": 29885, "##lect": 26735, "Stichting": 6682, "aspecten": 8599, "vaart": 20681, "Anciaux": 780, "Onzin": 5352, "dorpen": 10912, "achterkant": 8118, "schilder": 18693, "Klaus": 4024, "Mercedes": 4796, "gebrul": 11918, "Limon": 4383, "presentatie": 17690, "sterveling": 19517, "##melk": 27100, "kostbaar": 14577, "gegooid": 12037, "struik": 19715, "##onderzoeksbureau": 27468, "Perez": 5560, "voorspelde": 21948, "##eurs": 25207, "winkelcentr": 22501, "##rinidad": 28183, "##schatting": 28344, "dankt": 10521, "Kiel": 3992, "Vast": 7241, "##zi": 29881, "volbracht": 21823, "##blind": 24378, "schouders": 18760, "Cli": 1816, "ongewis": 16515, "##Bladzijde": 23231, "Dolicho": 2192, "verdubbelen": 20953, "lente": 14953, "resultaat": 18257, "Gonzalez": 3005, "##verdeling": 29353, "Leslie": 4317, "veelzeggend": 20789, "conducteur": 10311, "Osama": 5405, "##ATE": 23200, "Ik": 3559, "vrijstaand": 22080, "slok": 19033, "logge": 15142, "onoverwinnelijk": 16551, "##eghem": 25039, "functioneren": 11767, "dribbel": 10963, "##ator": 24103, "escorte": 11365, "cadeautje": 10040, "Darwin": 2046, "Thomson": 6920, "##class": 24644, "noodweer": 16115, "bevreesd": 9416, "again": 8360, "deelgenomen": 10561, "doelbewust": 10795, "patrouille": 17337, "spoorlijn": 19316, "ambassade": 8440, "##gloss": 25741, "##grenzen": 25788, "##specialist": 28592, "baas": 8681, "scheepsbouw": 18623, "Lourdes": 4461, "slak": 18978, "duld": 11057, "Mead": 4739, "doordat": 10878, "##E": 92, "inflatie": 13683, "train": 20292, "##verdrag": 29358, "combineren": 10228, "North": 5245, "rijks": 18316, "mobiel": 15706, "Rams": 5850, "##duo": 24985, "mythische": 15879, "##fontaine": 25310, "1908": 286, "eerlijke": 11158, "borstel": 9802, "Merrill": 4808, "Charlie": 1727, "##ura": 29245, "hoogspannings": 13413, "Sne": 6513, "##bol": 24407, "Oskar": 5407, "##groeve": 25802, "Houtem": 3475, "##ignon": 26143, "achternaam": 8124, "##eck": 25005, "ergens": 11331, "##edel": 25011, "Bilbao": 1253, "Dr": 2232, "Close": 1823, "hartstilstand": 13089, "##lig": 26850, "organisaties": 17027, "tegen": 19900, "Arnhemse": 909, "nacht": 15900, "##RU": 23627, "##liegt": 26842, "Festival": 2623, "verkend": 21075, "beroemdste": 9168, "bedenkt": 8811, "opleiden": 16908, "oordelen": 16784, "aanbieding": 7867, "schaars": 18579, "toevoegde": 20204, "bespeur": 9254, "bedreigd": 8829, "voorstellingen": 21960, "doelgericht": 10798, "Idols": 3548, "beloven": 9075, "rekte": 18173, "was": 22250, "Later": 4242, "holes": 13356, "extremisten": 11472, "overtreding": 17167, "verkoold": 21101, "plee": 17513, "Wakker": 7511, "eiken": 11206, "Sociaal": 6524, "Elke": 2414, "Technolog": 6838, "##iq": 26258, "Paarden": 5446, "Rogge": 6044, "conflicten": 10315, "kapott": 14110, "gesprekspartner": 12457, "Annemarie": 824, "Utrecht": 7167, "bestuderen": 9296, "malle": 15327, "trottoir": 20389, "Cyprian": 1982, "fair": 11494, "American": 758, "##ramp": 28011, "Cees": 1684, "##maar": 27002, "##norm": 27342, "sollicitant": 19170, "vleermuizen": 21724, "verhitte": 21042, "calcium": 10045, "Zwijndrecht": 7855, "dubbele": 11030, "parachute": 17253, "peil": 17350, "wieg": 22447, "VER": 7178, "golvende": 12799, "Tig": 6948, "aanlokkelijk": 7956, "##trappen": 29087, "##gra": 25764, "filosoof": 11602, "##sluiten": 28538, "produkt": 17781, "##o\u00ef": 27664, "##tent": 28945, "doch": 10776, "##?": 87, "kende": 14173, "##uebec": 29177, "vlakke": 21718, "##X": 30001, "drugs": 11011, "Zelzate": 7783, "kerkhof": 14196, "zorginstelling": 22862, "ontdoe": 16590, "Christoph": 1770, "Suiker": 6739, "1814": 232, "Seda": 6348, "aantrekkelijker": 8005, "##bi": 24332, "145": 208, "cor": 10380, "Compagnie": 1874, "fysio": 11785, "ventilatie": 20828, "glaasje": 12721, "##draven": 24940, "genegenheid": 12249, "##cornis": 24713, "Assche": 930, "machtigste": 15285, "vlees": 21725, "##ald": 23921, "Canada": 1610, "verdwenen": 20962, "neerzette": 16002, "Bureau": 1535, "gele": 12147, "lezen": 15010, "symbolisch": 19792, "opstellen": 16974, "bijzonder": 9566, "Aho": 663, "gewikkeld": 12603, "mail": 15305, "Kroes": 4143, "aanstaarde": 7990, "##vezels": 29447, "spelers": 19258, "##america": 23957, "DI": 1994, "##gemeten": 25514, "reis": 18157, "##kara": 26433, "con": 10287, "Adventure": 624, "Riv": 6006, "emancipatie": 11269, "verslaan": 21337, "##child": 24591, "afbraak": 8216, "##somstandigheden": 28572, "Vlijmen": 7403, "Algemene": 710, "vertoonde": 21431, "Rafael": 5834, "KBC": 3857, "Palm": 5470, "adequaat": 8182, "##ssi": 28662, "surf": 19784, "Frank": 2726, "activiteit": 8165, "##piercing": 27769, "loog": 15167, "##krediet": 26623, "moge": 15745, "gebeuren": 11873, "vandaan": 20727, "olifant": 16230, "Nord": 5240, "debatteer": 10542, "Eduard": 2349, "vereenzelvig": 20966, "ramen": 17966, "1935": 313, "ouder": 17053, "##NVB": 23533, "Kil": 3998, "##EKEN": 23299, "##treffen": 29092, "Fort": 2702, "##raz": 28033, "Telekom": 6856, "##ssamenwerking": 28656, "zin": 22781, "versnellen": 21353, "meer": 15473, "Kentucky": 3962, "onderneming": 16398, "##waarde": 29621, "Amo": 767, "bij": 9546, "##okyo": 27423, "muil": 15840, "Troost": 7060, "Wiel": 7627, "##processen": 27914, "achterhale": 8114, "Hendrickx": 3300, "Klanten": 4020, "destijds": 10634, "mu": 15838, "tafereel": 19836, "ruimschoots": 18466, "Niko": 5200, "Schippers": 6293, "Aus": 963, "zeer": 22679, "koopkracht": 14527, "##aandoening": 23770, "miljardair": 15628, "##letter": 26795, "kameraden": 14062, "Deirdre": 2071, "##ison": 26281, "vermelden": 21178, "racistisch": 17941, "middelmatig": 15593, "##chneumon": 24596, "help": 13177, "onaangename": 16303, "ree": 18088, "##functionaris": 25348, "##maak": 26994, "##run": 28284, "Johnston": 3778, "Gwy": 3123, "Bal": 1040, "gesmet": 12436, "spinne": 19283, "verminderde": 21188, "stellingen": 19482, "muizen": 15844, "transfer": 20312, "noodzaak": 16116, "Helm": 3289, "CA": 1562, "tanden": 19855, "Cox": 1944, "Boeck": 1321, "eeuwen": 11169, "notering": 16147, "##ambtenaren": 23955, "kampvuur": 14072, "amb": 8437, "verleiding": 21136, "##KT": 23454, "Boxtel": 1407, "Michel": 4836, "woest": 22550, "Leefmilieu": 4271, "looptijd": 15178, "mum": 15849, "amusement": 8460, "voorlichting": 21925, "griffier": 12879, "Mohammed": 4934, "Styl": 6730, "Doornik": 2214, "Marsh": 4672, "Stefanie": 6652, "toetsenbord": 20195, "manuscript": 15359, "##maat": 27004, "enigszin": 11292, "Nog": 5220, "hoogsten": 13417, "piloten": 17444, "##erijen": 25156, "##bel": 24240, "William": 7646, "gil": 12705, "uitvallen": 20613, "violen": 21686, "##remont": 28099, "##voorwaarden": 29564, "a": 30025, "onderarm": 16351, "sluier": 19044, "vanzelf": 20738, "##oijmans": 27410, "##uniform": 29236, "gelekt": 12161, "giechel": 12690, "route": 18437, "twee\u00ebn": 20446, "kamers": 14064, "zendtijd": 22723, "dacht": 10488, "honderdste": 13373, "Burgeroorlog": 1539, "##academie": 23803, "geintje": 12086, "##korps": 26599, "toevallig": 20199, "scheikunde": 18632, "versierde": 21334, "landstitel": 14838, "Rooij": 6075, "ontstaan": 16660, "##mate": 27059, "garnalen": 11822, "##stoten": 28779, "##uch": 29169, "##isering": 26277, "##lac": 26680, "Einstein": 2388, "Jeremia": 3731, "kaas": 14031, "wedden": 22269, "waren": 22243, "Maureen": 4712, "##kkel": 26501, "##portefeuille": 27862, "klas": 14301, "diamant": 10655, "permanente": 17383, "afgedekt": 8232, "Henri\u00ebtte": 3311, "za": 22633, "##pot": 27871, "##vlag": 29488, "Yo": 7731, "bedrijfstak": 8841, "##ette": 25201, "##dji": 24884, "Vergadering": 7292, "categor": 10082, "raakt": 17928, "##ago": 23890, "##premie": 27890, "bestudeer": 9292, "doelstellingen": 10807, "##dol": 24903, "World": 7703, "vergemakkelijk": 21003, "##36": 23081, "V": 48, "VERORDENING": 7179, "opvoeding": 16995, "herstel": 13245, "##entachtig": 25127, "ganzen": 11812, "charge": 10117, "deelstaten": 10571, "##rion": 28186, "jezu\u00efet": 13949, "##kampioenschappen": 26412, "individueel": 13668, "Maxima": 4718, "Ferdinand": 2611, "Smi": 6507, "##jaar": 26342, "##ous": 27623, "##ges": 25576, "Iemand": 3551, "Ramalla": 5846, "argwanend": 8557, "functionaris": 11762, "vergoed": 21016, "Webster": 7556, "korting": 14570, "Stijn": 6683, "##vraag": 29580, "Hermans": 3327, "Tessenderlo": 6885, "RC": 5810, "##zano": 29852, "speurders": 19269, "matig": 15410, "Telegraph": 6855, "reisbureau": 18158, "##AW": 23204, "beseffen": 9226, "stilstand": 19558, "Nicolas": 5167, "CAO": 1563, "ziekelijk": 22757, "##olo": 27434, "herstelde": 13247, "weerzinwekkend": 22303, "afkeuring": 8277, "Mach": 4551, "##cel": 24550, "onbewust": 16344, "Fransen": 2734, "verhuur": 21060, "##productie": 27919, "r": 30040, "##fluit": 25303, "##emp": 25107, "natural": 15955, "evenredig": 11408, "##rie": 28154, "regelingen": 18110, "onbemand": 16326, "##beeld": 24209, "Buddy": 1515, "allure": 8418, "fietsers": 11575, "uitkijk": 20563, "parkeerplaats": 17275, "buitengewone": 9972, "eredivisie": 11322, "schrijven": 18782, "Mai": 4579, "Dutroux": 2297, "riskeer": 18337, "Beau": 1109, "nerveu": 16025, "verschijnt": 21315, "##gedrag": 25423, "##moedig": 27179, "doof": 10865, "##onwaarschijnlijk": 27512, "Maar": 4537, "jaloers": 13924, "tusschen": 20421, "schaats": 18580, "##OON": 23558, "##rom": 28232, "schittering": 18713, "kenmerken": 14176, "137": 203, "##osaur": 27588, "##r\u00f6": 28299, "witwasse": 22537, "##verwerking": 29432, "Hul": 3490, "##juist": 26385, "bacterie": 8688, "cyber": 10455, "schuchter": 18796, "schoonmaken": 18740, "Gwen": 3122, "gelijkmaker": 12172, "Rooy": 6081, "allemaal": 8401, "2014": 395, "bedreig": 8828, "geestelijk": 12008, "##raampje": 27982, "Nor": 5237, "vernuft": 21227, "##SML": 23648, "berg": 9157, "met": 15557, "tempo": 19962, "vriendje": 22060, "wijzigingen": 22480, "abstracte": 8073, "##iciteit": 26062, "Beuk": 1225, "Co": 1826, "afschrikwekkend": 8306, "Lef": 4280, "Milosevic": 4880, "ritmisch": 18342, "scharen": 18605, "##Visie": 23737, "##adres": 23848, "fiscaal": 11618, "Leefbaar": 4270, "##KE": 23441, "##ive": 26323, "##kritiek": 26632, "##kind": 26491, "statuut": 19449, "versturen": 21402, "paarden": 17203, "Keuken": 3976, "fabri": 11478, "hergebruik": 13205, "Bruxelles": 1506, "stoei": 19570, "##gebracht": 25405, "nest": 16028, "gelost": 12186, "bestrijden": 9289, "Hawa\u00ef": 3230, "Daphne": 2042, "fabrieken": 11480, "janken": 13929, "huwde": 13534, "zieken": 22758, "##bui": 24495, "voetbalbond": 21804, "knipperen": 14424, "pijnlijk": 17431, "##criminaliteit": 24729, "illuster": 13609, "Got": 3019, "hervatte": 13255, "##schutter": 28420, "##uwer": 29276, "Snel": 6517, "armoede": 8563, "jarige": 13935, "vermeng": 21181, "Hercule": 3319, "##poets": 27838, "detailhandel": 10636, "26": 416, "diagnose": 10650, "spiritualiteit": 19291, "zwijg": 22957, "##lid": 26831, "Jaarlijks": 3669, "Temp": 6861, "geneeskunde": 12245, "privacy": 17746, "fluistert": 11654, "schildpad": 18701, "##gebouwde": 25403, "Drie": 2249, "seconde": 18836, "##ary": 24065, "##elle": 25084, "##poppen": 27856, "ongeluk": 16485, "##afhankelijk": 23868, "Avi": 979, "##pru": 27937, "trekken": 20344, "Kad": 3874, "##beheer": 24226, "morele": 15804, "##fini": 25285, "woensdagavond": 22548, "Lima": 4379, "wond": 22562, "etage": 11376, "##erie": 25152, "vorderde": 22002, "levens": 14991, "werkplek": 22401, "go": 12769, "treden": 20332, "##sprei": 28632, "Polen": 5682, "Wees": 7561, "##conventionele": 24710, "Kul": 4159, "##capaciteit": 24536, "##lin": 26875, "##head": 25884, "sprong": 19356, "Regen": 5902, "Luchtvaart": 4476, "hardware": 13073, "maan": 15257, "Kot": 4116, "##trok": 29114, "##adi": 23843, "##stelling": 28724, "vibr": 21629, "kroniek": 14668, "##televisie": 28932, "zwijgzaam": 22961, "hip": 13304, "1933": 311, "##spreekt": 28631, "Vereniging": 7291, "##zuren": 29941, "##grens": 25787, "broodnodig": 9927, "CNN": 1569, "Hoogenband": 3446, "Marokkaan": 4667, "werk": 22381, "verheug": 21036, "school": 18730, "parket": 17278, "Franklin": 2729, "Liberal": 4342, "brak": 9853, "Crawford": 1949, "Font": 2689, "huilt": 13478, "##ure": 29246, "IS": 3533, "realiseerde": 18015, "##box": 24448, "##ssing": 28664, "##congres": 24696, "regeert": 18104, "glibberig": 12735, "##modus": 27176, "Enkhuize": 2457, "Gezond": 2929, "##be": 24195, "Chor": 1758, "##motoren": 27213, "communie": 10253, "Have": 3225, "touch": 20260, "##able": 23796, "##grad": 25771, "verkrachting": 21110, "traint": 20301, "middenin": 15596, "Mexicaan": 4822, "##stoot": 28773, "aangeboden": 7887, "No\u00ebl": 5257, "##studie": 28826, "authentic": 8637, "crises": 10431, "##wat": 29653, "\u2018": 61, "##werving": 29707, "service": 18883, "politiewagen": 17585, "##leeg": 26745, "Satan": 6247, "##zinnig": 29903, "Vanweg": 7236, "gevangenen": 12529, "touw": 20265, "uitgeleverd": 20525, "##inos": 26231, "middelen": 15591, "##ris": 28188, "Sign": 6435, "mutant": 15863, "boek": 9719, "##personeel": 27743, "klokken": 14368, "##zand": 29848, "##vaar": 29284, "stip": 19568, "##drager": 24935, "valse": 20717, "##pa": 27666, "Links": 4394, "Bres": 1449, "deel": 10557, "##order": 27564, "razend": 18003, "w\u00e9l": 22624, "botsen": 9819, "kroost": 14677, "openen": 16825, "vermoeiend": 21202, "Verordening": 7318, "##handel": 25857, "Albani\u00eb": 688, "slanke": 18985, "puur": 17903, "onzichtbare": 16765, "##jagers": 26349, "belager": 9014, "gezond": 12646, "Concurrent": 1883, "rare": 17990, "Heem": 3254, "wachtlijst": 22196, "##EEFT": 23288, "luide": 15216, "Tuo": 7094, "Niks": 5202, "##mina": 27140, "##stin": 28755, "##ladder": 26684, "Babel": 1021, "onderhandeld": 16376, "verpleeg": 21260, "classic": 10184, "R\u00f6": 6156, "gesteente": 12465, "verhoren": 21050, "onbekend": 16321, "afdoend": 8221, "##AGEN": 23170, "##bedrag": 24203, "Berth": 1206, "Sporting": 6604, "Vergelijk": 7295, "klootzak": 14376, "Merijn": 4802, "tbs": 19882, "ding": 10724, "opbouw": 16805, "nederlaag": 15978, "gezondheids": 12649, "po\u00ebtisch": 17653, "##bat": 24184, "dwerg": 11098, "Anti": 833, "gluren": 12767, "Erg": 2473, "zaterdag": 22670, "##universiteit": 29237, "psychiater": 17864, "latere": 14874, "shampoo": 18892, "Saer": 6187, "Siem": 6430, "Nintendo": 5208, "mailadres": 15306, "AS": 548, "nauwgezet": 15967, "pakjes": 17217, "Antwoord": 846, "piloot": 17442, "politiekorps": 17583, "Du": 2263, "positie": 17630, "brein": 9883, "##ar": 24023, "##ky": 26668, "##lading": 26686, "##ling": 26880, "Science": 6331, "Schi": 6285, "Perzische": 5573, "##pjes": 27790, "kruis": 14685, "vlokreeften": 21760, "##economie": 25008, "##abonnement": 23799, "##terdege": 28950, "Erfgoed": 2472, "Ess": 2485, "moest": 15740, "Hutch": 3500, "commercieel": 10243, "hoveling": 13467, "gratie": 12856, "##S": 105, "Snelle": 6518, "zuivere": 22893, "podcast": 17558, "vossen": 22017, "##huid": 26014, "draad": 10929, "dusdanig": 11071, "##juk": 26386, "dreigend": 10956, "##huwelijk": 26030, "Arena": 881, "geduld": 11995, "weide": 22321, "##ndle": 27271, "verstoord": 21389, "treinen": 20339, "##yce": 29811, "Arnold": 911, "##klampen": 26509, "##ri\u00ebn": 28202, "Take": 6810, "bestaande": 9266, "Zelf": 7781, "zul": 22895, "behorend": 8956, "branden": 9859, "##co\u00f6peratie": 24722, "voetpad": 21815, "versuft": 21404, "katholieke": 14146, "Freedom": 2748, "ruimteschepen": 18469, "##deren": 24828, "tassen": 19871, "geoorloofd": 12288, "getoond": 12502, "voorzag": 21991, "##KING": 23446, "digitaal": 10710, "droevig": 10995, "##spits": 28613, "filmfestival": 11592, "schubben": 18795, "vrijetijds": 22071, "Samsung": 6217, "doorgang": 10886, "kofferbak": 14472, "kaft": 14041, "Aandacht": 559, "taal": 19816, "trol": 20374, "verboden": 20886, "##gegroeid": 25446, "##slaag": 28509, "54": 462, "aanzienlijk": 8038, "vervangen": 21459, "koninklijke": 14518, "Network": 5142, "beland": 9015, "##PK": 23587, "zaterdagochtend": 22673, "Vi": 7344, "##reldgezondheids": 28092, "magi\u00ebr": 15301, "vest": 21612, "vervuiling": 21487, "noordwesten": 16130, "bonussen": 9774, "nuchter": 16157, "hippie": 13307, "eitje": 11229, "steunt": 19524, "##uitdrukkingsloos": 29200, "hoofdsponsor": 13401, "zielig": 22768, "##radio": 27994, "##pos": 27865, "overleven": 17135, "verwant": 21504, "Subti": 6734, "doodstraf": 10862, "mars": 15386, "##familie": 25236, "aanrecht": 7976, "aantal": 7995, "##fiches": 25266, "boterham": 9817, "rauw": 17998, "##kraker": 26619, "##levering": 26808, "##lijm": 26863, "##60": 23114, "Denkt": 2088, "getrouwd": 12510, "ploeggenote": 17534, "ruim": 18462, "##hun": 26024, "passen": 17313, "punk": 17892, "roodharige": 18412, "##pje": 27789, "zet": 22737, "inspecteerde": 13764, "##LB": 23461, "social": 19141, "##tech": 28906, "knoppen": 14438, "##oet": 27391, "bewaken": 9428, "##favoriet": 25242, "YORK": 7716, "##ings": 26214, "##veen": 29323, "initiatiefnemer": 13742, "talkshow": 19847, "duizend": 11056, "fregat": 11735, "Oregon": 5391, "deelname": 10563, "volledig": 21851, "Conservatorium": 1898, "##limite": 26874, "##time": 29011, "Boris": 1369, "na\u00efeve": 15974, "Letter": 4321, "Woensdag": 7679, "nabestaanden": 15896, "uitgewerkt": 20553, "##ique": 26259, "gealarmeerd": 11846, "##andpasta": 23978, "##GL": 23365, "Tranen": 7039, "arbiter": 8537, "##pat": 27708, "Benjamin": 1172, "hoort": 13433, "financieel": 11609, "negatief": 16005, "Kinshasa": 4007, "##reportage": 28108, "Mendonck": 4787, "gekneusd": 12108, "Flam": 2657, "verkrampt": 21111, "annex": 8488, "##CN": 23243, "##cephal": 24559, "##hre": 26008, "wa": 22138, "##hoven": 26006, "katten": 14148, "athe\u00efs": 8615, "feite": 11552, "doelen": 10797, "##kom": 26576, "verleidelijk": 21134, "##treffer": 29093, "Gibraltar": 2941, "##waard": 29620, "catastrofe": 10081, "##aal": 23762, "Schouwburg": 6311, "leidde": 14928, "##opname": 27547, "juicht": 13994, "Hospital": 3465, "Bata": 1088, "lieflijk": 15055, "part": 17287, "wassen": 22251, "##onische": 27483, "VROM": 7189, "Dra": 2233, "Pen": 5544, "levert": 15009, "##cursus": 24759, "##culus": 24754, "Vaak": 7202, "##streng": 28803, "liet": 15062, "##dreven": 24945, "Row": 6106, "beginnen": 8891, "bulk": 9992, "neerwaarts": 16001, "Alec": 695, "Francesco": 2718, "##osaurus": 27589, "stram": 19653, "Mozart": 5003, "##flessen": 25297, "Douwe": 2228, "grind": 12893, "maandagavond": 15260, "strenge": 19676, "sleur": 19007, "Bennett": 1174, "migranten": 15605, "Rico": 5979, "Veertien": 7254, "repareren": 18216, "uitvoering": 20623, "oneffen": 16456, "##toon": 29057, "uiteen": 20492, "Gen": 2869, "Genoeg": 2877, "goederen": 12782, "##rus": 28288, "##puzzel": 27960, "Marjolein": 4656, "mechanisch": 15424, "personage": 17390, "Was": 7540, "rondhangen": 18402, "Ter": 6869, "kleefde": 14322, "vettig": 21623, "gezegd": 12628, "##houwer": 26004, "geloof": 12181, "##ebola": 25001, "lacht": 14791, "post": 17634, "Vrijdag": 7467, "##reuzel": 28122, "##terughoudendheid": 28962, "slaapkamer": 18966, "hoorzitting": 13434, "##dzj": 24996, "receptionist": 18032, "##ceo": 24558, "\u00e9": 30057, "Aqua": 857, "##verdediger": 29351, "Schei": 6273, "##OL": 23550, "##ovi": 27647, "fotokopie": 11709, "gewaarwording": 12578, "kwaliteit": 14742, "fabriek": 11479, "robijn": 18355, "##bed": 24198, "Vlak": 7394, "concessie": 10296, "salontafel": 18521, "schorsing": 18753, "telefonie": 19935, "##plegers": 27816, "Voedsel": 7412, "schenking": 18645, "Reagan": 5877, "Zwaard": 7840, "##BM": 23220, "stoorde": 19603, "buitenspel": 9980, "schatte": 18611, "##aanbod": 23766, "afschaffing": 8302, "glo": 12753, "##BP": 23222, "Cameron": 1603, "Wilhelmina": 7641, "levend": 14987, "Mede": 4745, "nieuws": 16069, "##oli": 27429, "werkzame": 22410, "##voertuig": 29535, "Emmy": 2436, "gesplitst": 12451, "veilig": 20805, "2": 17, "##bius": 24353, "Gelukkig": 2859, "##odor": 27380, "##pomp": 27849, "Daan": 2002, "Islam": 3637, "##lem": 26770, "Casino": 1657, "verzilver": 21588, "hoofdprijs": 13395, "Uruguay": 7165, "##bell": 24247, "##zwaard": 29946, "##sproblemen": 28641, "##gevoegd": 25649, "laatste": 14780, "algoritme": 8389, "##vil": 29466, "legaliser": 14915, "verzoenen": 21595, "oud": 17050, "Forrest": 2701, "##zio": 29904, "sigaretten": 18919, "##pha": 27755, "Kahl": 3875, "cas": 10074, "woningen": 22571, "Kost": 4114, "Veerle": 7252, "Valk": 7217, "vage": 20695, "zure": 22900, "Laura": 4246, "specifieke": 19230, "vreemde": 22043, "8": 23, "aantonen": 7999, "##1852": 23015, "doorboord": 10872, "heleboel": 13167, "Galatasaray": 2798, "lol": 15153, "automobiel": 8648, "Amalia": 748, "eer": 11150, "bibliotheek": 9532, "verdwijnen": 20963, "systemen": 19812, "Suzuki": 6763, "impressionist": 13639, "cynisme": 10460, "omvatte": 16289, "ondertussen": 16422, "##RK": 23617, "radiostation": 17954, "##ting": 29014, "Pyr": 5801, "##achi": 23812, "inwoner": 13883, "procentpunt": 17765, "onderstaande": 16410, "bemoeien": 9089, "durf": 11066, "##wijs": 29740, "vlucht": 21766, "kabinet": 14035, "##automaten": 24122, "eenvoudig": 11143, "##bouw": 24444, "Chang": 1719, "##\u00efn": 29986, "Militair": 4872, "Berber": 1178, "Spijt": 6595, "Congole": 1886, "bochten": 9707, "vloeiend": 21752, "##UV": 23708, "hardhandig": 13069, "drietal": 10973, "##vorens": 29569, "Sommige": 6545, "Wid": 7623, "Gui": 3101, "voorstelde": 21957, "Exchange": 2533, "continu": 10359, "censuur": 10096, "##slikken": 28527, "##tic": 28989, "boodschappen": 9778, "##motief": 27208, "pul": 17890, "weren": 22379, "onbehage": 16319, "Judith": 3825, "klompen": 14371, "Mannen": 4616, "Lauwe": 4255, "gegeten": 12032, "ontnem": 16632, "politieman": 17584, "##ruk": 28281, "geleend": 12151, "##rius": 28196, "Boe": 1320, "negeerde": 16008, "zelfstandig": 22711, "streven": 19680, "Organisatie": 5393, "##hoest": 25954, "##langs": 26710, "gemoedelijk": 12229, "knikken": 14416, "zaakwaarnemer": 22639, "dalend": 10508, "heuvel": 13268, "kloof": 14374, "dank": 10518, "ondersteund": 16413, "hoofd": 13382, "Adam": 610, "grauwe": 12859, "groette": 12919, "blaas": 9616, "##wonden": 29775, "vasteland": 20755, "Paas": 5448, "verwezenlijk": 21534, "Cinema": 1785, "activeren": 8162, "er": 11315, "Fortuna": 2704, "##08": 22984, "stille": 19554, "Wel": 7570, "##leem": 26746, "##mitteren": 27156, "Annelies": 823, "##drama": 24937, "aandringen": 7882, "##foto": 25327, "garantie": 11817, "##rrier": 28265, "##ELD": 23301, "Ris": 6004, "beelden": 8858, "Rivier": 6008, "##dank": 24792, "##ophilu": 27542, "fameu": 11499, "harder": 13068, "onuitputtelijk": 16711, "Sz": 6788, "##LAND": 23460, "Trio": 7054, "gezang": 12626, "voorbeelden": 21890, "bas": 8756, "##idio": 26085, "lagen": 14805, "pleidooi": 17516, "##wo": 29766, "papieren": 17246, "##OE": 23541, "haastig": 12991, "duo": 11062, "sponsors": 19309, "ontkennen": 16614, "participatie": 17290, "vent": 20827, "kastje": 14139, "terughoudend": 20015, "##usta": 29260, "tumor": 20412, "##ontzeggen": 27510, "Hoffman": 3399, "Nijl": 5190, "lachte": 14792, "ontoegankelijk": 16633, "Rem": 5925, "##DR": 23274, "Drama": 2241, "krankzinnig": 14616, "Huy": 3502, "etmaal": 11386, "geboorte": 11890, "vernemen": 21214, "cijfer": 10157, "Orchestra": 5387, "TNT": 6796, "uitschakeling": 20587, "Harm": 3204, "inkomsten": 13746, "##beleid": 24246, "Bordeaux": 1366, "##6": 81, "##jager": 26348, "August": 958, "##kapelle": 26428, "Estland": 2489, "Johannesburg": 3773, "botsing": 9820, "richtingen": 18295, "gedacht": 11939, "iemand": 13586, "zand": 22664, "Jackson": 3674, "##diner": 24863, "Anth": 830, "##schil": 28371, "complicatie": 10273, "waarnemend": 22173, "\u00eb": 30059, "Heijmans": 3267, "Musk": 5027, "##populatie": 27857, "marionet": 15375, "Boekarest": 1326, "##letje": 26790, "formula": 11689, "verrader": 21272, "beurswaarde": 9366, "par": 17250, "ijzeren": 13600, "##initiatie": 26220, "Jaime": 3682, "sokkel": 19161, "##huiveringwekkend": 26019, "zigeuner": 22770, "##landers": 26705, "gebeurd": 11871, "voortzetting": 21978, "##hold": 25963, "Woerden": 7680, "BEL": 1001, "pick": 17417, "##01": 22980, "rom": 18389, "Waasland": 7501, "mikke": 15615, "##scommissie": 28424, "Cin": 1783, "breng": 9885, "fluisteren": 11652, "gef": 12015, "##stock": 28760, "verbaasde": 20848, "electronic": 11236, "##RD": 23605, "##dool": 24913, "##\u00eble": 29981, "Terran": 6875, "kaartje": 14029, "Psycho": 5783, "aanvaardbaar": 8009, "tijdrovend": 20097, "##main": 27021, "Zeitung": 7777, "schil": 18691, "##laag": 26671, "Emp": 2437, "Flori": 2674, "wisten": 22533, "1898": 274, "br": 9849, "##tube": 29137, "aangeraakt": 7908, "##cie": 24615, "##coin": 24659, "verbreding": 20899, "invloedrijke": 13876, "##tioneel": 29019, "Ton": 7002, "atoom": 8621, "Bourne": 1397, "landgoed": 14829, "Vervolgens": 7333, "actieve": 8159, "officieren": 16211, "Mueller": 5007, "ru\u00efnes": 18501, "klassiek": 14306, "vrucht": 22104, "Telefoon": 6853, "Apple": 855, "##rijder": 28165, "Zwitsers": 7858, "Spear": 6576, "##denken": 24823, "Jill": 3750, "Weert": 7560, "garnizoen": 11823, "reiken": 18152, "uitgeprocedeerd": 20529, "Lig": 4364, "Gaston": 2823, "fotografen": 11706, "##\u00ebr": 29983, "schoot": 18746, "thuishoor": 20069, "Luc": 4471, "Meulen": 4819, "apparaat": 8518, "doden": 10788, "score": 18827, "Rijks": 5991, "onderverdeeld": 16424, "scheve": 18671, "waarlijk": 22168, "bourgeois": 9826, "vergeet": 20995, "##quart": 27964, "overgeplaatst": 17103, "ego": 11187, "Corps": 1928, "panel": 17234, "behoedzaam": 8945, "opslagplaats": 16964, "NOS": 5056, "weggooi": 22317, "wenkte": 22359, "hulpverlener": 13510, "Koerden": 4062, "##INA": 23421, "Kroati\u00eb": 4142, "logistiek": 15146, "denkbeeldig": 10611, "##dance": 24791, "Lambrecht": 4211, "verkies": 21080, "1850": 245, "Dom": 2195, "##nig": 27320, "##rdin": 28036, "mooier": 15790, "knoflook": 14428, "benefiet": 9104, "docenten": 10775, "bui": 9958, "##zaamheid": 29835, "Hongaars": 3434, "laaide": 14774, "feestelijke": 11547, "doorgaan": 10884, "wijze": 22474, "schemer": 18639, "##wervel": 29706, "##ois": 27413, "Goldman": 3000, "hierover": 13286, "##kassen": 26436, "##ping": 27780, "Bowie": 1404, "Martinson": 4679, "onmogelijk": 16538, "##medi": 27082, "vereffen": 20968, "ho": 13320, "centra": 10100, "##commissie": 24677, "back": 8687, "##aliteit": 23935, "##bevol": 24309, "##iep": 26107, "bekent": 8978, "Nys": 5262, "##riek": 28155, "bevoorrecht": 9409, "##nippertje": 27323, "Jordani\u00eb": 3802, "voordoen": 21905, "##gesmeerd": 25599, "be\u00efnvloeden": 9527, "voornaam": 21930, "orthodox": 17046, "##lius": 26899, "Metcalfe": 4815, "##woestijn": 29768, "Hessel": 3340, "kalveren": 14056, "gadget": 11796, "mod": 15712, "netwerken": 16038, "1876": 255, "Rat": 5864, "finale": 11605, "hoofdkwartier": 13389, "mini": 15645, "bewaren": 9434, "stilletje": 19555, "##oti": 27606, "plafond": 17480, "art": 8580, "praatjes": 17659, "Integratie": 3603, "##utte": 29267, "##nood": 27338, "website": 22266, "##EK": 23298, "Hart": 3212, "##vaert": 29292, "verhuizen": 21055, "uitzoek": 20640, "zeggen": 22690, "zullen": 22898, "##ect": 25009, "aanmelden": 7958, "Zaterdag": 7766, "Fortuyn": 2705, "mais": 15310, "Gezi": 2928, "symbolische": 19793, "##ientje": 26106, "dringen": 10984, "Mick": 4843, "gepast": 12304, "##RED": 23608, "overvallers": 17176, "Buiten": 1522, "##OET": 23545, "##overschrijdend": 27639, "onderlinge": 16390, "Hockey": 3390, "expeditie": 11437, "Net": 5138, "EK": 2312, "##ouw": 27625, "CNV": 1570, "federatie": 11541, "schuldig": 18815, "lovend": 15199, "Classic": 1802, "Groningen": 3082, "bouwvergunning": 9832, "heimelijk": 13148, "lift": 15070, "##lah": 26689, "gelinkt": 12178, "pauze": 17340, "##spelers": 28604, "##contract": 24707, "shock": 18901, "aangehouden": 7892, "NPS": 5057, "opvolgde": 16996, "lessen": 14964, "room": 18421, "smijt": 19089, "Resolutie": 5942, "doodstil": 10861, "verwijzen": 21544, "Breng": 1447, "q": 30039, "##BVV": 23228, "constante": 10333, "24": 411, "monnik": 15773, "tafere": 19835, "poten": 17643, "eiland": 11208, "Laurenc": 4249, "400": 441, "Songfestival": 6550, "zwavel": 22935, "##organ": 27568, "sabelsprinkha": 18510, "##gedachtenis": 25415, "Kroon": 4147, "##ingen": 26210, "toonbeeld": 20235, "leider": 14930, "bestuursrecht": 9307, "Trijnt": 7053, "bijeenkomst": 9552, "antropo": 8504, "##overweging": 27642, "boeg": 9714, "Soldaten": 6539, "deftig": 10581, "##snel": 28554, "onthouden": 16604, "uitstak": 20598, "beter": 9322, "Columbus": 1855, "transacties": 20311, "zoodat": 22849, "Mary": 4684, "##riem": 28156, "luidruchtig": 15219, "oorlogs": 16788, "buitenbeentje": 9970, "IBM": 3514, "##42": 23090, "##bloesem": 24384, "vernieuwen": 21222, "##238": 23056, "Miss": 4900, "##akkoord": 23914, "Noors": 5235, "managers": 15336, "kubus": 14700, "##weep": 29669, "affiche": 8224, "driedelig": 10965, "neusgat": 16044, "Grote": 3087, "concurrent": 10305, "##211": 23041, "##away": 24136, "linkerar": 15105, "Kyoto": 4178, "Mira": 4894, "Hymenopt": 3508, "diagram": 10651, "##opslag": 27554, "circuleren": 10166, "Vettel": 7342, "##ona": 27457, "minuten": 15664, "theatral": 20052, "eind": 11211, "kol": 14483, "Caribisch": 1634, "schaak": 18570, "1924": 302, "goals": 12771, "hoorbaar": 13430, "gitaar": 12717, "schommel": 18726, "staal": 19371, "afreken": 8298, "volgorde": 21837, "##sloeg": 28529, "Plasterk": 5650, "uitgehongerd": 20517, "rel": 18174, "##5000": 23102, "gauw": 11836, "Ethan": 2492, "##GM": 23366, "Uefa": 7133, "ademen": 8179, "stabiliteit": 19387, "##filet": 25276, "##loon": 26946, "##regime": 28069, "##gebed": 25386, "Vakantie": 7209, "ordening": 17019, "##vel": 29329, "schilderde": 18695, "Warner": 7536, "ongevaarlijk": 16504, "Ortho": 5402, "talent": 19844, "Gelder": 2847, "vaste": 20754, "##ang": 23984, "Belg": 1150, "##vond": 29553, "halfuur": 13012, "voorhoede": 21914, "##gericht": 25568, "##klachten": 26508, "Das": 2047, "formaliteit": 11683, "pruimen": 17857, "##ota": 27602, "##issance": 26283, "rap": 17984, "##MS": 23498, "gastvrijheid": 11831, "verkenning": 21078, "herten": 13249, "steven": 19525, "hier": 13277, "multi": 15845, "catering": 10084, "pistool": 17454, "zonnetje": 22842, "Cath": 1672, "Sebastiaan": 6342, "getraumatiseerd": 12506, "tennisser": 19969, "Studie": 6723, "##bergen": 24261, "##eiland": 25045, "pretentie": 17705, "dierlijke": 10701, "##pennis": 27734, "interview": 13843, "vorig": 22005, "Ava": 975, "Petegem": 5577, "Rousse": 6102, "offensieve": 16206, "63": 474, "##grafische": 25775, "68": 480, "gulden": 12966, "Arts": 920, "Lob": 4419, "Hewitt": 3348, "verbonden": 20889, "vliegdek": 21735, "verraderlijk": 21273, "##\u00e9n": 29973, "140": 205, "##noemd": 27335, "samenwonen": 18539, "schiereiland": 18675, "##industrieterrein": 26203, "verloo": 21158, "##D": 91, "boer": 9731, "zachte": 22643, "##o\u00efde": 27665, "Henk": 3306, "##OG": 23547, "thuiszorg": 20075, "huidig": 13472, "teweeg": 20042, "##magne": 27018, "handpalm": 13046, "kleverig": 14351, "##\u00e1": 30009, "##mannetje": 27040, "Theres": 6908, "H\u00f6": 3513, "achterblijven": 8105, "coffeeshop": 10207, "##ussen": 29259, "Latem": 4240, "effectiviteit": 11182, "Casey": 1655, "buigen": 9961, "##lik": 26869, "##jaarlijkse": 26343, "Hack": 3151, "Broer": 1482, "vult": 22123, "Hoessein": 3395, "individu": 13667, "vloeit": 21754, "##vriendelijk": 29592, "Robert": 6017, "##tien": 28997, "caf\u00e9s": 10043, "toentertijd": 20169, "betastte": 9317, "toelage": 20157, "augustus": 8631, "cross": 10437, "Fabric": 2560, "##kend": 26452, "##technisch": 28910, "weifel": 22323, "Daniel": 2037, "Elf": 2402, "echtpaar": 11113, "##nota": 27345, "##tex": 28967, "Dong": 2206, "ge\u00efnfecteerd": 12675, "seks": 18853, "flauwekul": 11635, "##fabriek": 25230, "Apeldoorn": 849, "ge\u00ebvacueerd": 12664, "kilometers": 14255, "samenleving": 18531, "sandwich": 18546, "verleend": 21129, "portier": 17625, "aspirant": 8601, "Meijer": 4764, "##MB": 23486, "geheugen": 12066, "Haz": 3233, "achterlaten": 8119, "##FE": 23340, "##ONG": 23554, "Fo": 2683, "inkomens": 13745, "wekte": 22338, "##UUR": 23707, "##heb": 25886, "##pijp": 27772, "Ak": 675, "Tull": 7091, "Zwaan": 7838, "##cr\u00e8me": 24738, "##gaven": 25380, "##street": 28800, "##woningcorporatie": 29779, "Defensie": 2068, "afwerend": 8344, "VV": 7196, "imiteren": 13617, "nieuwbouw": 16063, "borrel": 9800, "ruimtelijke": 18468, "vertroebel": 21439, "Braziliaan": 1433, "DE": 1992, "Jonker": 3790, "Picasso": 5609, "##gekamd": 25461, "##vormig": 29572, "##zuiver": 29940, "Carla": 1637, "extraatje": 11467, "##neut": 27300, "Fanny": 2574, "##ition": 26305, "Tijger": 6952, "Ple": 5659, "psychopa": 17872, "##gevend": 25644, "##ense": 25123, "##planten": 27807, "##spectieven": 28594, "verhoging": 21044, "EUR": 2317, "Iwan": 3660, "Voel": 7414, "relikwie": 18189, "Wales": 7514, "Camb": 1598, "Alan": 683, "astronaut": 8611, "hotel": 13454, "##cilinder": 24620, "##deur": 24837, "hokje": 13352, "Veluwe": 7267, "##elaer": 25061, "absurd": 8074, "Nevel": 5148, "verdubbeld": 20952, "zeewier": 22682, "voortgebracht": 21967, "Teun": 6890, "oorlogen": 16787, "netvleugelig": 16035, "Aid": 666, "expertise": 11443, "Hierop": 3359, "medicijnen": 15448, "##INGEN": 23424, "mil": 15617, "kleinkinderen": 14331, "keek": 14153, "Up": 7160, "verdronken": 20951, "methode": 15567, "gevaarlijke": 12522, "Verhofstadt": 7301, "##bedacht": 24199, "rok": 18380, "Arthur": 917, "gelijkspel": 12175, "1982": 360, "interland": 13829, "waterval": 22261, "##verband": 29340, "pamflet": 17230, "##leidster": 26764, "Ivan": 3656, "Plus": 5668, "##ceremonie": 24564, "bijnaam": 9559, "##brief": 24471, "bevoorrading": 9408, "Georgisch": 2892, "naast": 15895, "overleg": 17133, "Consult": 1903, "##lang": 26709, "##unnik": 29240, "Beuningen": 1226, "Adem": 614, "Swift": 6771, "begrip": 8906, "##egel": 25035, "Laar": 4190, "##smeet": 28545, "Belangrijk": 1145, "mama": 15329, "##ivi": 26324, "meerderheid": 15475, "##NT": 23530, "Manhattan": 4614, "cacao": 10038, "##genoot": 25531, "vaders": 20694, "Lausann": 4254, "h\u00e9t": 13555, "strategisch": 19658, "##hari": 25872, "liefdevolle": 15050, "##lening": 26776, "Brigade": 1458, "spieren": 19274, "vroedvrouw": 22086, "schub": 18794, "##rhynch": 28132, "##ations": 24098, "bruidegom": 9937, "alibi": 8391, "##netten": 27295, "audio": 8626, "Bi": 1237, "##pluim": 27828, "tafeltennis": 19833, "##ouf": 27619, "##vreten": 29588, "Wand": 7525, "R\u00e9gi": 6155, "irrelevant": 13898, "prachtig": 17662, "gezwo": 12654, "reform": 18098, "verliezers": 21155, "University": 7157, "gebruikers": 11912, "vertragen": 21433, "##uan": 29163, "Spek": 6583, "aangespoord": 7915, "geuit": 12517, "##ticus": 28992, "##lok": 26934, "##standig": 28695, "aug": 8630, "priester": 17714, "Naties": 5090, "koekjes": 14454, "evacue": 11399, "Village": 7362, "gerenommeerd": 12359, "hoede": 13327, "brandstichting": 9864, "werkzaam": 22409, "steunpunt": 19523, "Tienduizend": 6943, "##atomen": 24102, "partijgenoot": 17296, "starre": 19434, "mat": 15402, "marginale": 15369, "havenstad": 13098, "Bomb": 1344, "motregen": 15833, "##ius": 26321, "kaap": 14023, "tekortkoming": 19927, "tilt": 20109, "vorsten": 22015, "verwelkomen": 21521, "##erij": 25155, "##methoden": 27118, "optimale": 16982, "##pol": 27842, "verliest": 21151, "koele": 14457, "zoogdieren": 22852, "Joden": 3760, "Nood": 5226, "hoofdrol": 13398, "##mai": 27019, "levensmiddelen": 14998, "Zwe": 7845, "wapperde": 22239, "##perspectief": 27747, "burgemeesters": 10007, "evenement": 11405, "Bowl": 1405, "Hui": 3486, "provinciale": 17847, "##ZW": 23753, "##ionisme": 26251, "Advocaat": 626, "Elvis": 2424, "Human": 3494, "##hoop": 25982, "##pho": 27759, "United": 7151, "##rekenen": 28084, "permanent": 17382, "passend": 17314, "zwem": 22943, "Raw": 5870, "leeuw": 14909, "uitgenodigd": 20527, "wapen": 22234, "##kijker": 26484, "politieagent": 17576, "doorzocht": 10903, "bewindvoerder": 9458, "##resultaten": 28117, "liquidatie": 15117, "rijen": 18310, "lijsten": 15089, "##strategie\u00ebn": 28794, "belegd": 9042, "doet": 10812, "nihil": 16077, "##afgebroken": 23866, "Tien": 6942, "schade": 18584, "Ri": 5964, "##cultuur": 24753, "##plezier": 27822, "wijsheid": 22471, "##duizend": 24982, "handhaaf": 13039, "\u00ec": 30060, "maaltijd": 15255, "Ni": 5156, "stelling": 19481, "Dina": 2145, "##ibel": 26047, "Sardini\u00eb": 6241, "profileer": 17796, "##loeiende": 26925, "##tjes": 29032, "Gamb": 2804, "soevereiniteit": 19155, "verbrand": 20896, "03": 160, "Herentals": 3321, "tast": 19872, "verslaving": 21345, "Droog": 2256, "##wolven": 29772, "noemer": 16096, "rijdt": 18309, "overleef": 17130, "zijn": 22777, "eigenare": 11197, "Mason": 4687, "##nikov": 27322, "hangar": 13053, "##ridae": 28151, "##woed": 29767, "grootschalige": 12944, "##aai": 23759, "gelast": 12139, "ijs": 13590, "Gods": 2988, "##ijen": 26151, "Nick": 5162, "overweldigd": 17184, "slapen": 18987, "Roe": 6030, "##wetenschappelijk": 29713, "sinds": 18935, "pakket": 17219, "##actrice": 23832, "jukbeen": 13997, "##rip": 28187, "Saturni": 6248, "##pudding": 27951, "##IES": 23406, "Fiets": 2629, "Ricky": 5978, "Steden": 6645, "w\u00e9\u00e9": 22625, "##duid": 24974, "##symbool": 28860, "Nikke": 5197, "Veer": 7251, "geopperd": 12292, "##inne": 26227, "Bilt": 1259, "Sher": 6407, "mishandeld": 15680, "opstandige": 16972, "Kramer": 4125, "##beklag": 24238, "Servisch": 6380, "aanvaardde": 8010, "##gestampt": 25611, "besliste": 9236, "##\u00e9t\u00e9": 29976, "oplettend": 16912, "zeespiegel": 22680, "##twijfeld": 29156, "vensters": 20826, "##owice": 27654, "Helder": 3281, "Walloni\u00eb": 7520, "##tellen": 28935, "opgericht": 16867, "onderschat": 16401, "accepteer": 8085, "beul": 9360, "hoewel": 13342, "##gla": 25729, "plegen": 17515, "Laurus": 4253, "ellendige": 11267, "li": 15015, "Brand": 1424, "richt": 18292, "Gereformeerde": 2902, "filosofe": 11597, "##chin": 24592, "nietszeggend": 16061, "Sorry": 6556, "##ICH": 23400, "Khan": 3986, "Amanda": 749, "gaan": 11788, "baasje": 8682, "knetter": 14407, "##plekken": 27820, "vermenigvuldig": 21183, "Bayern": 1099, "Stork": 6698, "##ink": 26222, "Flint": 2666, "##tong": 29056, "kapitalisme": 14105, "bespreek": 9260, "solidair": 19166, "Snap": 6512, "discussies": 10754, "##geboorte": 25399, "##ogne": 27403, "Josh": 3810, "Korte": 4107, "Ariel": 891, "Meeuwen": 4756, "Krim": 4133, "Oor": 5357, "junk": 14004, "##LI": 23468, "huwelijks": 13536, "##stelsel": 28725, "##toestelle": 29044, "Amro": 769, "Ambtenaren": 755, "##lommen": 26939, "Lynley": 4513, "##vall": 29298, "##gehad": 25448, "aanvrager": 8026, "1915": 293, "BER": 1002, "Matteo": 4703, "charter": 10121, "purper": 17899, "feestdagen": 11545, "##arrow": 24057, "tegenstelling": 19912, "afge": 8227, "beschermde": 9195, "lichtbruin": 15027, "##eaux": 25000, "ocean": 16187, "ooit": 16778, "moestuin": 15742, "##patronen": 27714, "tip": 20115, "##vinden": 29471, "##bureau": 24507, "chip": 10136, "Isabelle": 3636, "uitgevers": 20551, "Chr": 1759, "spoorwegen": 19319, "gepresteerd": 12321, "##aine": 23896, "AFP": 535, "Homo": 3426, "geding": 11969, "Pour": 5719, "##lette": 26794, "##HIL": 23384, "Haute": 3223, "##koerier": 26566, "binden": 9576, "##armate": 24048, "stadje": 19393, "##lyse": 26989, "letsel": 14966, "tenzij": 19977, "raakte": 17929, "vriendinnen": 22058, "Sharp": 6401, "##anus": 24013, "onhoudbaar": 16527, "kocht": 14449, "Off": 5290, "life": 15068, "afwachting": 8338, "Stef": 6650, "##echtold": 25004, "comme": 10237, "##mming": 27164, "realistisch": 18018, "Hollandse": 3413, "##trent": 29103, "##gevormd": 25656, "##blog": 24385, "Palearctisch": 5462, "elegant": 11238, "Wethouder": 7613, "kleur": 14345, "VS": 7192, "beklemmend": 8991, "glimlach": 12740, "ondergoed": 16371, "meubel": 15572, "stro": 19693, "##tellingen": 28937, "Kenny": 3960, "spookachtig": 19314, "##gon": 25755, "subsidi\u00ebr": 19753, "struikelde": 19717, "##ina": 26192, "Openbare": 5376, "##straler": 28789, "speelster": 19245, "bekken": 8985, "doorzoeken": 10904, "impact": 13628, "##zamelen": 29846, "Spin": 6596, "##vluchten": 29518, "Gelderse": 2849, "opgraving": 16889, "toenemende": 20166, "uitgaan": 20501, "klapper": 14297, "verwantschap": 21506, "Yates": 7726, "aanraakte": 7972, "omdraaien": 16241, "blijkbaar": 9647, "vernieling": 21216, "kookboek": 14523, "bushalte": 10016, "noordoost": 16124, "klap": 14295, "Mathieu": 4699, "lukt": 15234, "Enfin": 2444, "roeien": 18366, "JO": 3664, "pension": 17366, "##ijck": 26149, "aanbiedingen": 7868, "##klappen": 26513, "##schouw": 28397, "wekenlang": 22334, "doorgaans": 10885, "filosofie": 11599, "zorgverzekeraar": 22864, "ArenA": 880, "##podia": 27833, "nors": 16137, "kruik": 14681, "flakkerend": 11626, "##\u00ab": 139, "tekst": 19928, "vond": 21871, "Lucas": 4473, "##paradijs": 27694, "oproepen": 16958, "##vormen": 29571, "verloeder": 21156, "##spray": 28629, "peinzend": 17353, "langetermijn": 14846, "beestje": 8873, "##PD": 23577, "controverse": 10373, "suiker": 19766, "gejaagd": 12089, "##instructeur": 26240, "##tolereerd": 29050, "##diep": 24851, "neiging": 16018, "##elend": 25072, "##oordeel": 27527, "##chus": 24610, "##fre": 25335, "##helm": 25910, "Politie": 5687, "dertiende": 10625, "Nol": 5222, "betonne": 9330, "mails": 15308, "programma": 17804, "##gelegen": 25491, "h\u00e9m": 13554, "ge\u00ebmotioneerd": 12660, "keramiek": 14189, "##gelegd": 25490, "hoffelijk": 13344, "kanttekening": 14100, "sherry": 18895, "entreprise": 11305, "verbanning": 20852, "##nning": 27331, "uitstek": 20602, "Groot": 3085, "##otheek": 27605, "briljant": 9897, "##trix": 29109, "Bedrijf": 1119, "totdat": 20258, "v": 55, "##\u2013": 147, "zonnige": 22844, "##gauw": 25378, "Suez": 6738, "Clo": 1821, "Slavisch": 6483, "toenemen": 20165, "##generatie": 25526, "esthetisch": 11374, "##END": 23311, "##inter": 26244, "Nationale": 5093, "##rig": 28161, "onbetwist": 16339, "onzekerheid": 16762, "eindklassement": 11221, "grootse": 12946, "McN": 4737, "sportwagen": 19330, "Europees": 2510, "verkeersongeval": 21073, "##saurus": 28307, "##mogen": 27185, "voorbeeld": 21889, "Koos": 4095, "heerschappij": 13125, "inmenging": 13751, "##pantser": 27689, "voorste": 21955, "opnames": 16930, "Blauwe": 1289, "gestationeerd": 12464, "vielen": 21639, "uitstrekt": 20610, "##lastingplichtige": 26720, "Hagenaar": 3157, "legde": 14916, "##ARA": 23191, "##gemunt": 25518, "Berlijn": 1193, "##legger": 26756, "##champ": 24572, "Perry": 5565, "bokser": 9743, "Puc": 5790, "70": 482, "##mun": 27229, "langzamerhand": 14856, "##twintig": 29157, "##kroon": 26636, "vegetatie": 20803, "huwelijk": 13535, "##gio": 25727, "##knappen": 26548, "losbarst": 15184, "spraakmakend": 19333, "Bjorn": 1274, "Albanes": 686, "scheuren": 18669, "Georges": 2889, "##stijf": 28746, "Willie": 7648, "verspreiden": 21363, "hoogte": 13418, "Rabo": 5825, "##methode": 27117, "Yorin": 7732, "Fonds": 2687, "vlam": 21720, "##17": 22998, "##potige": 27873, "Middelkerke": 4852, "##spion": 28611, "basketballer": 8768, "blokkeer": 9684, "organisator": 17028, "rijst": 18322, "Evergem": 2525, "Pearl": 5534, "befaamde": 8876, "honderd": 13370, "punt": 17893, "valuta": 20720, "waas": 22191, "##wolk": 29771, "verplaatsen": 21257, "##nce": 27264, "##stunt": 28833, "##schuif": 28415, "##draagt": 24928, "Herb": 3316, "piep": 17421, "aanwijzing": 8033, "##yno": 29821, "nakijken": 15928, "##rubriek": 28269, "Mund": 5015, "onderwerp": 16432, "onherroepelijk": 16525, "voegen": 21789, "mislukte": 15687, "volk": 21840, "spoorweg": 19318, "Vin": 7366, "Form": 2699, "##broeder": 24478, "Evi": 2529, "verspild": 21358, "vorderingen": 22003, "##ster": 28733, "##zelve": 29869, "Franstalige": 2736, "##ram": 28009, "##etappe": 25190, "Druk": 2260, "grijnzen": 12882, "bachelor": 8686, "produceer": 17771, "terloops": 19982, "##ilia": 26171, "##rui": 28273, "##unc": 29227, "Sjoerd": 6469, "Strij": 6715, "Valkenburg": 7218, "##ula": 29214, "joint": 13961, "Modder": 4917, "##bang": 24172, "##dingen": 24865, "Arriva": 912, "Fame": 2570, "invoer": 13877, "##rov": 28258, "Schre": 6313, "ronde": 18400, "repressie": 18225, "##ledig": 26739, "Claeys": 1796, "alert": 8384, "Haacht": 3135, "ontdek": 16585, "Patty": 5522, "Danton": 2041, "Crystal": 1966, "Isra\u00ebli\u00ebr": 3644, "tezamen": 20045, "##lever": 26806, "wederzijds": 22273, "ontruimd": 16646, "inwonertal": 13886, "mast": 15400, "Casa": 1652, "stralen": 19649, "bedacht": 8793, "Sovjet": 6562, "vorder": 22001, "zachter": 22644, "gebruind": 11917, "achterlijk": 8122, "##itu": 26316, "##sels": 28449, "##nevel": 27302, "probeert": 17755, "invaller": 13862, "per": 17370, "##ans": 24001, "Russen": 6138, "concludeerde": 10300, "Architect": 876, "##lli": 26912, "bevoegde": 9400, "homo": 13364, "Aleppo": 699, "takken": 19841, "1923": 301, "luisteraars": 15228, "##ven": 29333, "samenhang": 18529, "##gezette": 25692, "dilemma": 10721, "functioneel": 11763, "getrouw": 12509, "eeuwenoude": 11171, "percelen": 17372, "Vlad": 7392, "baadde": 8673, "nichtje": 16053, "kooi": 14521, "Vrijheid": 7469, "##PT": 23598, "zonk": 22833, "Albanezen": 687, "reusachtige": 18274, "Faust": 2589, "Rok": 6048, "uilen": 20470, "kassa": 14131, "onderaan": 16349, "armband": 8560, "Fons": 2688, "heden": 13114, "Fre": 2740, "IJ": 3519, "waarschuwen": 22183, "Joods": 3792, "vecht": 20776, "onderscheiding": 16405, "Istanbul": 3646, "truffel": 20397, "massage": 15393, "Bully": 1528, "Fergus": 2612, "gerestaureerd": 12364, "##achtige": 23819, "sai": 18514, "verwijt": 21542, "##u": 133, "##vragen": 29583, "Programma": 5762, "borduur": 9797, "geproduceerd": 12326, "paas": 17206, "##zitten": 29906, "##zo": 29910, "Houston": 3473, "##bury": 24513, "vlekken": 21730, "beoordeeld": 9124, "willen": 22491, "##nieuwsgierigheid": 27318, "Gloria": 2982, "kolonel": 14487, "Real": 5878, "##HV": 23395, "Gek": 2844, "##lith": 26897, "slik": 19019, "comeback": 10229, "Steel": 6647, "schitterde": 18709, "moslim": 15814, "Wat": 7543, "##54": 23108, "##renner": 28104, "##icum": 26069, "Feyenoord": 2624, "mailtje": 15309, "parade": 17254, "##mund": 27230, "##scanner": 28314, "##positie": 27866, "gebaseerd": 11864, "verwonderlijk": 21558, "##sip": 28490, "betaam": 9313, "##zw": 29944, "##vyn": 29611, "algemeen": 8387, "vloeistof": 21753, "pilaren": 17440, "##zegging": 29861, "##vard": 29307, "rechtsaf": 18049, "deelt": 10572, "##pac": 27671, "volstrekt": 21858, "##brugge": 24489, "geklopt": 12107, "levensbeschouw": 14992, "muisbe": 15843, "alweer": 8432, "Slobodan": 6491, "##vra": 29579, "dieren": 10698, "scheiden": 18629, "Brent": 1448, "Eigen": 2378, "veroverde": 21251, "onwennig": 16753, "peloton": 17355, "Fritz": 2763, "Magic": 4574, "##voegsel": 29528, "##gebroed": 25408, "legislatuur": 14922, "Vermeulen": 7313, "zaag": 22635, "zeven": 22743, "##installatie": 26236, "##matisch": 27065, "raadpleeg": 17919, "##kader": 26401, "Aureli": 961, "parking": 17279, "Zele": 7780, "Fry": 2769, "wijk": 22465, "##ones": 27472, "Bertie": 1207, "Di": 2111, "ongezond": 16519, "pk": 17459, "regie": 18133, "strekt": 19672, "##handen": 25859, "##stap": 28696, "antwoorden": 8507, "soft": 19157, "wisselend": 22528, "zeventig": 22749, "##problematiek": 27910, "THE": 6793, "##vrede": 29585, "zelfbewust": 22705, "##okia": 27421, "##geheven": 25456, "verse": 21331, "voor": 21877, "functioneerde": 11765, "kwartfinales": 14749, "vliegtuigen": 21741, "##oog": 27516, "NUTS": 5062, "glorie": 12764, "##eff": 25031, "87": 506, "reuma": 18271, "Mem": 4783, "geb": 11857, "opstandelingen": 16971, "Hm": 3385, "Meester": 4755, "Ding": 2147, "begrijpelijk": 8902, "stelletje": 19479, "##stuurde": 28837, "Lilli": 4376, "Lawrence": 4258, "diarree": 10658, "hakken": 13004, "scheren": 18653, "uitmaken": 20574, "Avond": 981, "onge": 16461, "##bibliotheek": 24334, "Doet": 2186, "##rew": 28124, "Ursula": 7164, "Richie": 5973, "monsters": 15781, "verwarring": 21514, "afzetten": 8354, "uitwerpsel": 20627, "##editie": 25013, "Microsoft": 4846, "controle": 10367, "##edric": 25014, "##motto": 27215, "##tocht": 29034, "pacht": 17207, "budgettair": 9955, "optimistisch": 16984, "enzovoort": 11308, "plak": 17482, "ranzig": 17983, "##LAN": 23459, "vissensoort": 21700, "rijtje": 18323, "##schans": 28337, "Grove": 3089, "##fort": 25324, "oosters": 16801, "pauselijk": 17339, "Abdij": 576, "blijkt": 9649, "sabel": 18509, "##lyn": 26988, "coureur": 10402, "##mber": 27070, "28": 420, "leiderstrui": 14933, "bewoond": 9471, "##koppen": 26595, "##rechtenactivist": 28047, "misdaad": 15672, "Sturm": 6727, "Edmond": 2347, "dit": 10761, "ether": 11382, "Marleen": 4663, "stoel": 19571, "vast": 20751, "##dienst": 24849, "dwangsom": 11092, "##TG": 23673, "geheim": 12058, "bespaart": 9250, "hefboom": 13134, "shirts": 18898, "verpakking": 21254, "vetera": 21618, "##gineering": 25724, "cre\u00eber": 10422, "Mount": 4997, "stuurde": 19743, "Centrum": 1700, "locomotieven": 15133, "##SP": 23651, "ba": 8672,
[...]
