{"<s>": 0, "<pad>": 1, "</s>": 2, "<unk>": 3, ".": 4, "\u0120de": 5, ",": 6, "\u0120van": 7, "\u0120en": 8, "\u0120een": 9, "\u0120het": 10, "\u0120in": 11, "\u0120is": 12, "\u0120op": 13, "\u0120te": 14, "\u0120met": 15, "\u0120voor": 16, "\u0120je": 17, "\u0120dat": 18, "-": 19, "\u0120zijn": 20, "\u0120die": 21, "\u0120niet": 22, "\u0120aan": 23, "\u0120om": 24, "\u0120of": 25, "\u0120(": 26, "\u0120De": 27, "\u0120ook": 28, "\u0120ik": 29, ":": 30, "\u0120er": 31, "\u0120bij": 32, "\u0120als": 33, "\u0120u": 34, "\u0120door": 35, "\u0120dan": 36, "\u0120maar": 37, "\u0120naar": 38, ")": 39, "\u0120uit": 40, "\u0120worden": 41, "\u0120deze": 42, "\u0120heeft": 43, "\u0120over": 44, "\u0120kan": 45, "\u0120Het": 46, "\u0120wordt": 47, "\u0120we": 48, "\u0120nog": 49, "s": 50, "?": 51, "\u0120dit": 52, "\u0120was": 53, "\u0120meer": 54, "!": 55, "\u0120ze": 56, "\u0120tot": 57, "\u0120hebben": 58, "\u0120wat": 59, "\u0120al": 60, "\u0120wel": 61, "De": 62, "\u0120kunnen": 63, "\u0120zo": 64, "\u0120uw": 65, "\u0120hij": 66, "\u00e2\u0122\u013b": 67, "/": 68, "\u0120geen": 69, "\u0120jaar": 70, "\u0120veel": 71, "\u0120In": 72, "\u0120-": 73, "\u0120mijn": 74, "\u0120ons": 75, "\u0120goed": 76, "\u0120zich": 77, "\u0120onze": 78, "\u0120andere": 79, "\u0120haar": 80, "\u0120maken": 81, "\u01201": 82, "\u0120kunt": 83, "\u0120hun": 84, "\u0120waar": 85, "\u0120Ik": 86, "\u0120weer": 87, "\u0120heb": 88, "\u0120moet": 89, ";": 90, "\u0120nu": 91, "\u0120alle": 92, "\u01202": 93, "\u0120gaan": 94, "\u0120Een": 95, "\u0120onder": 96, "\u0120\u00e2\u0122\u013a": 97, "de": 98, "\u0120wij": 99, "\u0120dus": 100, "\u0120gaat": 101, "\u0120nieuwe": 102, "\u0120werd": 103, "Het": 104, "\u0120zal": 105, "\u0120na": 106, "\u0120hier": 107, "\u0120En": 108, "\u01203": 109, "\u0120mensen": 110, ").": 111, "\u0120Dit": 112, "\u0120doen": 113, "d": 114, "a": 115, "\u0120eerste": 116, "\u0120mee": 117, "\u0120heel": 118, "n": 119, "\u0120zou": 120, "\u0120alleen": 121, "\u0120zelf": 122, "...": 123, "\u0120tijd": 124, "\u0120af": 125, "\u0120staat": 126, "t": 127, "\u0120tegen": 128, "\u0120zoals": 129, "\u0120'": 130, "\u0120ben": 131, "\u0120hoe": 132, "\u0120twee": 133, "\u0120eigen": 134, "\u0120komen": 135, "\u0120grote": 136, "\u0120had": 137, "\u0120B": 138, "\u0120Dat": 139, "\u0120Deze": 140, "'": 141, "\u0120zien": 142, "\u0120binnen": 143, "\u0120daar": 144, "\u0120per": 145, "\u0120altijd": 146, "\u0120wil": 147, "2": 148, "\u0120dag": 149, "\u0120\u00e2\u0122\u013e": 150, "\u0120Maar": 151, "e": 152, "\u0120tussen": 153, "\u0120komt": 154, "en": 155, "er": 156, "\u0120Op": 157, "\u01204": 158, "\u0120via": 159, "\u0120Als": 160, "In": 161, "je": 162, "ing": 163, "\u0120Je": 164, "\u0120\"": 165, "\u0120mij": 166, "'s": 167, "\u0120mogelijk": 168, "o": 169, "1": 170, "i": 171, "\u0120toch": 172, "\u0120We": 173, "\u0120zij": 174, "\u0120D": 175, "\u0120iets": 176, "\u01205": 177, "\u0120moeten": 178, "\u0120eens": 179, "\u0120Ook": 180, "\u0120verschillende": 181, "m": 182, "\u0120me": 183, "\u0120hem": 184, "\u0120gebruik": 185, "\u0120laten": 186, "\u0120\u00c3\u00a9\u00c3\u00a9n": 187, "\u0120Voor": 188, "\u0120T": 189, "\u0120werk": 190, "\u0120omdat": 191, "\u0120Met": 192, "\u0120K": 193, "in": 194, "\u0120Er": 195, "\u0120H": 196, "\u0120uur": 197, "\u0120gemaakt": 198, "\u0120informatie": 199, "\u0120echt": 200, "\u0120M": 201, "\u0120\u00e2\u0122\u0135": 202, "\u0120S": 203, "Ik": 204, "\u0120aantal": 205, "\u0120P": 206, "\u0120Nederland": 207, "\u0120C": 208, "\u0120A": 209, "\u0120zonder": 210, "ers": 211, "\u0120terug": 212, "\u0120toe": 213, "\u0120snel": 214, "\u0120weg": 215, "\u0120L": 216, "\u0120leven": 217, "y": 218, "3": 219, "\u0120goede": 220, "\u0120U": 221, "\u0120Hij": 222, "\u0120vinden": 223, "\u0120staan": 224, "\u0120alles": 225, "\u0120nodig": 226, "\u0120kinderen": 227, "\u0120samen": 228, "\u0120waren": 229, "%": 230, "),": 231, "\u0120even": 232, "\u0120geven": 233, "nl": 234, "b": 235, "jes": 236, "\u0120steeds": 237, "\u0120zeer": 238, "\u0120tijdens": 239, "\u012010": 240, "\u0120R": 241, "\u0120keer": 242, "\u0120G": 243, "p": 244, "\u0120erg": 245, "5": 246, "Een": 247, "\u0120elkaar": 248, "\u0120hebt": 249, "\u0120plaats": 250, "\u0120huis": 251, "h": 252, "v": 253, "\u0120verder": 254, "\u0120Ze": 255, "\u0120bent": 256, "\u0120kun": 257, "\u0120website": 258, "4": 259, "\"": 260, "\u0120vaak": 261, "\u0120gratis": 262, "\u0120maakt": 263, "k": 264, "on": 265, "\u0120werken": 266, "B": 267, "\u0120W": 268, "\u0120N": 269, "D": 270, "eren": 271, "\u0120V": 272, "st": 273, "\u01206": 274, "\u0120m": 275, "\u0120graag": 276, "\u0120Bij": 277, "\u0120willen": 278, "\u0120want": 279, "\u0120Wij": 280, "S": 281, "se": 282, "z": 283, "00": 284, "\u0120krijgen": 285, "\u0120Van": 286, "C": 287, "ie": 288, "\u0120vind": 289, "\u0120foto": 290, "\u0120bijvoorbeeld": 291, "\u0120jaren": 292, "el": 293, "\u0120Zo": 294, "\u0120F": 295, "\u0120groot": 296, "\u0120water": 297, "V": 298, "\u0120mooie": 299, "\u0120e": 300, "\u0120beste": 301, "M": 302, "\u0120t": 303, "\u0120zeker": 304, "l": 305, "ig": 306, "\u0120weten": 307, "\u0120contact": 308, "\u0120E": 309, "\u0120hele": 310, "c": 311, "\u0120zit": 312, "\u0120manier": 313, "\u0120natuurlijk": 314, "\u0120nemen": 315, "et": 316, "A": 317, "u": 318, "g": 319, "\u0120weet": 320, "\u0120deel": 321, "\u0120laatste": 322, "\u0120vragen": 323, "\u0120drie": 324, "\u0120welke": 325, "\u0120minder": 326, "\u0120zullen": 327, "\u0120gebruikt": 328, "\u0120wereld": 329, "\u0120sex": 330, "\u0120jouw": 331, "\u0120online": 332, "\u0120jij": 333, "te": 334, "\u0120ten": 335, "P": 336, "\u0120laat": 337, "al": 338, "\u0120net": 339, "of": 340, "\u0120&": 341, "T": 342, "\u0120geeft": 343, "\u00e2\u0122\u00a6": 344, "\u0120gewoon": 345, "\u0120houden": 346, "G": 347, "K": 348, "\u0120zodat": 349, "\u012018": 350, "den": 351, "\u0120gebruiken": 352, "\u01207": 353, "\u0120vindt": 354, "\u0120beter": 355, "\u0120week": 356, "\u0120\u00e2\u0124\u00ac": 357, "\u0120dagen": 358, "\u0120mag": 359, "\u0120buiten": 360, "L": 361, "\u0120vanaf": 362, "\u01208": 363, "\u0120volgende": 364, "H": 365, "\u0120vooral": 366, "\u0120kleine": 367, "\u0120wanneer": 368, "ste": 369, "\u0120s": 370, "\u0120bedrijf": 371, "is": 372, "\u0120extra": 373, "an": 374, "Op": 375, "\u0120zelfs": 376, "\u0120auto": 377, "\u0120p": 378, "\u0120lang": 379, "\u0120elke": 380, "f": 381, "\u0120anders": 382, "\u0120Wat": 383, "\u0120mooi": 384, "\u0120man": 385, "\u0120helemaal": 386, "\u0120wilt": 387, "\u0120b": 388, "\u0120achter": 389, "\u0120toen": 390, "\u0120d": 391, "F": 392, "\u0120ligt": 393, "Als": 394, "\u012020": 395, "\u0120moment": 396, "\u0120krijgt": 397, "w": 398, "\u00e2\u0122\u013f": 399, "\u0120.": 400, "us": 401, "\u0120ter": 402, "W": 403, "\u0120zoek": 404, "ings": 405, "\u0120basis": 406, "\u0120leuk": 407, "\u0120enkele": 408, "\u0120direct": 409, "\u0120a": 410, "6": 411, "\u0120geval": 412, "R": 413, "\u0120hand": 414, "\u012015": 415, "\u0120nooit": 416, "\u0120J": 417, "\u0120rond": 418, "ige": 419, "\u0120men": 420, "x": 421, "\u0120allemaal": 422, "\u0120prijs": 423, "\u0120ver": 424, "\u0120kon": 425, "\u0120vraag": 426, "es": 427, "\u0120blijven": 428, "\u0120kosten": 429, "\u0120doet": 430, "\u0120boek": 431, "\u0120,": 432, "\u0120/": 433, "\u0120werden": 434, "\u0120onderzoek": 435, "\u0120echter": 436, "le": 437, "\u0120geld": 438, "\u0120Z": 439, "op": 440, "ar": 441, "\u0120kwam": 442, "ingen": 443, "\u0120producten": 444, "\u0120kijken": 445, "\u0120lekker": 446, "\u0120Door": 447, "\u0120artikel": 448, "]": 449, "\u0120waarin": 450, "\u0120eerst": 451, "N": 452, "at": 453, "7": 454, "\u0120zitten": 455, "\u0120l": 456, "\u0120iedereen": 457, "\u0120naam": 458, "as": 459, "or": 460, "it": 461, "\u0120vrouwen": 462, "\u0120gegevens": 463, "ic": 464, "\u0120paar": 465, "\u0120Na": 466, "\u0120Dan": 467, "\u0120der": 468, "\u0120land": 469, "\u0120vrouw": 470, "\u0120kwaliteit": 471, "E": 472, "8": 473, "\u0120k": 474, "\u0120meest": 475, "\u0120waardoor": 476, "\u0120[": 477, "\u0120stad": 478, "\u012012": 479, "\u0120waarbij": 480, "\u0120school": 481, "\u0120Nederlandse": 482, "(": 483, "ver": 484, "\u0120open": 485, "\u0120jullie": 486, "\u0120zowel": 487, "\u0120tweede": 488, "\u0120euro": 489, "re": 490, "\u0120zorg": 491, "\u0120ander": 492, "der": 493, "\u0120blijft": 494, "\u0120zorgen": 495, "\u0120niets": 496, "ge": 497, "\u0120belangrijk": 498, "\u0120ging": 499, "\u0120biedt": 500, "r": 501, "\u0120jou": 502, "\u0120vast": 503, "be": 504, "\u0120*": 505, "\u0109": 506, "ia": 507, "\u0120gebied": 508, "\u0120hadden": 509, "\u0120on": 510, "\u0120thuis": 511, "\u0120gemeente": 512, "\u01209": 513, ".\u00e2\u0122\u013f": 514, "Voor": 515, "\u0120vele": 516, "\u0120Om": 517, "\u0120licht": 518, "\u0120St": 519, "\u0120vanuit": 520, "\u0120kennis": 521, "\u0120voorzien": 522, "\u0120bieden": 523, "\u0120I": 524, "\u0120helpen": 525, "\u0120boven": 526, "\u012016": 527, "heid": 528, "\u0120volgens": 529, "\u0120bestaat": 530, "\u0120c": 531, "\u012030": 532, "\u012017": 533, "\u0120eten": 534, "ik": 535, "\u0120werkt": 536, "man": 537, "\u0120zeggen": 538, "\u0120O": 539, "\u0120recht": 540, "\u0120gedaan": 541, "U": 542, "\u0120beetje": 543, "\u0120ga": 544, "We": 545, "ies": 546, "\u0120oude": 547, "\u0120namelijk": 548, "\u0120leuke": 549, "ant": 550, "\u0120o": 551, "\u0120f": 552, "\u0120iemand": 553, "\u0120juiste": 554, "\u0120brengen": 555, "\u0120ruimte": 556, "Deze": 557, "\u0120bijna": 558, "\u0120wie": 559, "\u0120diverse": 560, "\u0120bekend": 561, "000": 562, "j": 563, "am": 564, "\u0120geweest": 565, "\u0120vrij": 566, "\u0120nieuw": 567, "ische": 568, "\u0120omgeving": 569, "\u0120vol": 570, "\u0120hoofd": 571, "\u0120h": 572, "\u01200": 573, "\u0120n": 574, "\u0120spelen": 575, "\u0120Die": 576, "\u0120best": 577, "\u0120:": 578, "\u0120Al": 579, "\u0120the": 580, "\u0120ziet": 581, "\u012014": 582, "9": 583, "ten": 584, "\u0120zetten": 585, "\u0120zegt": 586, "atie": 587, "\u0120later": 588, "\u0120product": 589, "\u0120eigenlijk": 590, "\u0120groep": 591, "sen": 592, "O": 593, "\u0120duidelijk": 594, "om": 595, "\u0120100": 596, "\u0120kind": 597, "eerde": 598, "\u0120kleur": 599, "\u0120Of": 600, "\u0120ervaring": 601, "\u0120|": 602, "..": 603, "eerd": 604, "\u0120keuze": 605, "\u0120grond": 606, "\u0120genoeg": 607, "\u0120vorm": 608, "\u0120stellen": 609, "\u0120lijkt": 610, "um": 611, "\u0120stuk": 612, "\u0120Amsterdam": 613, "os": 614, "\u0120muziek": 615, "\u0120plaatsen": 616, "elen": 617, "\u0120enige": 618, "\u0120hen": 619, "ad": 620, "werk": 621, "ine": 622, "\u0120v": 623, "\u0120hoog": 624, "\u0120elk": 625, "\u0120bedrijven": 626, "ier": 627, "\u0120g": 628, "\u0120terwijl": 629, "\u0120volledig": 630, "\u0120Hoe": 631, "\u0120misschien": 632, "\u0120vier": 633, "ist": 634, "\u0120weinig": 635, "\u0120daarom": 636, "Dit": 637, "\u0120prachtige": 638, "19": 639, "\u0120...": 640, "I": 641, "\u0120woning": 642, "\u0120ge": 643, "\u0120denken": 644, "\u0120maanden": 645, "id": 646, "\u0120w": 647, "0": 648, "10": 649, "\u0120lid": 650, "isch": 651, "\u0120dingen": 652, "\u0120langs": 653, "\u0120zie": 654, "\u0120zorgt": 655, "aan": 656, "\u012025": 657, "ro": 658, "\u01202018": 659, "\u0120minuten": 660, "\u0120Daarnaast": 661, "il": 662, "\u0120kans": 663, "\u0120klanten": 664, "\u0120seks": 665, "ent": 666, "\u0120organisatie": 667, "\u0120kiezen": 668, "\u0120top": 669, "\u0120slechts": 670, "\u0120tuin": 671, "\u0120soms": 672, "Bij": 673, "\u0120den": 674, "Z": 675, "Met": 676, "\u0120geleden": 677, "\u0120maand": 678, "\u0120verhaal": 679, "\u0120ervoor": 680, "\u0120leren": 681, "ur": 682, "\u0120geschikt": 683, "\u0120site": 684, "ch": 685, "\u0120weken": 686, "\u0120programma": 687, "\u0120mogelijkheden": 688, "\u0120meeste": 689, "\u0120hoge": 690, "\u0120st": 691, "\u0120klein": 692, "\u0120eerder": 693, "J": 694, "\u0120Sch": 695, "\u0120ieder": 696, "\u0120vandaag": 697, "\u0120kopen": 698, "ke": 699, "\u0120pagina": 700, "\u0120gezien": 701, "sch": 702, "\u012024": 703, "\u0120soort": 704, "\u0120ongeveer": 705, "\u0120begin": 706, "\u0120Zij": 707, "\u0120z": 708, "Je": 709, "\u0120buurt": 710, "\u0120film": 711, "\u0120pas": 712, "\u012050": 713, "\u0120project": 714, "\u012011": 715, "els": 716, "\u0120aandacht": 717, "aal": 718, "\u0120moest": 719, "ra": 720, "\u0120lange": 721, "\u0120energie": 722, "\u0120team": 723, "\u012013": 724, "\u0120doel": 725, "\u0120oud": 726, "ol": 727, "Er": 728, "\u0120internet": 729, "\u0120The": 730, "\u0120klaar": 731, "\u0120probleem": 732, "\u0120lopen": 733, "\u0120druk": 734, "\u0120afgelopen": 735, "baar": 736, "30": 737, "sp": 738, "\u0120zaken": 739, "\u0120naast": 740, "\u0120lezen": 741, "\u0120mogen": 742, "\u0120plek": 743, "\u0120meerdere": 744, "Wij": 745, "\u0120dezelfde": 746, "\u0120mannen": 747, "\u0120cm": 748, "\u0120beschikbaar": 749, "\u0120bepaalde": 750, "\u0120be": 751, "com": 752, "\u0120lichaam": 753, "\u0120genieten": 754, "\u0120zouden": 755, "\u0120reis": 756, "\u0120vakantie": 757, "\u0120Aan": 758, "\u0120denk": 759, "\u00e2\u0122\u013b.": 760, "\u0120natuur": 761, "im": 762, "\u0120rekening": 763, "\u0120geheel": 764, "huis": 765, "\u0120grootste": 766, "ot": 767, "\u0120juist": 768, "\u0120hotel": 769, "\u0120liggen": 770, "\u0120betekent": 771, "gen": 772, "\u0120x": 773, "af": 774, "\u0120rol": 775, "\u0120porno": 776, "\u0120zoeken": 777, "eer": 778, "\u0120ouders": 779, "ap": 780, "tje": 781, "\u0120beeld": 782, "\u0120kleuren": 783, "\u0120terecht": 784, "\u0120houdt": 785, "\u0120Ver": 786, "\u0120ruim": 787, "\u0120kant": 788, "\u0120delen": 789, "\u0120zoveel": 790, "ster": 791, "\u0120hoogte": 792, "\u0120eind": 793, "ale": 794, "\u0120sinds": 795, "ak": 796, "\u0120gegeven": 797, "\u0120problemen": 798, "\u0120massage": 799, "\u0120blijkt": 800, "\u0120markt": 801, "\u0120keuken": 802, "\u0120start": 803, "\u0120Be": 804, "\u0120heerlijk": 805, "18": 806, "\u00c3\u00a9": 807, "\u0120eenvoudig": 808, "\u0120sch": 809, "\u0120familie": 810, "\u0120re": 811, "uit": 812, "eert": 813, "elijk": 814, "Wat": 815, "\u0120Lees": 816, "\u0120Niet": 817, "En": 818, "\u0120meter": 819, "\u0120echte": 820, "\u0120vervolgens": 821, "ma": 822, "\u0120Daar": 823, "ij": 824, "\u0120belang": 825, "\u0120klant": 826, "ere": 827, "\u0120waarop": 828, "\u0120periode": 829, "\u0120kreeg": 830, "\u0120dient": 831, "\u0120ontvangen": 832, "\u01202017": 833, "\u0120video": 834, "\u0120neemt": 835, "\u0120vond": 836, "\u0120mei": 837, "\u0120kom": 838, "\u0120super": 839, "\u0120personen": 840, "\u0120bouw": 841, "\u0120moeder": 842, "\u0120september": 843, "12": 844, "\u0120wilde": 845, "\u0120zin": 846, "bare": 847, "ne": 848, "\u0120januari": 849, "\u0120meteen": 850, "\u0120Mijn": 851, "\u0120wijze": 852, "\u0120november": 853, "ien": 854, "\u012019": 855, "aat": 856, "\u0120bezig": 857, "\u0120leden": 858, "ken": 859, "\u0120persoonlijke": 860, "ul": 861, "\u0120boeken": 862, "\u0120activiteiten": 863, "\u0120iedere": 864, "\u0120gelijk": 865, "iek": 866, "\u0120systeem": 867, "\u0120aanwezig": 868, "\u0120beide": 869, "\u0120heen": 870, "\u0120Sex": 871, "ed": 872, "\u0120opnieuw": 873, "ab": 874, "\u0120Nu": 875, "eld": 876, "ion": 877, "\u0120huid": 878, "men": 879, "\u0120oktober": 880, "\u0120advies": 881, "weg": 882, "\u0120dienst": 883, "\u0120ont": 884, "\u0120korte": 885, "\u0120waarmee": 886, "\u01202016": 887, "ve": 888, "een": 889, "\u0120voldoende": 890, "\u0120valt": 891, "\u0120voorkomen": 892, "\u0120idee": 893, "\u0120gevoel": 894, "\u0120hart": 895, "\u0120geworden": 896, "\u0120betalen": 897, "\u0120Hier": 898, "\u0120vijf": 899, "land": 900, "\u0120schade": 901, "\u0120totaal": 902, "\u0120doe": 903, "\u0120daarna": 904, "\u0120to": 905, "\u0120precies": 906, "\u0120anderen": 907, "\u0120sport": 908, "elijke": 909, "\u0120Uit": 910, "\u0120merk": 911, "\u0120halen": 912, "\u0120Wanneer": 913, "\u0120waarom": 914, "\u0120lucht": 915, "\u0120enkel": 916, "sl": 917, "\u0120juni": 918, "\u0120gehad": 919, "\u0120maat": 920, "\u0120onderwijs": 921, "em": 922, "aar": 923, "\u0120waarde": 924, "per": 925, "\u012021": 926, "\u0120derde": 927, "\u00e2\u0122\u013e": 928, "\u01202015": 929, "\u0120ontwikkeling": 930, "\u0120Onze": 931, "11": 932, "\u0120stond": 933, "\u0120hoeft": 934, "\u0120#": 935, "\u0120hard": 936, "\u0120persoon": 937, "\u0120bed": 938, "\u0120Alle": 939, "\u0120waarvan": 940, "\u0120toekomst": 941, "\u0120combinatie": 942, "\u0120maart": 943, "\u0120krijg": 944, "\u0120locatie": 945, "\u0120langer": 946, "\u0120gelegen": 947, "ele": 948, "straat": 949, "\u0120procent": 950, "\u0120handen": 951, "ag": 952, "\u0120Zijn": 953, "50": 954, "\u0120Den": 955, "\u0120geldt": 956, "\u0120mogelijkheid": 957, "\u0120reden": 958, "\u0120and": 959, "\u0120belangrijke": 960, "\u0120kaart": 961, "\u0120zei": 962, "\u0120gevonden": 963, "\u0120gemakkelijk": 964, "\u0120volgen": 965, "\u0120indien": 966, "\u012022": 967, "\u0120huidige": 968, "\u0120medewerkers": 969, "ert": 970, "\u0120winkel": 971, "\u0120risico": 972, "\u0120hulp": 973, "\u0120jonge": 974, "erd": 975, "\u0120God": 976, "\u0120miljoen": 977, "\u0120samenwerking": 978, "\u0120r": 979, "un": 980, "\u0120avond": 981, "aties": 982, "iet": 983, "\u0120Dus": 984, "\u0120ogen": 985, "\u0120no": 986, "\u0120april": 987, "\u0120sp": 988, "\u0120kort": 989, "\u0120daarbij": 990, "ut": 991, "&": 992, "\u012040": 993, "Dat": 994, "\u0120makkelijk": 995, "\u0120Is": 996, "\u0120Ch": 997, "\u0120betreft": 998, "\u0120prijzen": 999, "\u0120behandeling": 1000, "\u0120bestaan": 1001, "ker": 1002, "\u0120kunst": 1003, "15": 1004, "\u0120vormen": 1005, "\u0120december": 1006, "Na": 1007, "\u0120mens": 1008, "@": 1009, "\u0120Jan": 1010, "\u0120geboren": 1011, "\u0120praktijk": 1012, "\u0120bijzonder": 1013, "\u0120diensten": 1014, "\u0120beginnen": 1015, "\u0120sterk": 1016, "\u0120nummer": 1017, "\u0120horen": 1018, "he": 1019, ".\"": 1020, "\u0120einde": 1021, "\u00c2\u0143": 1022, "\u0120onderdeel": 1023, "\u0120media": 1024, "\u0120telefoon": 1025, "20": 1026, "\u0120begint": 1027, "\u0120regelmatig": 1028, "\u0120rijden": 1029, "\u0120kamer": 1030, "up": 1031, "\u0120resultaat": 1032, "end": 1033, "\u0120standaard": 1034, "ip": 1035, "ven": 1036, "\u0120bekijken": 1037, "ders": 1038, "ir": 1039, "\u0120hoop": 1040, "Ook": 1041, "\u0120middel": 1042, "\u0120spel": 1043, "\u0120Meer": 1044, "\u0120Over": 1045, "\u0120zwarte": 1046, "\u0120situatie": 1047, "\u0120wedstrijd": 1048, "\u0120tekst": 1049, "me": 1050, "\u0120leveren": 1051, "\u00e2\u0122\u013f,": 1052, "X": 1053, "\u0120woord": 1054, "\u0120service": 1055, "\u0120regio": 1056, "\u0120maakte": 1057, "\u0120rust": 1058, "\u0120toepassing": 1059, "\u0120moeilijk": 1060, "\u0120Europese": 1061, "dag": 1062, "\u0120richting": 1063, "\u01202014": 1064, "\u0120prachtig": 1065, "age": 1066, "\u0120oplossing": 1067, "\u0120\u00e2\u0122\u00a6": 1068, "\u0120Re": 1069, "\u0120genomen": 1070, "\u0120gehouden": 1071, "\u0120past": 1072, "Maar": 1073, "\u0120juli": 1074, "\u0120bedrag": 1075, "ac": 1076, "io": 1077, "\u0120km": 1078, "\u0120soorten": 1079, "\u012023": 1080, "ide": 1081, "voor": 1082, "\u0120fiets": 1083, "\u0120bezoek": 1084, "EN": 1085, "\u00e2\u0122\u013b,": 1086, "\u0120plan": 1087, "\u0120zaterdag": 1088, "\u0120aanbod": 1089, "and": 1090, "\u0120landen": 1091, "\u0120hoger": 1092, "\u0120zichzelf": 1093, "\u0120prima": 1094, ".\u00e2\u0122\u013b": 1095, "\u0120ooit": 1096, "\u0120meestal": 1097, "ter": 1098, "\u0120slag": 1099, "\u0120jezelf": 1100, "\u0120blij": 1101, "\u0120PDF": 1102, "\u0120bank": 1103, "\u0120Zuid": 1104, "\u0120file": 1105, "elt": 1106, "\u0120Ben": 1107, "\u0120half": 1108, "\u0120bijzondere": 1109, "\u0120rest": 1110, "zen": 1111, "\u0120vrienden": 1112, "\u0120gevallen": 1113, "\u0120afstand": 1114, "\u0120zomer": 1115, "\u0120uiteindelijk": 1116, "\u0120genoemd": 1117, "\u0120zee": 1118, "\u0120Noord": 1119, "\u0120zag": 1120, "\u0120overzicht": 1121, "\u0120oog": 1122, "\u0120ja": 1123, "ijn": 1124, "\u0120hetzelfde": 1125, "\u0120los": 1126, "\u0120politie": 1127, "17": 1128, "\u0120kerk": 1129, "\u0120proberen": 1130, "\u0120daarmee": 1131, "\u0120maak": 1132, "\u0120sociale": 1133, "\u0120j": 1134, "\u0120kracht": 1135, "over": 1136, "\u0120bedoeld": 1137, "\u0120X": 1138, "\u0120Daarom": 1139, "\u0120materiaal": 1140, "\u0120leggen": 1141, "ink": 1142, "\u0120opleiding": 1143, "\u0120functie": 1144, "\u0120vader": 1145, "16": 1146, "\u0120wensen": 1147, "\u0120model": 1148, "\u0120schrijven": 1149, "\u0120ervan": 1150, "\u0120toegang": 1151, "\u0120inmiddels": 1152, "\u0120partijen": 1153, "\u0120ontstaan": 1154, "ell": 1155, "Y": 1156, "\u0120stand": 1157, "\u0120fijn": 1158, "\u0120nacht": 1159, "\u0120midden": 1160, "\u0120ervaren": 1161, "les": 1162, "\u0120voorwaarden": 1163, "\u0120Indien": 1164, "\u0120zon": 1165, "\u0120stelt": 1166, "\u0120strand": 1167, "\u0120centrum": 1168, "\u0120zondag": 1169, "\u0120her": 1170, "\u0120partij": 1171, "\u0120Ge": 1172, "mail": 1173, "\u0120woorden": 1174, "\u0120leerlingen": 1175, "\u0120loopt": 1176, "\u0120actief": 1177, "co": 1178, "\u0120eeuw": 1179, "ze": 1180, "\u0120dames": 1181, "als": 1182, "\u0120bevat": 1183, "\u0120stap": 1184, "\u0120Y": 1185, "\u0120vroeg": 1186, "\u0120Sp": 1187, "ger": 1188, "\u0120zet": 1189, "bedrijf": 1190, "\u0120Europa": 1191, "\u0120Rotterdam": 1192, "\u0120speciale": 1193, "\u0120leeftijd": 1194, "lijk": 1195, "\u0120voordat": 1196, "\u0120gek": 1197, "\u0120allerlei": 1198, "\u0120adres": 1199, "\u0120": 1200, "\u0120koop": 1201, "ee": 1202, "\u0120dieren": 1203, "\u0120gesteld": 1204, "\u0120deur": 1205, "oc": 1206, "\u00e2\u0122\u013f.": 1207, "\u0120dood": 1208, "\u0120kennen": 1209, "\u0120konden": 1210, "uren": 1211, "\u0120succes": 1212, "\u0120leer": 1213, "\u0120uitgevoerd": 1214, "\u0120niveau": 1215, "\u0120\u00e2\u0122\u013b": 1216, "\u0120wachten": 1217, "\u0120seizoen": 1218, "\u0120daarvan": 1219, "\u0120taal": 1220, "\u0120\u00c3\u00a9n": 1221, "\u0120relatie": 1222, "\u01202013": 1223, "\u0120this": 1224, "\u0120wet": 1225, "Om": 1226, "\u0120vallen": 1227, "\u0120gebracht": 1228, "\u0120sommige": 1229, "\u0120Gratis": 1230, "\u0120gevolg": 1231, "het": 1232, "\u0120hoor": 1233, "\u0120opdracht": 1234, "\u0120wijn": 1235, "\u0120Le": 1236, "erende": 1237, "ering": 1238, "\u0120veilig": 1239, "\u0120hiervoor": 1240, "\u0120www": 1241, "schap": 1242, "\u0120belangrijkste": 1243, "\u0120nieuws": 1244, "\u0120bepaald": 1245, "\u0120vorige": 1246, "\u0120Nederlands": 1247, "\u0120liefde": 1248, "ys": 1249, "ast": 1250, "\u0120feit": 1251, "oe": 1252, "\u0120perfect": 1253, "\u0120zaak": 1254, "\u0120kwamen": 1255, "\u0120deed": 1256, "\u0120begon": 1257, "\u0120opgenomen": 1258, "\u0120Want": 1259, "\u0120short": 1260, "\u0120zwart": 1261, "\u0120gekomen": 1262, "_": 1263, "\u0120mede": 1264, "\u0120algemeen": 1265, "\u0120le": 1266, "\u0120blog": 1267, "\u0120geplaatst": 1268, "\u0120speciaal": 1269, "ang": 1270, "jarige": 1271, "\u0120Belgi\u00c3\u00ab": 1272, "\u0120ontwerp": 1273, "berg": 1274, "oo": 1275, "\u0120i": 1276, "ok": 1277, "\u0120unieke": 1278, "\u0120Tijdens": 1279, "\u0120vanwege": 1280, "\u0120bestaande": 1281, "\u0120augustus": 1282, "\u0120Google": 1283, "\u0120app": 1284, "ans": 1285, "\u0120kinder": 1286, "\u0120bestellen": 1287, "pen": 1288, "ob": 1289, "\u0120tien": 1290, "\u0120brengt": 1291, "\u0120loop": 1292, "\u0120februari": 1293, "uur": 1294, "\u0120proces": 1295, "\u0120volledige": 1296, "\u012028": 1297, "groep": 1298, "\u0120band": 1299, "\u0120gesprek": 1300, "\u0120Neem": 1301, "\u0120laag": 1302, "\u0120koffie": 1303, "\u0120dating": 1304, "\u0120+": 1305, "\u0120warm": 1306, "\u0120bereiken": 1307, "ate": 1308, "\u0120betrokken": 1309, "\u0120passen": 1310, "\u0120zoekt": 1311, "\u0120netwerk": 1312, "\u0120speelt": 1313, "ina": 1314, "ce": 1315, "\u0120meisjes": 1316, "\u0120thema": 1317, "\u0120versie": 1318, "\u0120Wil": 1319, "\u0120Onder": 1320, "://": 1321, "'.": 1322, "\u0120waarschijnlijk": 1323, "\u0120helpt": 1324, "\u0120tevens": 1325, "\u0120zat": 1326, "\u0120vaste": 1327, "\u0120actie": 1328, ",-": 1329, "\u0120financi\u00c3\u00able": 1330, "\u0120dak": 1331, "\u0120plezier": 1332, "\u0120rij": 1333, "\u0120glas": 1334, "\u0120betrekking": 1335, "\u0120dragen": 1336, "\u0120punten": 1337, "ill": 1338, "\u0120heerlijke": 1339, "eling": 1340, "\u0120resultaten": 1341, "\u0120sfeer": 1342, "\u0120bekende": 1343, "\u0120voeren": 1344, "\u0120merken": 1345, "\u0120geschiedenis": 1346, "\u0120volgt": 1347, "\u0120Utrecht": 1348, "\u01202012": 1349, "\u0120tafel": 1350, "\u0120wist": 1351, "tjes": 1352, "\u0120punt": 1353, "\u012026": 1354, "\u0120etc": 1355, "\u0120witte": 1356, "\u0120collega": 1357, "\u0120gebeurt": 1358, "13": 1359, "art": 1360, "\u012060": 1361, "\u0120verkoop": 1362, "\u0120kl": 1363, "14": 1364, "\u0120gekozen": 1365, "\u0120zes": 1366, "\u0120pdf": 1367, "\u0120sprake": 1368, "\u0120zoon": 1369, "\u0120Geen": 1370, "\u0120uitvoering": 1371, "\u0120antwoord": 1372, "ay": 1373, "\u0120hout": 1374, "\u012027": 1375, "ont": 1376, "\u0120tips": 1377, "\u0120bezoekers": 1378, "\u0120publiek": 1379, "\u0120wit": 1380, "\u0120last": 1381, "\u0120lijst": 1382, "aten": 1383, "\u0120min": 1384, "\u0120Pro": 1385, "\u0120wonen": 1386, "\u0120collectie": 1387, "\u0120Veel": 1388, "\u0120ontwikkelen": 1389, "isten": 1390, "\u0120woon": 1391, "\u0120Waar": 1392, "\u0120Mar": 1393, "\u0120verschil": 1394, "ib": 1395, "pl": 1396, "\u0120ch": 1397, "\u0120natuurlijke": 1398, "sten": 1399, "\u0120groter": 1400, "\u0120gebruikers": 1401, "\u0120Verder": 1402, "\u0120voorbeeld": 1403, "\u0120because": 1404, "\u0120komende": 1405, "\u0120besluit": 1406, "\u0120termijn": 1407, "\u0120beroep": 1408, "\u0120Amerikaanse": 1409, "\u0120partner": 1410, "\u0120description": 1411, "\u0120neem": 1412, "\u0120kijk": 1413, "\u0120smaak": 1414, "iel": 1415, "\u0120vertellen": 1416, "\u0120computer": 1417, "\u0120straat": 1418, "van": 1419, "met": 1420, "\u0120lokale": 1421, "od": 1422, "\u0120inhoud": 1423, "\u0120Toen": 1424, "25": 1425, "\u0120verhalen": 1426, "\u0120rechts": 1427, "\u0120moderne": 1428, "\u0120stof": 1429, "\u0120vrijdag": 1430, "\u0120lees": 1431, "\u0120algemene": 1432, "\",": 1433, "ah": 1434, "\u0120uiteraard": 1435, "\u0120bel": 1436, "\u0120veiligheid": 1437, "\u0120for": 1438, "\u0120links": 1439, "\u0120films": 1440, "\u0120schoon": 1441, "\u0120meisje": 1442, "\u0120hierbij": 1443, "\u0120dochter": 1444, "\u0120sexy": 1445, "\u0120bouwen": 1446, "amp": 1447, "na": 1448, "ou": 1449, "av": 1450, "\u0120motor": 1451, "\u0120dicht": 1452, "ende": 1453, "ard": 1454, "\u0120voet": 1455, "\u0120waaronder": 1456, "ren": 1457, "\u0120gezegd": 1458, "ss": 1459, "ons": 1460, "sh": 1461, "\u0120moeite": 1462, "\u0120uitzicht": 1463, "\u0120bloed": 1464, "\u0120Naast": 1465, "oren": 1466, "mm": 1467, "pt": 1468, "\u0120personeel": 1469, "ator": 1470, "alen": 1471, "\u0120Bovendien": 1472, "\u0120post": 1473, "\u0120voelt": 1474, "\u0120weekend": 1475, "\u0120overheid": 1476, "\u0120winter": 1477, "\u0120feest": 1478, "\u0120assortiment": 1479, "\u0120mis": 1480, "\u0120vis": 1481, "\u0120invloed": 1482, "\u0120mm": 1483, "\u0120bestuur": 1484, "\u0120bestelling": 1485, "ation": 1486, "\u0120overeenkomst": 1487, "\u0120daarvoor": 1488, "ha": 1489, "au": 1490, "\u0120studenten": 1491, "\u0120Wie": 1492, "aren": 1493, "\u0120vervangen": 1494, "\u0120lijn": 1495, "igen": 1496, "boek": 1497, "\u0120immers": 1498, "\u0120acht": 1499, "\u0120name": 1500, "\u0120maximaal": 1501, "\u0120dagelijks": 1502, "igheid": 1503, "\u0120kleding": 1504, "\u0120kent": 1505, "\u0120serie": 1506, "og": 1507, "\u0120software": 1508, "\u0120bleek": 1509, "\u0120Omdat": 1510, "\u0120ex": 1511, "\u0120jeugd": 1512, "\u0120onderdelen": 1513, "\u0120afspraak": 1514, "\u0120liefst": 1515, "\u0120voelen": 1516, "\u0120inclusief": 1517, "ind": 1518, "\u0120club": 1519, "\u0120gezet": 1520, "\".": 1521, "\u0120El": 1522, "40": 1523, "\u0120word": 1524, "\u012029": 1525, "\u0120badkamer": 1526, "Van": 1527, "\u0120sl": 1528, "centrum": 1529, "\u0120jongeren": 1530, "\u0120info": 1531, "\u0120leiden": 1532, "\u0120gericht": 1533, "\u0120beschikt": 1534, "\u0120verwacht": 1535, "ri": 1536, "\u0120werkzaamheden": 1537, "\u0120kost": 1538, "\u0120cultuur": 1539, "\u0120ouder": 1540, "\u0120productie": 1541, "\u0120ruime": 1542, "\u0120baby": 1543, "\u0120neer": 1544, "\u0120pijn": 1545, "mer": 1546, "\u0120nou": 1547, "all": 1548, "\u0120specifieke": 1549, "\u0120gekregen": 1550, "\u0120slecht": 1551, "ets": 1552, "ER": 1553, "\u0120Bekijk": 1554, "\u0120Hierdoor": 1555, "\u0120materialen": 1556, "\u0120baan": 1557, "\u0120data": 1558, "ite": 1559, "\u0120trekken": 1560, "\u0120daardoor": 1561, "\u0120artikelen": 1562, "\u0120Laat": 1563, "\u0120enorm": 1564, "\u0120ene": 1565, "....": 1566, "\u0120bericht": 1567, "Door": 1568, "\u0120overal": 1569, "\u0120camera": 1570, "\u0120gingen": 1571, "\u0120effect": 1572, "\u0120=": 1573, "\u0120verzoek": 1574, "\u0120sturen": 1575, "erk": 1576, "\u0120voorbij": 1577, "ins": 1578, "\u0120compleet": 1579, "burg": 1580, "\u0120betreffende": 1581, "\u0120persoonlijk": 1582, "\u0120persoonsgegevens": 1583, "sc": 1584, "\u0120Volgens": 1585, "*": 1586, "\u0120gezicht": 1587, "if": 1588, "\u0120training": 1589, "\u0120gedrag": 1590, "net": 1591, "\u0120begonnen": 1592, "\u0120kop": 1593, "\u0120internationale": 1594, "\u0120gaf": 1595, "\u01202011": 1596, "\u0120reactie": 1597, "\u0120wind": 1598, "\u0120onderhoud": 1599, "\u0120mogelijke": 1600, "Al": 1601, "\u0120reeds": 1602, "\u0120Haag": 1603, "\u0120helft": 1604, "uk": 1605, "\u0120geweldig": 1606, "\u0120uitgebreid": 1607, "elde": 1608, "bouw": 1609, "\u0120ontwikkeld": 1610, "\u0120restaurant": 1611, "\u0120regels": 1612, "\u0120deelnemers": 1613, "we": 1614, "punt": 1615, "\u0120stijl": 1616, "\u0120helaas": 1617, "out": 1618, "\u0120voordeel": 1619, "\u0120On": 1620, "\u0120Heb": 1621, "\u0120perfecte": 1622, "ow": 1623, "\u0120afhankelijk": 1624, "\u0120type": 1625, "\u0120spreken": 1626, "\u0120An": 1627, "\u0120gelukkig": 1628, "\u0120kantoor": 1629, "\u0120Toch": 1630, "ens": 1631, "\u01202010": 1632, "\u0120projecten": 1633, "\u0120klachten": 1634, "erend": 1635, "\u0120groen": 1636, "\u00e2\u0122\u013a": 1637, "recht": 1638, "\u0120vraagt": 1639, "\u0120verband": 1640, "\u0120geschreven": 1641, "gel": 1642, "\u0120controle": 1643, "iv": 1644, "\u0120West": 1645, "\u0120gegaan": 1646, "\u0120communicatie": 1647, "\u0120les": 1648, "\u0120ondersteuning": 1649, "\u0120kerst": 1650, "St": 1651, "gebied": 1652, "ief": 1653, "\u0120gebouw": 1654, "int": 1655, "\u0120mocht": 1656, "\u0120bepalen": 1657, "\u0120inderdaad": 1658, "pe": 1659, "\u0120Wel": 1660, "\u0120niks": 1661, "\u0120kader": 1662, "ru": 1663, "\u0120organisaties": 1664, "kl": 1665, "\u0120levert": 1666, "\u0120studie": 1667, "\u0120brand": 1668, "\u0120geleverd": 1669, "\u0120stappen": 1670, "\u0120hond": 1671, "\u0120Sh": 1672, "sk": 1673, "ft": 1674, "\u0120voldoen": 1675, "\u0120sluiten": 1676, "\u0120digitale": 1677, "\u0120design": 1678, "\u0120handig": 1679, "\u0120nadat": 1680, "\u0120verkopen": 1681, "ds": 1682, "\u0120bloemen": 1683, "ian": 1684, "\u0120bezoeken": 1685, "\u0120geluid": 1686, "ec": 1687, "\u0120noemen": 1688, "\u0120vloer": 1689, "\u0120luxe": 1690, "\u0120professionele": 1691, "\u0120gel": 1692, "kt": 1693, "\u0120verantwoordelijk": 1694, "ov": 1695, "\u0120gehele": 1696, "\u0120vertrouwen": 1697, "+": 1698, "\u0120enorme": 1699, "est": 1700, "\u0120vak": 1701, "\u0120Duitsland": 1702, "\u0120bl": 1703, "\u0120verbeteren": 1704, "\u0120bus": 1705, "\u0120mail": 1706, "\u0120verplicht": 1707, "\u0120rode": 1708, "\u0120des": 1709, "bl": 1710, "plaats": 1711, "\u0120Samen": 1712, "\u0120betere": 1713, "\u0120niemand": 1714, "\u0120stem": 1715, "\u0120eisen": 1716, "\u0120bar": 1717, "dt": 1718, "\u0120gezellig": 1719, "\u0120vaker": 1720, "\u0120rustig": 1721, "\u0120\u00c2\u00b7": 1722, "\u0120mond": 1723, "ort": 1724, "\u0120ontvangt": 1725, "\u0120tevreden": 1726, "\u0120liet": 1727, "heden": 1728, "sm": 1729, "\u0120bedrijfs": 1730, "ber": 1731, "ja": 1732, "24": 1733, "aars": 1734, "\u0120erop": 1735, "\u0120olie": 1736, "\u0120gedurende": 1737, "\u0120liever": 1738, "ure": 1739, "\u0120strijd": 1740, "\u0120zwembad": 1741, "!!": 1742, "\u012080": 1743, "\u0120rug": 1744, "\u0120overleden": 1745, "\u0120hoort": 1746, "\u0120dorp": 1747, "ks": 1748, "\u0120he": 1749, "\u0120Af": 1750, "zie": 1751, "ST": 1752, "\u0120bovendien": 1753, "\u0120Tot": 1754, "\u0120opnemen": 1755, "\u0120welkom": 1756, "\u0120dacht": 1757, "\u0120verwijderen": 1758, "ck": 1759, "\u0120maandag": 1760, "oor": 1761, "\u0120ergens": 1762, "ieren": 1763, "programma": 1764, "\u0120neuken": 1765, "ade": 1766, "ond": 1767, "\u0120vlak": 1768, "\u0120dienen": 1769, "\u0120slot": 1770, "veld": 1771, "\u0120Duitse": 1772, "\u0120werking": 1773, "\u0120hiervan": 1774, "\u0120duur": 1775, "\u0120\u00e2\u0122\u0140": 1776, "\u0120Zorg": 1777, "\u0120Te": 1778, "\u0120provincie": 1779, "\u0120aangeboden": 1780, "\u0120Bl": 1781, "\u0120omstandigheden": 1782, "EL": 1783, "\u0120sneller": 1784, "\u0120denkt": 1785, "Wanneer": 1786, "\u0120overleg": 1787, "\u0120zover": 1788, "air": 1789, "\u0120gebeuren": 1790, "\u0120gezin": 1791, "\u0120fietsen": 1792, "\u0120beleid": 1793, "\u0120uitvoeren": 1794, "ach": 1795, "ica": 1796, "\u0120eventueel": 1797, "\u0120houten": 1798, "\u0120kilometer": 1799, "\u0120gevolgen": 1800, "\u0120plannen": 1801, "\u0120vrije": 1802, "\u0120planten": 1803, "\u0120automatisch": 1804, "aa": 1805, "\u0120brief": 1806, "its": 1807, "\u0120pl": 1808, "\u0120orde": 1809, "\u0120Ga": 1810, "\u0120verleden": 1811, "\u012031": 1812, "Onze": 1813, "\u0120gezondheid": 1814, "\u0120zult": 1815, "\u0120geile": 1816, "\u0120sterke": 1817, "\u0120cursus": 1818, "\u0120mooiste": 1819, "\u0120aldus": 1820, "\u0120verkrijgbaar": 1821, "\u0120Uw": 1822, "\u0120grotere": 1823, "\u0120normaal": 1824, "\u0120veranderen": 1825, "\u0120scherm": 1826, "\u0120groene": 1827, "\u0120Vanaf": 1828, "\u0120bos": 1829, "',": 1830, "60": 1831, "\u0120gevraagd": 1832, "\u0120wijk": 1833, "\u0120geloof": 1834, "\u0120Alleen": 1835, "onder": 1836, "\u0120Nieuw": 1837, "\u0120gemiddelde": 1838, "\u0120tv": 1839, "Mijn": 1840, "\u0120Stichting": 1841, "\u012035": 1842, "\u0120bijdrage": 1843, "\u0120nam": 1844, "\u0120breed": 1845, "\u0120kn": 1846, "eten": 1847, "\u0120link": 1848, "\u0120vriend": 1849, "\u0120toestemming": 1850, "\u0120ziekte": 1851, "\u0120papier": 1852, "\u0120spelers": 1853, "\u0120fl": 1854, "\u0120minister": 1855, "ub": 1856, "\u0120Raad": 1857, "\u0120Kijk": 1858, "\u0120waard": 1859, "\u0120Groningen": 1860, "\u0120technische": 1861, "ex": 1862, "\u0120eventuele": 1863, "our": 1864, "sche": 1865, "\u0120ontvangst": 1866, "\u0120warme": 1867, "\u0120websites": 1868, "\u0120jongens": 1869, "\u0120vorig": 1870, "\u0120stukje": 1871, "\u0120geweldige": 1872, "\u0120verbonden": 1873, "oon": 1874, "\u0120Ar": 1875, "zorg": 1876, "\u0120speel": 1877, "\u0120groepen": 1878, "\u01202009": 1879, "\u0120gebaseerd": 1880, "\u0120rondom": 1881, "\u0120vermeld": 1882, "i\u00c3\u00ab": 1883, "ry": 1884, "\u0120vertelt": 1885, "\u0120appartement": 1886, "\u0120rechter": 1887, "\u0120dankzij": 1888, "\u0120hieronder": 1889, "\u0120inzicht": 1890, "22": 1891, "water": 1892, "iers": 1893, "\u0120beperkt": 1894, "\u0120korting": 1895, "\u0120volle": 1896, "\u0120live": 1897, "ost": 1898, "iger": 1899, "95": 1900, "Meer": 1901, "\u0120gelegenheid": 1902, "\u0120Daarna": 1903, "\u0120park": 1904, "th": 1905, "\u0120gas": 1906, "\u0120eigenaar": 1907, "\u0120snelle": 1908, "\u0120gasten": 1909, "\u0120New": 1910, "\u0120besloten": 1911, "\u0120centraal": 1912, "\u0120mening": 1913, "raad": 1914, "\u0120reizen": 1915, "\u0120vergeten": 1916, "\u0120maatregelen": 1917, "\u0120vermogen": 1918, "\u0120Frankrijk": 1919, "\u0120200": 1920, "80": 1921, "\u0120betaling": 1922, "\u0120He": 1923, "\u0120titel": 1924, "one": 1925, "45": 1926, "\u0120donderdag": 1927, "ich": 1928, "\u0120ervaringen": 1929, "etje": 1930, "kosten": 1931, ".)": 1932, "\u0120belasting": 1933, "\u0120schreef": 1934, "\u0120allen": 1935, "ding": 1936, "\u0120vlees": 1937, "\u0120!": 1938, "Aan": 1939, "\u0120beelden": 1940, "\u0120uitgebreide": 1941, "\u0120kamers": 1942, "\u0120Klik": 1943, "Ver": 1944, "\u0120lage": 1945, "\u0120Facebook": 1946, "\u0120jong": 1947, "\u0120drinken": 1948, "\u0120gemeenten": 1949, "kaart": 1950, "\u0120pro": 1951, "\u0120)": 1952, "\u0120honden": 1953, "ben": 1954, "\u0120bal": 1955, "\u0120betaald": 1956, "\u0120gebouwd": 1957, "-,": 1958, "\u0120noodzakelijk": 1959, "\u0120dergelijke": 1960, "\u0120moesten": 1961, "\u0120heren": 1962, "school": 1963, "\u0120fijne": 1964, "\u0120rood": 1965, "stand": 1966, "\u0120ca": 1967, "dienst": 1968, "\u0120winst": 1969, "\u0120organiseren": 1970, "\u0120stil": 1971, "\u0120bewust": 1972, "\u0120Kamer": 1973, "\u0120Oost": 1974, "\u0120hoeveel": 1975, "\u0120Sint": 1976, "\u0120zeg": 1977, "Be": 1978, "\u0120ged": 1979, "\u0120ideaal": 1980, "are": 1981, "\u0120dikke": 1982, "\u0120Grote": 1983, "len": 1984, "\u0120begeleiding": 1985, "\u012070": 1986, "\u0120datum": 1987, "\u0120bescherming": 1988, "stelling": 1989, "\u0120onderwerp": 1990, "\u0120Cl": 1991, "hout": 1992, "\u0120voetbal": 1993, "\u0120werknemers": 1994, "\u0120verblijf": 1995, "23": 1996, "\u0120gezellige": 1997, "\u0120zwaar": 1998, "kamer": 1999, "\u0120gesloten": 2000, "www": 2001, "\u0120verwachten": 2002, "\u0120praten": 2003, "\u0120minimaal": 2004, "\u0120Th": 2005, "\u0120winkels": 2006, "\u0120voort": 2007, ".,": 2008, "\u0120aanvraag": 2009, "yn": 2010, "\u0120geef": 2011, "\u0120terras": 2012, "\u0120ideale": 2013, "\u0120gerust": 2014, "vol": 2015, "\u0120hoogste": 2016, "\u01202008": 2017, "\u0120veld": 2018, "\u0120kregen": 2019, "\u0120gezond": 2020, "lijke": 2021, "her": 2022, "ino": 2023, "70": 2024, "\u0120optie": 2025, "\u0120voordelen": 2026, "AN": 2027, "\u0120Ja": 2028, "\u0120ronde": 2029, "\u0120Car": 2030, "\\": 2031, "\u0120webshop": 2032, "\u0120groei": 2033, "systeem": 2034, "\u0120muur": 2035, "ment": 2036, "\u0120set": 2037, "ron": 2038, "ner": 2039, "\u0120namen": 2040, "[": 2041, "\u0120duurzame": 2042, "\u0120woensdag": 2043, "waarde": 2044, "nummer": 2045, "\u0120gang": 2046, "\u0120gewerkt": 2047, "\u0120steun": 2048, "\u0120interieur": 2049, "\u0120stroom": 2050, "\u0120route": 2051, "agen": 2052, "\u0120rechtbank": 2053, "\u0120raad": 2054, "\u0120zichtbaar": 2055, "\u0120eiland": 2056, "ette": 2057, "\u0120aard": 2058, "winkel": 2059, "\u0120vereniging": 2060, "\u0120positie": 2061, "\u0120behulp": 2062, "markt": 2063, "\u0120oorlog": 2064, "\u0120diep": 2065, "\u0120vooraf": 2066, "\u0120doordat": 2067, "\u0120huur": 2068, "\u0120afge": 2069, "fl": 2070, "\u0120heet": 2071, "ts": 2072, "Hoe": 2073, "\u0120bad": 2074, "90": 2075, "\u0120pakken": 2076, "\u0120politieke": 2077, "\u0120rechten": 2078, "\u0120scholen": 2079, "iss": 2080, "ruimte": 2081, "\u012090": 2082, "acht": 2083, "Wil": 2084, "ps": 2085, "\u0120cookies": 2086, "\u0120werkgever": 2087, "band": 2088, "werken": 2089, "\u0120lastig": 2090, "\u0120overigens": 2091, "anten": 2092, "Tijdens": 2093, "\u0120temperatuur": 2094, "\u0120enz": 2095, "prijs": 2096, "\u0120bevindt": 2097, "\u0120uitge": 2098, "lijn": 2099, "kend": 2100, "\u0120inzet": 2101, "\u0120hoek": 2102, "gt": 2103, "\u0120?": 2104, "\u0120Belgische": 2105, "ium": 2106, "\u0120verkocht": 2107, "\u0120voorraad": 2108, "\u0120Via": 2109, "\u0120achtergrond": 2110, "ling": 2111, "\u0120voedsel": 2112, "\u0120Fl": 2113, "\u0120privacy": 2114, "\u0120Sl": 2115, "tes": 2116, "\u0120beweging": 2117, "\u0120ziekenhuis": 2118, "ellen": 2119, "\u0120inwoners": 2120, "\u0120Ad": 2121, "\u0120karakter": 2122, "ug": 2123, "\u0120eet": 2124, "\u0120bleef": 2125, "\u0120hoeveelheid": 2126, "\u0120tegenwoordig": 2127, "\u0120warmte": 2128, "\u0120zacht": 2129, "bel": 2130, "\u0120ro": 2131, "erde": 2132, "\u0120mobiele": 2133, "\u0120aarde": 2134, "\u0120iPhone": 2135, "\u0120modellen": 2136, "\u0120[\u00e2\u0122\u00a6]": 2137, "\u0120macht": 2138, "ix": 2139, "\u0120idee\u00c3\u00abn": 2140, "\u0120Franse": 2141, "\u0120test": 2142, "\u0120vervoer": 2143, "\u0120leiding": 2144, "deren": 2145, "nen": 2146, "\u0120lekkere": 2147, "tijd": 2148, "\u0120morgen": 2149, "\u0120stoppen": 2150, "\u0120flink": 2151, "\u0120bewoners": 2152, "\u0120bodem": 2153, "iging": 2154, "\u0120Misschien": 2155, "meer": 2156, "\u0120erotische": 2157, "\u0120Net": 2158, "beleid": 2159, "\u0120vroeger": 2160, "\u0120kiest": 2161, "\u0120draagt": 2162, "ler": 2163, "ank": 2164, "\u0120Her": 2165, "\u0120oplossingen": 2166, "\u0120fruit": 2167, "\u0120woningen": 2168, "\u0120dinsdag": 2169, "\u0120behoefte": 2170, "\u0120levens": 2171, "\u0120kern": 2172, "\u0120uitstraling": 2173, "\u0120priv\u00c3\u00a9": 2174, "vers": 2175, "\u0120verschillen": 2176, "\u0120alsof": 2177, "\u0120welk": 2178, "\u0120>": 2179, "\u012045": 2180, "\u0120bellen": 2181, "\u0120gedeelte": 2182, "\u0120gewenste": 2183, "\u0120pati\u00c3\u00abnten": 2184, "spel": 2185, "vrij": 2186, "\u0120overige": 2187, "\u0120milieu": 2188, "\u0120trein": 2189, "\u0120afspraken": 2190, "\u0120schoenen": 2191, "\u0120pakket": 2192, "res": 2193, "arm": 2194, "Ja": 2195, "\u0120Pl": 2196, "\u0120aanpak": 2197, "\u0120winnen": 2198, "\u0120marketing": 2199, "\u0120regering": 2200, "\u0120Haar": 2201, "\u0120terrein": 2202, "\u0120gekocht": 2203, "\u0120politiek": 2204, "\u0120inge": 2205, "etten": 2206, "\u0120get": 2207, "\u0120momenteel": 2208, "\u0120Zoals": 2209, "park": 2210, "\u0120uren": 2211, "elingen": 2212, "\u0120openbaar": 2213, "\u0120gewicht": 2214, "\u0120positieve": 2215, "\u0120Kl": 2216, "\u0120tieten": 2217, "\u0120tiener": 2218, "\u0120Alles": 2219, "\u0120wellicht": 2220, "=": 2221, "\u0120manieren": 2222, "slag": 2223, "\u0120Jezus": 2224, "\u0120leidt": 2225, "\u0120totale": 2226, "\u0120regen": 2227, "\u0120starten": 2228, "erm": 2229, "\u0120ger": 2230, "\u0120geniet": 2231, "oen": 2232, "75": 2233, "\u0120sh": 2234, "\u0120originele": 2235, "\u0120geb": 2236, "qu": 2237, "huizen": 2238, "\u0120indruk": 2239, "\u0120aangegeven": 2240, "rol": 2241, "\u0120verd": 2242, "\u0120aanleiding": 2243, "\u0120garantie": 2244, "\u0120wens": 2245, ">": 2246, "ct": 2247, "oot": 2248, "\u0120gevestigd": 2249, "\u0120Daarbij": 2250, "\u0120sn": 2251, "\u0120voeding": 2252, "\u0120opdrachtgever": 2253, "ook": 2254, "\u0120georganiseerd": 2255, "\u0120zeven": 2256, "isme": 2257, "\u0120optimaal": 2258, "ust": 2259, "\u0120realiseren": 2260, "\u0120middelen": 2261, "dat": 2262, "\u0120ontworpen": 2263, "\u0120sluit": 2264, "\u0120Online": 2265, "eg": 2266, "\u0120harde": 2267, "\u0120tonen": 2268, "\u0120bezit": 2269, "\u0120ontwikkelingen": 2270, "\u0120boot": 2271, "\u0120kijkt": 2272, "\u0120droog": 2273, "\u0120heer": 2274, "\u0120vrijwel": 2275, "ong": 2276, "onderzoek": 2277, "IN": 2278, "ius": 2279, "\u0120uniek": 2280, "\u0120Sport": 2281, "\u0120mate": 2282, "ick": 2283, "jaar": 2284, "\u0120uitsluitend": 2285, "\u0120bereikt": 2286, "ore": 2287, "\u0120lag": 2288, "\u01202007": 2289, "\u0120steden": 2290, "\u0120onderzoeken": 2291, "\u0120categorie": 2292, "ijk": 2293, "\u0120Maak": 2294, "ES": 2295, "bank": 2296, "enten": 2297, "\u0120beschikking": 2298, "\u0120derden": 2299, "\u0120erbij": 2300, "leden": 2301, "\u0120ontstaat": 2302, "\u0120cre\u00c3\u00abren": 2303, "\u0120stukken": 2304, "35": 2305, "\u0120ondernemers": 2306, "\u0120profiel": 2307, "\u0120favoriete": 2308, "\u0120begrijpen": 2309, "\u0120hangen": 2310, "\u0120stuur": 2311, "\u0120onderneming": 2312, "istische": 2313, "du": 2314, "\u0120Wet": 2315, "aden": 2316, "ive": 2317, "\u0120ontdekken": 2318, "rie": 2319, "rit": 2320, "\u0120ontbijt": 2321, "\u0120woonkamer": 2322, "\u0120apparaat": 2323, "\u0120voren": 2324, "\u0120hiermee": 2325, "\u0120gest": 2326, "\u0120vergelijken": 2327, "\u0120lager": 2328, "Zo": 2329, "iden": 2330, "\u0120berg": 2331, "\u0120selectie": 2332, "\u0120Elke": 2333, "\u0120trots": 2334, "\u00c2\u00b2": 2335, "\u0120onderstaande": 2336, "):": 2337, "az": 2338, "ue": 2339, "\u0120Binnen": 2340, "\u0120Natuurlijk": 2341, "\u0120Bel": 2342, "\u0120samenleving": 2343, "\u0120Me": 2344, "\u0120teken": 2345, "\u0120verbinding": 2346, "eel": 2347, "\u0120contract": 2348, "\u0120interessant": 2349, "oord": 2350, "\u0120liep": 2351, "\u0120techniek": 2352, "\u0120installatie": 2353, "sel": 2354, "\u0120vocht": 2355, "\u0120Denk": 2356, "AL": 2357, "iz": 2358, "\u0120Zie": 2359, "\u0120voeten": 2360, "\u0120eenmaal": 2361, "\u0120kwijt": 2362, "\u0120huren": 2363, "\u0120jongen": 2364, "igd": 2365, "\u0120verzekering": 2366, "\u0120Q": 2367, "\u0120waarvoor": 2368, "ile": 2369, "\u0120daarin": 2370, "\u0120500": 2371, "ek": 2372, "ud": 2373, "oel": 2374, "\u0120wand": 2375, "\u0120se": 2376, "\u0120middag": 2377, "\u0120optreden": 2378, "ord": 2379, "\u0120Men": 2380, "\u0120tegenover": 2381, "\u0120opge": 2382, "\u0120beneden": 2383, "\u0120keren": 2384, "\u0120gezonde": 2385, "\u0120voorzitter": 2386, "\u0120fout": 2387, "bed": 2388, "\u0120voorkeur": 2389, "\u0120Gelukkig": 2390, "\u0120ra": 2391, "\u0120hogere": 2392, "ann": 2393, "\u0120Tweede": 2394, "icht": 2395, "ass": 2396, "\u0120kaarten": 2397, "q": 2398, "\u0120Willem": 2399, "\u0120ma": 2400, "app": 2401, "geld": 2402, "\u0120tijden": 2403, "yl": 2404, "stel": 2405, "\u0120chat": 2406, "\u0120daarnaast": 2407, "\u0120pad": 2408, "\u0120afdeling": 2409, "ogen": 2410, "\u0120plekken": 2411, "\u0120uitstekende": 2412, "hof": 2413, "\u0120instellingen": 2414, "\u0120casino": 2415, "\u0120camping": 2416, "\u0120klik": 2417, "ga": 2418, "28": 2419, "\u0120rand": 2420, "\u0120sector": 2421, "Uit": 2422, "\u0120Staten": 2423, "\u0120mezelf": 2424, "Ben": 2425, "\u0120geregeld": 2426, "oer": 2427, "\u0120nieuwste": 2428, "\u0120buitenland": 2429, "\u0120eindelijk": 2430, "\u0120beheer": 2431, "\u0120hete": 2432, "\u0120complete": 2433, "\u0120Huis": 2434, "\u0120Apple": 2435, "\u0120dier": 2436, "\u0120vriendin": 2437, "deel": 2438, "\u0120gespeeld": 2439, "plan": 2440, "\u0120account": 2441, "\u0120nodige": 2442, "AT": 2443, "\u0120gebruikte": 2444, "\u0120La": 2445, "\u0120verwerkt": 2446, "\u0120thee": 2447, "\u0120vuur": 2448, "\u0120Heeft": 2449, "\u0120val": 2450, "\u0120sm": 2451, "\u0120Nieuwe": 2452, "eu": 2453, "\u0120Brussel": 2454, "\u0120bron": 2455, "\u0120dagelijkse": 2456, "ess": 2457, "\u0120trouwens": 2458, "\u0120voornamelijk": 2459, "wijk": 2460, "99": 2461, "ON": 2462, "\u0120web": 2463, "\u0120graden": 2464, "\u0120slaapkamer": 2465, "Heb": 2466, "\u0120TV": 2467, "\u0120ochtend": 2468, "\u0120vers": 2469, "\u0120verloren": 2470, "con": 2471, "\u0120pensioen": 2472, "ran": 2473, "\u0120gen": 2474, "\u0120zware": 2475, "\u0120Waarom": 2476, "\u0120bak": 2477, "\u0120levering": 2478, "\u0120grens": 2479, "\u0120volwassen": 2480, "ante": 2481, "\u0120stoffen": 2482, "\u0120CO": 2483, "bij": 2484, "\u0120slaap": 2485, "\u0120groeien": 2486, "\u0120aangezien": 2487, "\u0120zw": 2488, "\u0120verkeer": 2489, "\u0120gesproken": 2490, "\u0120draaien": 2491, "ett": 2492, "\u0120duurt": 2493, "\u0120downloaden": 2494, "aas": 2495, "\u0120aanbieden": 2496, "min": 2497, "unt": 2498, "pers": 2499, "\u0120Ter": 2500, "\u0120blauw": 2501, "\u0120ontzettend": 2502, "\u0120Soms": 2503, "etjes": 2504, "\u0120Porno": 2505, "\u0120taak": 2506, "uw": 2507, "\u0120redelijk": 2508, "\u0120with": 2509, "\u0120gast": 2510, "wet": 2511, "\u0120redenen": 2512, "baarheid": 2513, "\u0120Vrouwen": 2514, "\u0120aankoop": 2515, "\u0120schrijft": 2516, "\u0120qua": 2517, "\u0120uitleg": 2518, "\u0120EU": 2519, "ial": 2520, "\u0120snelheid": 2521, "OR": 2522, "Ze": 2523, "\u0120leert": 2524, "\u0120gr": 2525, "\u0120reacties": 2526, "\u0120slapen": 2527, "27": 2528, "ff": 2529, "ors": 2530, "\u0120oudere": 2531, "ane": 2532, "\u0120directeur": 2533, "\u0120goederen": 2534, "oten": 2535, "ologie": 2536, "\u0120klassieke": 2537, "\u0120ondanks": 2538, "\u0120toilet": 2539, "\u0120Top": 2540, "\u0120gebruiker": 2541, "bedrijven": 2542, "stad": 2543, "rij": 2544, "\u0120lengte": 2545, "\u0120positief": 2546, "ocht": 2547, "\u0120volk": 2548, "\u0120et": 2549, ".'": 2550, "\u0120nauwelijks": 2551, "Hij": 2552, "\u0120Kom": 2553, "Nu": 2554, "\u0120gemiddeld": 2555, "\u0120leek": 2556, "\u0120elektrische": 2557, "\u0120hangt": 2558, "ana": 2559, "\u0120viel": 2560, "\u0120budget": 2561, "\u0120Vlaamse": 2562, "vorm": 2563, "\u0120nogal": 2564, "ash": 2565, "leven": 2566, "IT": 2567, "\u0120functies": 2568, "\u01202000": 2569, "\u0120Am": 2570, "\u0120eenvoudige": 2571, "ijd": 2572, "baan": 2573, "ieten": 2574, "\u0120art": 2575, "Naast": 2576, "ai": 2577, "\u0120sterren": 2578, "\u0120escort": 2579, "\u0120bang": 2580, "\u0120beschikken": 2581, "eerden": 2582, "\u0120kies": 2583, "bo": 2584, "\u0120stemmen": 2585, "Alle": 2586, "\u0120individuele": 2587, "oog": 2588, "\u0120betekenis": 2589, "\u0120uitstekend": 2590, "\u0120Man": 2591, "die": 2592, "ice": 2593, "\u0120raden": 2594, "\u0120Super": 2595, "\u0120donker": 2596, "\u0120vrijwilligers": 2597, "\u0120geluk": 2598, "\u0120gem": 2599, "\u0120boom": 2600, "\u0120lichte": 2601, "\u0120lijken": 2602, "wereld": 2603, "\u0120verdachte": 2604, "\u0120Con": 2605, "ader": 2606, "\u0120nr": 2607, "\u0120aangepast": 2608, "\u0120eveneens": 2609, "\u0120goud": 2610, "\u0120toestel": 2611, "atief": 2612, "ca": 2613, "cl": 2614, "open": 2615, "\u0120sub": 2616, "\u0120brood": 2617, "\u01202006": 2618, "pel": 2619, "\u0120Peter": 2620, "\u0120offerte": 2621, "\u0120hou": 2622, "hoek": 2623, "\u0120rente": 2624, "\u0120sites": 2625, "\u0120vet": 2626, "\u0120gisteren": 2627, "\u0120technologie": 2628, "\u0120bet": 2629, "\u0120Vooral": 2630, "\u0120economische": 2631, "ise": 2632, "\u0120kont": 2633, "\u0120verzorgen": 2634, "\u0120museum": 2635, "\u0120kast": 2636, "\u0120regel": 2637, "21": 2638, "\u0120wacht": 2639, "\u0120behoorlijk": 2640, "zo": 2641, "eb": 2642, "ijnen": 2643, "\u0120sc": 2644, "\u0120gewone": 2645, "\u0120pand": 2646, "\u0120lessen": 2647, "\u0120douche": 2648, "\u0120ware": 2649, "\u0120evenement": 2650, "66": 2651, "\u0120naakt": 2652, "Onder": 2653, "ING": 2654, "\u0120ontspannen": 2655, "\u0120vriendelijk": 2656, "\u0120Per": 2657, "\u0120geopend": 2658, "\u0120Antwerpen": 2659, "\u0120social": 2660, "\u0120ding": 2661, "cm": 2662, "\u0120tra": 2663, "inter": 2664, "oek": 2665, "\u0120vrijheid": 2666, "\u0120vlucht": 2667, "\u0120onderhouden": 2668, "\u0120stel": 2669, "\u0120Kan": 2670, "\u0120traditionele": 2671, "vereniging": 2672, "\u0120Tevens": 2673, "\u0120opties": 2674, "und": 2675, "\u0120gedachten": 2676, "\u0120concept": 2677, "king": 2678, "ijen": 2679, "\u0120historische": 2680, "\u0120aangesloten": 2681, "\u0120leg": 2682, "\u0120com": 2683, "\u0120vergoeding": 2684, "IS": 2685, "\u0120vullen": 2686, "\u0120verwerken": 2687, "\u0120all": 2688, "\u0120DE": 2689, "\u0120zand": 2690, "AM": 2691, "\u0120details": 2692, "\u0120rijk": 2693, "\u0120aanvragen": 2694, "\u0120sociaal": 2695, "\u0120ondersteunen": 2696, "\u0120aanbiedingen": 2697, "\u0120II": 2698, "\u0120rapport": 2699, "\u0120angst": 2700, "\u00c2\u00b0": 2701, "aken": 2702, "\u0120bomen": 2703, "\u0120Nog": 2704, "\u0120openbare": 2705, "\u0120draait": 2706, "\u0120cijfers": 2707, "sport": 2708, "\u0120verantwoordelijkheid": 2709, "26": 2710, "\u0120vastgesteld": 2711, "\u0120ontwerpen": 2712, "aire": 2713, "\u0120gl": 2714, "\u0120Hoewel": 2715, "\u0120voelde": 2716, "iste": 2717, "\u0120college": 2718, "\u0120aange": 2719, "\u0120wegen": 2720, "\u0120plant": 2721, "\u0120la": 2722, "\u0120deuren": 2723, "\u0120verlies": 2724, "\u0120genoemde": 2725, "avond": 2726, "\u0120Windows": 2727, "\u0120relatief": 2728, "\u0120Engels": 2729, "ars": 2730, "\u0120vierde": 2731, "\u0120vormt": 2732, "\u0120legt": 2733, "lijst": 2734, "AR": 2735, "\u0120uitdaging": 2736, "\u0120Hierbij": 2737, "\u0120eerlijk": 2738, "ikt": 2739, "The": 2740, "kende": 2741, "\u0120gelden": 2742, "\u0120hierdoor": 2743, "act": 2744, "ole": 2745, "\u0120Seks": 2746, "\u0120zicht": 2747, "ose": 2748, "\u0120Open": 2749, "\u0120sneeuw": 2750, "to": 2751, "\u0120stress": 2752, "\u0120ijs": 2753, "\u0120voel": 2754, "\u0120Twee": 2755, "\u0120uiterlijk": 2756, "\u0120comfort": 2757, "\u0120voorbeelden": 2758, "\u0120oordeel": 2759, "\u0120Vervolgens": 2760, "ring": 2761, "\u0120visie": 2762, "\u0120medische": 2763, "\u0120zachte": 2764, "\u0120comfortabel": 2765, "\u0120daarop": 2766, "\u0120co": 2767, "\u0120klas": 2768, "\u0120uitspraak": 2769, "aard": 2770, "punten": 2771, "\u0120Sc": 2772, "\u00c3\u00abn": 2773, "\u0120%": 2774, "val": 2775, "\u0120opgericht": 2776, "\u0120proef": 2777, "Q": 2778, "\u0120zomaar": 2779, "issen": 2780, "\u0120initiatief": 2781, "elle": 2782, "\u0120spreekt": 2783, "\u0120rekenen": 2784, "\u0120gevolgd": 2785, "\u0120slechte": 2786, "\u0120Vrouw": 2787, "rijk": 2788, "\u0120centrale": 2789, "\u0120Water": 2790, "ines": 2791, "ara": 2792, "urs": 2793, "\u0120benieuwd": 2794, "\u0120netjes": 2795, "\u0120vonden": 2796, "\u0120workshop": 2797, "\u0120bier": 2798, "\u0120betaalt": 2799, "stuk": 2800, "\u0120nationale": 2801, "\u0120verg": 2802, "Over": 2803, "\u0120meet": 2804, "\u0120partners": 2805, "\u0120normale": 2806, "\u0120bewijs": 2807, "\u0120Werk": 2808, "\u0120hopen": 2809, "\u0120gebouwen": 2810, "\u0120omhoog": 2811, "\u0120Paul": 2812, "\u0120bevolking": 2813, "\u0120http": 2814, "\u0120con": 2815, "\u0120wedstrijden": 2816, "blad": 2817, "middel": 2818, "\u0120betaal": 2819, "\u0120Algemene": 2820, "\u0120beschreven": 2821, "\u0120lunch": 2822, "\u0120directe": 2823, "\u0120kansen": 2824, "\u0120veroorzaakt": 2825, "\u0120begrip": 2826, "\u0120ingezet": 2827, "\u0120date": 2828, "\u0120combineren": 2829, "AS": 2830, "pro": 2831, "\u0120Heel": 2832, "\u0120onderwerpen": 2833, "heids": 2834, "\u0120toegevoegd": 2835, "\u0120openen": 2836, "\u0120verdere": 2837, "29": 2838, "\u0120huizen": 2839, "\u0120tal": 2840, "\u0120jaarlijks": 2841, "\u0120ad": 2842, "\u0120as": 2843, "\u0120kut": 2844, "\u012075": 2845, "\u0120smartphone": 2846, "\u0120alweer": 2847, "bureau": 2848, "gebruik": 2849, "\u0120verandering": 2850, "oos": 2851, "\u0120geest": 2852, "\u0120Bar": 2853, "ijs": 2854, "\u0120geboorte": 2855, "\u0120150": 2856, "\u0120trap": 2857, "rek": 2858, "\u0120\u00c2\u00bb": 2859, "\u0120Hotel": 2860, "\u0120Ex": 2861, "\u0120waarna": 2862, "\u0120brede": 2863, "ET": 2864, "\u0120album": 2865, "\u0120Par": 2866, "\u0120woont": 2867, "\u0120inspiratie": 2868, "\u0120Groot": 2869, "\u0120lief": 2870, "\u0120beschermen": 2871, "\u0120berichten": 2872, "ijden": 2873, "\u0120Zelf": 2874, "\u0120Massage": 2875, "\u0120bestand": 2876, "\u0120paard": 2877, "houder": 2878, "\u0120inter": 2879, "\u0120afbeeldingen": 2880, "\u0120interesse": 2881, "\u0120zogenaamde": 2882, "\u0120Frans": 2883, "onen": 2884, "\u0120dubbel": 2885, "\u0120opzichte": 2886, "\u0120bereid": 2887, "\u0120televisie": 2888, "club": 2889, "erv": 2890, "\u0120kust": 2891, "\u0120droom": 2892, "\u0120show": 2893, "\u0120voorstellen": 2894, "\u0120veilige": 2895, "\u0120melden": 2896, "\u0120Helaas": 2897, "ging": 2898, "\u0120raken": 2899, "beeld": 2900, "\u0120stonden": 2901, "stra": 2902, "\u0120Artikel": 2903, "\u0120transport": 2904, "\u0120discussie": 2905, "\u0120methode": 2906, "tra": 2907, "code": 2908, "\u0120Gebruik": 2909, "\u0120principe": 2910, "ire": 2911, "\u0120gebieden": 2912, "\u0120nood": 2913, "\u0120teksten": 2914, "\u0120afgesloten": 2915, "bak": 2916, "anen": 2917, "\u0120prettig": 2918, "\u0120Kies": 2919, "\u0120adviseren": 2920, "ly": 2921, "\u0120geur": 2922, "aak": 2923, "\u0120300": 2924, "OS": 2925, "\u0120v\u00c3\u00b3\u00c3\u00b3r": 2926, "\u0120richten": 2927, "\u0120dank": 2928, "\u0120Se": 2929, "\u0120Sinds": 2930, "\u0120blad": 2931, "\u0120Ons": 2932, "\u0120machine": 2933, "ame": 2934, "Volgens": 2935, "\u0120ru": 2936, "\u0120Park": 2937, "\u0120behandeld": 2938, "ph": 2939, "\u0120richt": 2940, "\u0120Eindhoven": 2941, "\u0120gep": 2942, "oop": 2943, "\u0120teveel": 2944, "\u0120gaten": 2945, "\u0120slaan": 2946, "elijkheid": 2947, "\u0120eruit": 2948, "pagina": 2949, "diensten": 2950, "\u0120volwassenen": 2951, "ool": 2952, "\u0120praktische": 2953, "ode": 2954, "\u0120blauwe": 2955, "\u0120geloven": 2956, "ax": 2957, "achtige": 2958, "\u0120miljard": 2959, "oed": 2960, "39": 2961, "\u0120gehaald": 2962, "gem": 2963, "\u0120hoef": 2964, "\u0120wettelijke": 2965, "ouw": 2966, "\u0120Ten": 2967, "\u0120medewerker": 2968, "\u0120abonnement": 2969, "33": 2970, "\u0120melk": 2971, "eltje": 2972, "\u0120raam": 2973, "\u0120gele": 2974, "organisatie": 2975, "\u0120tenzij": 2976, "\u0120populaire": 2977, "\u0120dienstverlening": 2978, "\u0120\u00e2\u0122\u00a2": 2979, "\u0120BV": 2980, "\u0120langzaam": 2981, "\u0120behouden": 2982, "\u0120Uiteraard": 2983, "\u0120passie": 2984, "\u0120economie": 2985, "\u0120tijdje": 2986, "ef": 2987, "att": 2988, "\u0120voldoet": 2989, "\u0120at": 2990, "\u012032": 2991, "niet": 2992, "beheer": 2993, "iteit": 2994, ");": 2995, "\u0120goedkoop": 2996, "\u0120maten": 2997, "ram": 2998, "\u0120Verenigde": 2999, "\u0120verdieping": 3000, "\u0120bloem": 3001, "\u0120bewegen": 3002, "\u0120editie": 3003, "\u0120leeg": 3004, "\u0120steen": 3005, "\u0120klimaat": 3006, "\u0120werkelijk": 3007, "gl": 3008, "\u0120speler": 3009, "\u0120landschap": 3010, "\u0120zout": 3011, "\u0120klacht": 3012, "\u0120gelezen": 3013, "hal": 3014, "ui": 3015, "\u0120slaapkamers": 3016, "lo": 3017, "\u0120alvast": 3018, "\u0120besteld": 3019, "\u0120duidelijke": 3020, "\u0120reeks": 3021, "\u0120makkelijker": 3022, "\u0120knop": 3023, "\u0120specialist": 3024, "\u0120paarden": 3025, "\u0120lul": 3026, "onde": 3027, "\u0120tegelijk": 3028, "\u0120aanzien": 3029, "eter": 3030, "\u0120toevoegen": 3031, "\u0120vrijblijvend": 3032, "\u0120luisteren": 3033, "\u0120spullen": 3034, "\u0120gespecialiseerd": 3035, "\u0120harte": 3036, "\u0120beslissing": 3037, "\u0120sk": 3038, "\u0120bevatten": 3039, "\u0120geweld": 3040, "\u0120management": 3041, "\u0120Wilt": 3042, "\u0120klinkt": 3043, "goed": 3044, "\u0120absoluut": 3045, "\u0120game": 3046, "\u0120interessante": 3047, "\u0120arts": 3048, "ox": 3049, "olie": 3050, "ees": 3051, "\u0120code": 3052, "\u0120,,": 3053, "\u0120Let": 3054, "\u0120verf": 3055, "org": 3056, "\u0120bedoeling": 3057, "\u0120Mocht": 3058, "\u0120structuur": 3059, "\u0120reageren": 3060, "65": 3061, "\u0120stevig": 3062, "wat": 3063, "\u0120restaurants": 3064, "\u0120elementen": 3065, "ight": 3066, "\u0120goedkope": 3067, "\u0120logo": 3068, "\u0120hoeven": 3069, "\u0120th": 3070, "\u0120schuld": 3071, "\u01202005": 3072, "\u0120ingericht": 3073, "\u0120trouw": 3074, "\u0120Maria": 3075, "assen": 3076, "\u0120content": 3077, "ID": 3078, "\u0120VS": 3079, "Hier": 3080, "\u0120amateur": 3081, "\u0120trek": 3082, "\u0120Hoog": 3083, "apt": 3084, "\u0120gezocht": 3085, "\u0120verdienen": 3086, "naam": 3087, "\u0120by": 3088, "\u0120Universiteit": 3089, "\u0120recept": 3090, "\u0120verzekerd": 3091, "\u0120bestemming": 3092, "\u0120radio": 3093, "\u0120simpel": 3094, "\u0120Dankzij": 3095, "\u0120akkoord": 3096, "\u0120China": 3097, "oom": 3098, "igt": 3099, "\u0120probeert": 3100, "\u0120neus": 3101, "\u0120verslag": 3102, "\u0120halve": 3103, "mans": 3104, "\u0120an": 3105, "aanse": 3106, "\u0120houd": 3107, "\u0120momenten": 3108, "\u0120duurzaam": 3109, "wel": 3110, "\u0120kat": 3111, "Ge": 3112, "\u0120vooruit": 3113, "\u0120situaties": 3114, "\u0120stichting": 3115, "kers": 3116, "\u0120bereikbaar": 3117, "\u0120Vlaanderen": 3118, "\u0120handige": 3119, "01": 3120, "\u0120zaal": 3121, "\u0120balans": 3122, "\u0120Kn": 3123, "\u0120ondernemer": 3124, "\u0120verklaring": 3125, "2018": 3126, "ages": 3127, "\u0120geh": 3128, "\u0120voorzieningen": 3129, "\u0120Euro": 3130, "\u0120IN": 3131, "\u0120toegestaan": 3132, "\u0120klasse": 3133, "gegevens": 3134, "bal": 3135, "ack": 3136, "\u0120fotos": 3137, "\u0120verlichting": 3138, "\u0120volgend": 3139, "zer": 3140, "\u0120dubbele": 3141, "\u012036": 3142, "door": 3143, "\u0120controleren": 3144, "\u0120daadwerkelijk": 3145, "\u0120gehoord": 3146, "\u0120rechtstreeks": 3147, "\u0120locaties": 3148, "box": 3149, "\u0120erin": 3150, "aag": 3151, "\u0120Iedereen": 3152, "\u0120jammer": 3153, "\u0120toont": 3154, "vel": 3155, "\u0120verlaten": 3156, "\u0120Vaak": 3157, "ree": 3158, "\u0120Art": 3159, "maar": 3160, "zet": 3161, "\u0120dik": 3162, "\u0120formulier": 3163, "\u0120schip": 3164, "broek": 3165, "\u0120blik": 3166, "An": 3167, "ics": 3168, "\u0120station": 3169, "\u0120trekt": 3170, "\u0120gew": 3171, "\u0120vliegen": 3172, "\u0120Holland": 3173, "\u0120consument": 3174, "\u0120Buiten": 3175, "\u0120platform": 3176, "\u0120ineens": 3177, "\u0120helder": 3178, "\u0120schaal": 3179, "orm": 3180, "\u0120pr": 3181, "\u0120werknemer": 3182, "\u0120maatschappelijke": 3183, "\u0120technieken": 3184, "lie": 3185, "\u0120All": 3186, "\u0120groeps": 3187, "\u0120keek": 3188, "sn": 3189, "\u0120wegens": 3190, "waar": 3191, "\u0120afkomstig": 3192, "\u0120bracht": 3193, "Holland": 3194, "\u0120maatschappij": 3195, "\u0120Spanje": 3196, "\u0120Leiden": 3197, "05": 3198, "\u0120doelen": 3199, "\u0120Kerk": 3200, "\u0120koud": 3201, "vert": 3202, "\u0120Welke": 3203, "\u0120pak": 3204, "amb": 3205, "aw": 3206, "\u0120verjaardag": 3207, "\u0120you": 3208, "\u0120taken": 3209, "\u0120regeling": 3210, "100": 3211, "\u0120Ste": 3212, "\u0120enthousiast": 3213, "\u0120maximale": 3214, "\u0120speelde": 3215, "\u0120werkte": 3216, "\u0120toegepast": 3217, "\u0120du": 3218, "\u0120burgers": 3219, "\u0120eigenschappen": 3220, "mat": 3221, "\u0120systemen": 3222, "\u0120presentatie": 3223, "\u0120binnenkort": 3224, "des": 3225, "ED": 3226, "\u0120president": 3227, "aad": 3228, "\u0120Mensen": 3229, "\u0120accessoires": 3230, "kast": 3231, "allen": 3232, "\u0120dame": 3233, "omen": 3234, "materiaal": 3235, "cht": 3236, "\u0120Tra": 3237, "kracht": 3238, "\u0120huwelijk": 3239, "\u0120vergelijking": 3240, "\u0120evenementen": 3241, "PS": 3242, "br": 3243, "\u0120pati\u00c3\u00abnt": 3244, "\u0120Nee": 3245, "\u0120beroeps": 3246, "\u0120pre": 3247, "\u0120verwijderd": 3248, "ari": 3249, "44": 3250, "\u0120activiteit": 3251, "\u0120gebeurd": 3252, "\u0120schriftelijk": 3253, "Die": 3254, "Sch": 3255, "\u0120arm": 3256, "\u0120inkomen": 3257, "\u0120hierover": 3258, "middelen": 3259, "iele": 3260, "\u0120not": 3261, "\u0120wandelen": 3262, "\u0120gewonnen": 3263, "31": 3264, "ied": 3265, "\u0120Hieronder": 3266, "ander": 3267, "\u0120vaardigheden": 3268, "\u0120Dating": 3269, "\u0120Ger": 3270, "\u0120IT": 3271, "dig": 3272, "ater": 3273, "\u0120stoel": 3274, "\u0120laptop": 3275, "tal": 3276, "EM": 3277, "\u0120ingang": 3278, "bar": 3279, "\u0120apart": 3280, "\u0120belangen": 3281, "\u0120loon": 3282, "\u0120volop": 3283, "Indien": 3284, "\u0120(\u00e2\u0124\u00ac": 3285, "oort": 3286, "pp": 3287, "\u0120regelen": 3288, "\u0120oorzaak": 3289, "pot": 3290, "\u0120veranderingen": 3291, "staat": 3292, "zel": 3293, "\u00c3\u00b6": 3294, "\u0120gay": 3295, "\u0120zelfstandig": 3296, "\u0120acties": 3297, "\u0120gesch": 3298, "\u0120behalve": 3299, "stof": 3300, "\u0120Hof": 3301, "feest": 3302, "\u0120haven": 3303, "\u0120benen": 3304, "yt": 3305, "Is": 3306, "\u0120rivier": 3307, "\u0120koper": 3308, "\u0120fase": 3309, "gers": 3310, "ath": 3311, "\u0120kunststof": 3312, "\u0120effecten": 3313, "\u01202019": 3314, "\u0120telkens": 3315, "\u0120nummers": 3316, "\u0120tas": 3317, "arts": 3318, "\u0120look": 3319, "\u0120Inter": 3320, "\u0120cl": 3321, "aliteit": 3322, "oven": 3323, "Wilt": 3324, "ain": 3325, "ots": 3326, "machine": 3327, "\u0120verzamelen": 3328, "off": 3329, "foto": 3330, "plaatsen": 3331, "ood": 3332, "\u0120offici\u00c3\u00able": 3333, "\u0120straks": 3334, "\u0120plus": 3335, "\u0120pers": 3336, "\u0120hield": 3337, "\u0120up": 3338, "\u0120veranderd": 3339, "\u0120verliezen": 3340, "\u0120Hans": 3341, "\u0120reclame": 3342, "\u0120prestaties": 3343, "38": 3344, "\u0120zakelijke": 3345, "\u0120dien": 3346, "vis": 3347, "\u0120werkzaam": 3348, "elaar": 3349, "\u0120landelijke": 3350, "\u00c2\u00ae": 3351, "\u0120Goed": 3352, "\u0120burgemeester": 3353, "\u0120externe": 3354, "och": 3355, "\u0120Zeker": 3356, "\u0120hotels": 3357, "\u0120onbe": 3358, "\u0120afval": 3359, "ult": 3360, "Vandaag": 3361, "\u0120verst": 3362, "verzekering": 3363, "\u0120bijdragen": 3364, "\u0120Ne": 3365, "\u0120toegankelijk": 3366, "\u0120Limburg": 3367, "\u0120zonne": 3368, "\u0120theater": 3369, "\u0120tegelijkertijd": 3370, "reis": 3371, "\u0120alsnog": 3372, "\u0120stevige": 3373, "\u0120ST": 3374, "\u0120Or": 3375, "\u0120boodschap": 3376, "\u0120bez": 3377, "oy": 3378, "\u0120cadeau": 3379, "\u0120straf": 3380, "loop": 3381, "\u0120alcohol": 3382, "ish": 3383, "\u0120brug": 3384, "ity": 3385, "aart": 3386, "\u0120won": 3387, "\u0120koning": 3388, "\u00e2\u0122\u0135": 3389, "\u0120oven": 3390, "|": 3391, "\u0120mode": 3392, "\u0120herstel": 3393, "\u0120actieve": 3394, "\u0120jaarlijkse": 3395, "atieve": 3396, "steen": 3397, "\u0120Zonder": 3398, "\u0120behoort": 3399, "red": 3400, "\u0120Mon": 3401, "ark": 3402, "achtig": 3403, "\u0120verwerking": 3404, "\u0120ken": 3405, "\u0120kw": 3406, "\u0120inrichting": 3407, "\u012065": 3408, "\u0120Hiermee": 3409, "\u0120nee": 3410, "\u0120testen": 3411, "\u0120afbeelding": 3412, "\u0120kabel": 3413, "\u0120or": 3414, "32": 3415, "\u0120gedacht": 3416, "\u0120meiden": 3417, "\u0120Oude": 3418, "ieke": 3419, "\u0120wandeling": 3420, "\u0120leest": 3421, "licht": 3422, "\u0120beurt": 3423, "34": 3424, "ock": 3425, "\u0120buik": 3426, "zelf": 3427, "commissie": 3428, "pakket": 3429, "\u0120probeer": 3430, "alt": 3431, "\u0120gram": 3432, "\u0120Amerika": 3433, "\u0120actuele": 3434, "\u0120optimale": 3435, "druk": 3436, "\u0120gelegd": 3437, "\u0120y": 3438, "\u0120di": 3439, "oppen": 3440, "\u0120opgeslagen": 3441, "ider": 3442, "oh": 3443, "\u0120succesvol": 3444, "48": 3445, "\u0120zak": 3446, "\u0120Land": 3447, "\u0120gerechten": 3448, "\u0120Nederlanders": 3449, "\u0120wereldwijd": 3450, "\u0120handelen": 3451, "\u0120feiten": 3452, "IE": 3453, "\u0120tablet": 3454, "\u0120Itali\u00c3\u00ab": 3455, "\u0120roze": 3456, "da": 3457, "\u0120Max": 3458, "\u0120aardig": 3459, "\u0120aanpassen": 3460, "\u0120borsten": 3461, "\u0120John": 3462, "\u0120Museum": 3463, "\u0120beurs": 3464, "\u0120verkrijgen": 3465, "Toen": 3466, "loos": 3467, "ase": 3468, "\u0120minstens": 3469, "\u0120aluminium": 3470, "\u0120werkelijkheid": 3471, "ras": 3472, "\u0120weergegeven": 3473, "\u0120Zelfs": 3474, "\u0120consumenten": 3475, "ern": 3476, "\u0120bedraagt": 3477, "\u0120Naar": 3478, "\u0120rustige": 3479, "!!!": 3480, "\u0120langere": 3481, "\u0120hal": 3482, "\u0120ingredi\u00c3\u00abnten": 3483, "36": 3484, "\u0120vertrek": 3485, "\u0120borst": 3486, "\u0120onderweg": 3487, "geb": 3488, "RA": 3489, "\u0120genoten": 3490, "hand": 3491, "\u0120Sexy": 3492, "\u0120gekeken": 3493, "\u0120Vandaag": 3494, "\u0120circa": 3495, "oet": 3496, "\u0120LED": 3497, "anc": 3498, "\u0120hoewel": 3499, "inn": 3500, "\u0120leerling": 3501, "anden": 3502, "\u0120hetgeen": 3503, "appen": 3504, "\u0120wilden": 3505, "\u0120bev": 3506, "\u0120agenda": 3507, "\u0120menu": 3508, "\u0120ontdekt": 3509, "volle": 3510, "\u0120San": 3511, "\u0120aanmerking": 3512, "BO": 3513, "\u0120behoren": 3514, "\u0120zagen": 3515, "\u0120xxx": 3516, "ats": 3517, "bert": 3518, "proces": 3519, "\u0120gestart": 3520, "\u0120kar": 3521, "\u0120apparatuur": 3522, "che": 3523, "\u0120anti": 3524, "\u0120Vl": 3525, "\u0120par": 3526, "\u0120totdat": 3527, "04": 3528, "\u0120examen": 3529, "\u0120Har": 3530, "\u0120videos": 3531, "Heeft": 3532, "\u0120pop": 3533, "\u0120effectief": 3534, "\u0120gemak": 3535, "abel": 3536, "pte": 3537, "\u0120lukt": 3538, "\u0120documenten": 3539, "\u0120Ma": 3540, "\u0120SP": 3541, "\u0120vertelde": 3542, "\u0120teams": 3543, "\u0120zijde": 3544, "\u012055": 3545, "ini": 3546, "ance": 3547, "roe": 3548, "\u0120instantie": 3549, "\u0120wijzigen": 3550, "\u0120https": 3551, "\u0120spanning": 3552, "\u0120bureau": 3553, "\u0120stop": 3554, "oes": 3555, "par": 3556, "\u0120financieel": 3557, "old": 3558, "\u0120populair": 3559, "Sinds": 3560, "verd": 3561, "\u0120voorstel": 3562, "mogelijkheden": 3563, "\u0120Sommige": 3564, "\u0120rook": 3565, "gang": 3566, "\u0120Gl": 3567, "\u0120modern": 3568, "\u0120broek": 3569, "\u0120aparte": 3570, "\u0120schrijf": 3571, "erie": 3572, "\u0120verpakking": 3573, "\u0120podium": 3574, "\u0120kook": 3575, "ids": 3576, "\u0120gesprekken": 3577, "aut": 3578, "\u0120las": 3579, "\u0120Bijvoorbeeld": 3580, "\u0120document": 3581, "\u0120mat": 3582, "wegen": 3583, "gaan": 3584, "periode": 3585, "erg": 3586, "\u0120dans": 3587, "\u0120fantastisch": 3588, "\u0120festival": 3589, "\u0120organiseert": 3590, "\u00e2\u0122\u00a6.": 3591, "amen": 3592, "\u0120twintig": 3593, "\u0120respect": 3594, "\u0120banden": 3595, "\u0120Gent": 3596, "kerk": 3597, "\u0120aspecten": 3598, "\u0120broer": 3599, "producten": 3600, "\u0120wakker": 3601, "\u0120Air": 3602, "Wie": 3603, "\u0120sleutel": 3604, "\u00d0\u00b8": 3605, "\u0120omtrent": 3606, "\u0120onlangs": 3607, "\u0120Pe": 3608, "\u0120inzetten": 3609, "\u01202004": 3610, "\u0120zodra": 3611, "\u0120spannend": 3612, "\u0120bi": 3613, "uin": 3614, "\u0120ziek": 3615, "\u0120detail": 3616, "\u0120Bouw": 3617, "ips": 3618, "elf": 3619, "\u00e7": 3620, "\u0120Italiaanse": 3621, "DE": 3622, "sex": 3623, "\u0120bespreken": 3624, "zak": 3625, "\u00c3\u00bc": 3626, "stukken": 3627, "ous": 3628, "\u0120specifiek": 3629, "zien": 3630, "olen": 3631, "\u0120steken": 3632, "\u0120onmiddellijk": 3633, "\u0120industrie": 3634, "Niet": 3635, "\u0120Doe": 3636, "ple": 3637, "\u0120ar": 3638, "\u0120Parijs": 3639, "\u0120advertenties": 3640, "\u00e5": 3641, "\u0120suiker": 3642, "\u0120aanrader": 3643, "elk": 3644, "\u0120kanten": 3645, "\u0120vervolg": 3646, "\u0120lagere": 3647, "IC": 3648, "\u0120apparaten": 3649, "\u0120ICT": 3650, "\u00e6": 3651, "igde": 3652, "\u0120keuzes": 3653, "plein": 3654, "bus": 3655, "\u0120gevaar": 3656, "\u0120NL": 3657, "veen": 3658, "\u0120Britse": 3659, "\u0120free": 3660, "\u0120tijdelijk": 3661, "\u0120Pas": 3662, "\u0120Rob": 3663, "\u0120lieve": 3664, "room": 3665, "\u0120banken": 3666, "regeling": 3667, "\u0120vert": 3668, "\u0120zekerheid": 3669, "\u0120EN": 3670, "\u0120afloop": 3671, "ella": 3672, "\u0120onver": 3673, "\u0120gevel": 3674, "\u0120it": 3675, "\u0120gebrek": 3676, "09": 3677, "\u0120Vraag": 3678, "\u0120betekenen": 3679, "inde": 3680, "handel": 3681, "\u0120boeren": 3682, "\u0120verse": 3683, "\u0120Vanuit": 3684, "inder": 3685, "Veel": 3686, "\u0120mix": 3687, "\u0120bergen": 3688, "\u0120Com": 3689, "\u0120vogels": 3690, "\u0120alternatief": 3691, "\u0120passende": 3692, "\u0120business": 3693, "\u0120Berg": 3694, "\u0120Un": 3695, "\u0120plaatsvinden": 3696, "\u0120voorkomt": 3697, "i\u00c3\u00abn": 3698, "\u0120grenzen": 3699, "\u0120kruiden": 3700, "\u0120Bos": 3701, "\u0120kleinere": 3702, "\u0120bepaalt": 3703, "niveau": 3704, "\u0120mar": 3705, "afel": 3706, "\u0120print": 3707, "\u0120avonds": 3708, "\u0120bedragen": 3709, "informatie": 3710, "\u00e2\u0122\u00a2": 3711, "\u0120micro": 3712, "\u0120creatieve": 3713, "\u0120advocaat": 3714, "\u0120negatieve": 3715, "OM": 3716, "\u0120commissie": 3717, "get": 3718, "\u0120Vol": 3719, "ake": 3720, "\u0120ouderen": 3721, "boeken": 3722, "\u0120verdeeld": 3723, "\u0120plastic": 3724, "zaal": 3725, "\u0120nat": 3726, "\u0120antwoorden": 3727, "ente": 3728, "okken": 3729, "\u0120omzet": 3730, "\u0120onvoldoende": 3731, "\u0120besloot": 3732, "\u0120deden": 3733, "\u0120gez": 3734, "ctie": 3735, "\u0120internationaal": 3736, "\u0120lamp": 3737, "\u0120wijzen": 3738, "\u0120pol": 3739, "\u0120ondertussen": 3740, "\u0120hof": 3741, "\u0120beh": 3742, "\u0120serieus": 3743, "\u0120voormalige": 3744, "vl": 3745, "85": 3746, "Omdat": 3747, "\u0120instelling": 3748, "Vanaf": 3749, "\u0120generatie": 3750, "able": 3751, "\u0120spoor": 3752, "vak": 3753, "kom": 3754, "\u0120car": 3755, "Re": 3756, "\u0120hierin": 3757, "\u0120forum": 3758, "06": 3759, "\u0120Hun": 3760, "port": 3761, "AG": 3762, "\u0120Gemeente": 3763, "\u0120cli\u00c3\u00abnt": 3764, "Sp": 3765, "\u0120donkere": 3766, "vent": 3767, "\u0120Suriname": 3768, "\u0120haalt": 3769, "\u0120Mark": 3770, "\u0120Zowel": 3771, "\u0120bezwaar": 3772, "37": 3773, "itie": 3774, "\u0120kijkje": 3775, "\u0120kg": 3776, "\u0120uitgerust": 3777, "\u0120eer": 3778, "plaat": 3779, "\u0120formaat": 3780, "\u0120minuut": 3781, "\u0120burger": 3782, "\u0120verh": 3783, "\u0120PC": 3784, "\u0120<": 3785, "\u0120scherp": 3786, "OL": 3787, "\u0120fantastische": 3788, "\u0120honderd": 3789, "\u0120plaat": 3790, "\u0120arbeids": 3791, "\u0120verstrekt": 3792, "\u0120Club": 3793, "\u0120Hand": 3794, "\u0120Christus": 3795, "rom": 3796, "\u0120relaties": 3797, "oll": 3798, "\u0120gids": 3799, "\u0120wagen": 3800, "\u0120bod": 3801, "\u0120professioneel": 3802, "\u0120aandelen": 3803, "innen": 3804, "\u0120voegen": 3805, "ontwikkeling": 3806, "\u0120verm": 3807, "\u0120bevinden": 3808, "\u0120subsidie": 3809, "\u0120vergadering": 3810, "\u0120verz": 3811, "ley": 3812, "\u0120Internet": 3813, "\u0120beleven": 3814, "\u0120boord": 3815, "ille": 3816, "\u0120wijzigingen": 3817, "ges": 3818, "\u0120nergens": 3819, "Ch": 3820, "RO": 3821, "\u0120Ont": 3822, "sb": 3823, "\u0120d\u00c3\u00a9": 3824, "merk": 3825, "iep": 3826, "\u0120ne": 3827, "mp": 3828, "\u0120Daarmee": 3829, "\u0120verzorgd": 3830, "Zoals": 3831, "\u0120accu": 3832, "\u0120interne": 3833, "\u0120York": 3834, "\u012038": 3835, "\u0120dichtbij": 3836, "\u0120waarden": 3837, "\u0120voert": 3838, "\u0120recente": 3839, "by": 3840, "\u0120opslag": 3841, "\u0120Hem": 3842, "boom": 3843, "\u0120fysieke": 3844, "\u0120opdrachten": 3845, "ussen": 3846, "\u0120Gr": 3847, "aam": 3848, "\u0120250": 3849, "\u0120gedragen": 3850, "\u0120Col": 3851, "\u0120toezicht": 3852, "\u0120Gro": 3853, "\u0120vereist": 3854, "\u0120enig": 3855, "\u0120landbouw": 3856, "\u0120gras": 3857, "\u0120rit": 3858, "\u0120geholpen": 3859, "\u0120hypotheek": 3860, "\u0120behandelen": 3861, "EG": 3862, "\u0120doelgroep": 3863, "ux": 3864, "\u0120liter": 3865, "\u0120kwestie": 3866, "ande": 3867, "uis": 3868, "\u0120koel": 3869, "\u0120hoogwaardige": 3870, "\u0120verandert": 3871, "\u0120koken": 3872, "55": 3873, "\u0120Min": 3874, "ologische": 3875, "beek": 3876, "CH": 3877, "dagen": 3878, "aris": 3879, "\u0120bord": 3880, "\u0120geil": 3881, "%.": 3882, "\u0120body": 3883, "\u0120bovenstaande": 3884, "\u0120opening": 3885, "\u0120trainingen": 3886, "\u0120flinke": 3887, "\u0120pik": 3888, "\u0120mobiel": 3889, "activiteiten": 3890, "voer": 3891, "project": 3892, "uil": 3893, "\u0120vieren": 3894, "\u0120geleerd": 3895, "\u0120Boek": 3896, "\u0120ring": 3897, "form": 3898, "opleiding": 3899, "\u0120Nijmegen": 3900, "\u0120duizenden": 3901, "\u0120opgesteld": 3902, "\u0120wijziging": 3903, "\u0120garage": 3904, "\u0120omgaan": 3905, "\u0120letterlijk": 3906, "\u0120zaten": 3907, "\u0120lossen": 3908, "\u0120waarheid": 3909, "\u0120workshops": 3910, "\u0120bestel": 3911, "ions": 3912, "erij": 3913, "\u0120Co": 3914, "\u0120informeren": 3915, "\u0120Arnhem": 3916, "\u0120sta": 3917, "\u0120uitzondering": 3918, "\u0120IP": 3919, "model": 3920, "team": 3921, "\u0120\u00d0": 3922, "\u0120sporten": 3923, "\u0120dollar": 3924, "\u0120Commissie": 3925, "\u0120veiligheids": 3926, "\u0120handel": 3927, "delen": 3928, "i\u00c3\u00able": 3929, "\u0120complex": 3930, "\u0120officieel": 3931, "08": 3932, "\u0120Zee": 3933, "\u0120Kortom": 3934, "\u0120besluiten": 3935, "AD": 3936, "\u0120finale": 3937, "zaken": 3938, "\u0120analyse": 3939, "\u0120glazen": 3940, "\u0120betrouwbare": 3941, "\u0120golf": 3942, "\u0120nabij": 3943, "\u012033": 3944, "\u0120zuiden": 3945, "\u0120krant": 3946, "\u0120email": 3947, "\u0120impact": 3948, "\u0120kenmerken": 3949, "\u0120gra": 3950, "\u0120Best": 3951, "dijk": 3952, "maker": 3953, "\u0120installeren": 3954, "\u0120cli\u00c3\u00abnten": 3955, "\u0120aanwezigheid": 3956, "\u0120succesvolle": 3957, "\u0120onge": 3958, "\u0120raakt": 3959, "\u0120oor": 3960, "\u0120aanvullende": 3961, "\u0120Ol": 3962, "\u0120gouden": 3963, "\u0120digitaal": 3964, "\u0120tarief": 3965, "oss": 3966, "\u0120wenst": 3967, "\u0120Even": 3968, "\u0120aanbieding": 3969, "\u0120procedure": 3970, "\u0120Microsoft": 3971, "Le": 3972, "\u0120Isra\u00c3\u00abl": 3973, "07": 3974, "\u0120kaas": 3975, "\u0120Don": 3976, "\u0120professionals": 3977, "maat": 3978, "groepen": 3979, "ote": 3980, "\u0120Echter": 3981, "\u0120vl": 3982, "reg": 3983, "\u0120Midden": 3984, "cent": 3985, "\u0120opgebouwd": 3986, "scherm": 3987, "opt": 3988, "\u0120ploeg": 3989, "\u0120maaltijd": 3990, "\u0120Eerste": 3991, "functie": 3992, "zoals": 3993, "\u0120aansluiting": 3994, "!)": 3995, "\u0120..": 3996, "eltjes": 3997, "\u0120vreemd": 3998, "\u0120hoofdstuk": 3999, "49": 4000, "\u0120Engelse": 4001, "kamp": 4002, "\u0120pan": 4003, "\u0120dr": 4004, "\u0120maal": 4005, "\u0120factuur": 4006, "\u0120HD": 4007, "aus": 4008, "ient": 4009, "ift": 4010, "\u0120del": 4011, "\u0120kruis": 4012, "\u0120koude": 4013, "mon": 4014, "\u0120velen": 4015, "uc": 4016, "\u0120laatst": 4017, "\u0120houding": 4018, "\u012048": 4019, "ique": 4020, "\u01202003": 4021, "\u01201000": 4022, "\u0120beoordeling": 4023, "\u012006": 4024, "schappen": 4025, "ikken": 4026, "\u0120noch": 4027, "wagen": 4028, "orp": 4029, "AP": 4030, "\u0120blijf": 4031, "\u0120slachtoffer": 4032, "\u0120Dr": 4033, "\u0120Cor": 4034, "\u0120concert": 4035, "ime": 4036, "\u0120leverancier": 4037, "\u0120ramen": 4038, "\u0120Bru": 4039, "\u0120voorbereiding": 4040, "\u0120missen": 4041, "adres": 4042, "gend": 4043, "02": 4044, "\u0120begeleiden": 4045, "\u0120telefoonnummer": 4046, "\u0120400": 4047, "\u0120losse": 4048, "\u0120melding": 4049, "bet": 4050, "\u0120games": 4051, "\u0120ster": 4052, "\u0120tegenstelling": 4053, "\u0120schilder": 4054, "\u0120interview": 4055, "datum": 4056, "\u0120Foto": 4057, "\u0120Terwijl": 4058, "weer": 4059, "Of": 4060, "\u0120verbetering": 4061, "\u0120Mac": 4062, "gev": 4063, "\u0120Jong": 4064, "ress": 4065, "\u0120gemeenschap": 4066, "\u0120geheugen": 4067, "\u0120voldaan": 4068, "\u0120herstellen": 4069, "\u0120Tom": 4070, "\u0120verschijnen": 4071, "\u0120Ab": 4072, "\u0120functioneren": 4073, "ung": 4074, "\u0120vrouwelijke": 4075, "Pro": 4076, "\u0120leger": 4077, "pad": 4078, "\u0120been": 4079, "kleding": 4080, "\u0120theorie": 4081, "Dan": 4082, "woord": 4083, "\u0120Zaken": 4084, "\u0120verplichtingen": 4085, "\u0120bekeken": 4086, "\u0120verkeerde": 4087, "elden": 4088, "\u0120Twitter": 4089, "wer": 4090, "\u0120rollen": 4091, "\u0120focus": 4092, "\u0120ber": 4093, "\u0120rijdt": 4094, "\u0120fan": 4095, "\u0120bevestigd": 4096, "\u0120lagen": 4097, "\u0120alsmede": 4098, "\u0120Media": 4099, "ysteem": 4100, "enen": 4101, "\u0120twijfel": 4102, "auto": 4103, "achten": 4104, "ano": 4105, "asten": 4106, "\u0120beperking": 4107, "\u0120spannende": 4108, "\u0120qu": 4109, "belasting": 4110, "ielen": 4111, "\u0120School": 4112, "\u0120nieuwsbrief": 4113, "\u0120accommodatie": 4114, "\u0120kleiner": 4115, "\u0120oma": 4116, "\u0120lijnen": 4117, "\u0120CD": 4118, "hop": 4119, "\u0120comfortabele": 4120, "\u0120@": 4121, "\u00c3\u00af": 4122, "\u0120onmogelijk": 4123, "\u0120verhouding": 4124, "\u0120middels": 4125, "\u00e8": 4126, "\u0120noemt": 4127, "\u0120oorspronkelijke": 4128, "\u0120Android": 4129, "\u0120beslist": 4130, "\u0120gezamenlijk": 4131, "\u0120bestanden": 4132, "\u0120versch": 4133, "ola": 4134, "del": 4135, "entie": 4136, "\u0120contacten": 4137, "\u0120zorgvuldig": 4138, "cties": 4139, "ora": 4140, "\u0120seconden": 4141, "\u0120overlijden": 4142, "eek": 4143, "\u00c3\u00a4": 4144, "\u0120verb": 4145, "\u0120ontvang": 4146, "\u0120reparatie": 4147, "anne": 4148, "kens": 4149, "dere": 4150, "zw": 4151, "\u0120gev": 4152, "\u0120zwangerschap": 4153, "\u0120administratie": 4154, "NL": 4155, "gebouw": 4156, "\u0120vandaan": 4157, "\u0120oudste": 4158, "\u0120gemaakte": 4159, "\u0120ant": 4160, "\u0120Europees": 4161, "\u0120factoren": 4162, "kant": 4163, "03": 4164, "zaak": 4165, "\u0120honderden": 4166, "\u0120beschikbare": 4167, "\u0120high": 4168, "\u0120porn": 4169, "\u0120Samsung": 4170, "\u0120verkeerd": 4171, "\u00c3\u00a1": 4172, "\u0120prive": 4173, "\u0120eigendom": 4174, "orten": 4175, "\u0120heden": 4176, "\u0120Centrum": 4177, "\u0120Zoek": 4178, "\u0120zolang": 4179, "\u0120tarieven": 4180, "\u0120aansprakelijk": 4181, "\u0120ind": 4182, "nis": 4183, "akken": 4184, "stroom": 4185, "\u0120geleid": 4186, "str": 4187, "\u0120klikken": 4188, "mailadres": 4189, "\u0120staal": 4190, "\u0120arbeid": 4191, "\u0120wandel": 4192, "sector": 4193, "\u0120grootte": 4194, "\u0120verschijnt": 4195, "Daarnaast": 4196, "zijn": 4197, "\u0120evenals": 4198, "\u0120telt": 4199, "\u0120sprak": 4200, "elling": 4201, "\u0120tent": 4202, "\u0120schrijver": 4203, "ser": 4204, "\u0120identiteit": 4205, "\u0120stage": 4206, "OP": 4207, "\u0120maakten": 4208, "500": 4209, "\u0120bezorgen": 4210, "ald": 4211, "\u0120Red": 4212, "schade": 4213, "\u0120ste": 4214, "\u0120villa": 4215, "\u0120Groen": 4216, "\u0122": 4217, "\u0120Frank": 4218, "\u0120stimuleren": 4219, "ager": 4220, "\u0120culturele": 4221, "47": 4222, "\u0120bezocht": 4223, "aro": 4224, "\u0120Bosch": 4225, "\u0120Design": 4226, "\u0120tip": 4227, "organisaties": 4228, "rem": 4229, "film": 4230, "\u0120toekomstige": 4231, "\u0120ie": 4232, "haar": 4233, "eed": 4234, "laag": 4235, "\u0120drukken": 4236, "\u0120Mag": 4237, "\u0120relevante": 4238, "\u0120handels": 4239, "\u0120voorstelling": 4240, "\u0120el": 4241, "ala": 4242, "\u0120beantwoorden": 4243, "\u0120Br": 4244, "bi": 4245, "\u0120ingesteld": 4246, "46": 4247, "\u0120inzake": 4248, "zaam": 4249, "\u0120koelkast": 4250, "\u0120variant": 4251, "\u0120besparen": 4252, "\u0120hemel": 4253, "\u0120premie": 4254, "rot": 4255, "\u0120werkdagen": 4256, "orn": 4257, "\u0120verl": 4258, "\u0120buitenlandse": 4259, "loze": 4260, "\u0120beslag": 4261, "\u0120processen": 4262, "\u0120bewaren": 4263, "\u0120bas": 4264, "\u0120strak": 4265, "\u0120Bank": 4266, "\u0120fouten": 4267, "rop": 4268, "\u0120My": 4269, "\u0120katten": 4270, "ction": 4271, "\u0120Qu": 4272, "\u012037": 4273, "kaarten": 4274, "\u0120verw": 4275, "\u0120Service": 4276, "\u0120vliegtuig": 4277, "\u0120goedkoper": 4278, "\u0120Erotische": 4279, "\u0120tempo": 4280, "\u0120\u00c3\u0142": 4281, "\u0120geschikte": 4282, "\u0120verwachting": 4283, "\u0120besteed": 4284, "\u0120student": 4285, "\u0120\u00e2\u0122\u0136": 4286, "\u0120ontmoeten": 4287, "ris": 4288, "\u0120Rijn": 4289, "\u0120bek": 4290, "rum": 4291, "ret": 4292, "\u0120beschouwd": 4293, "\u0120Nadat": 4294, "line": 4295, "\u0120stenen": 4296, "eur": 4297, "\u0120talent": 4298, "wijze": 4299, "let": 4300, "\u0120eentje": 4301, "rak": 4302, "\u0120versterken": 4303, "\u0120mochten": 4304, "\u0120Black": 4305, "oken": 4306, "\u0120hierboven": 4307, "\u0120bv": 4308, "\u0120batterij": 4309, "\u0120Uiteindelijk": 4310, "\u0120fris": 4311, "\u0120tocht": 4312, "\u0120gepubliceerd": 4313, "kwaliteit": 4314, "wand": 4315, "\u0120Engeland": 4316, "\u0120Chinese": 4317, "\u0120pot": 4318, "\u0120uiterst": 4319, "woning": 4320, "la": 4321, "88": 4322, "\u0120crisis": 4323, "\u0120katoen": 4324, "\u0120herkennen": 4325, "\u0120hoorde": 4326, "IG": 4327, "\u012034": 4328, "\u0120verhogen": 4329, "sters": 4330, "bron": 4331, "\u0120zwem": 4332, "istisch": 4333, "\u0120am": 4334, "\u0120telefonisch": 4335, "\u0120trainer": 4336, "\u0120onderscheiden": 4337, "staande": 4338, "\u0120Haarlem": 4339, "\u0120Plus": 4340, "\u0120bewezen": 4341, "\u0120vergunning": 4342, "rik": 4343, "\u0120scherpe": 4344, "\u0120streven": 4345, "week": 4346, "\u0120Was": 4347, "stellen": 4348, "\u0120krachtige": 4349, "\u0120Staat": 4350, "\u0120samengesteld": 4351, "\u0120Daardoor": 4352, "\u0120opvang": 4353, "\u0120E\u00c3\u00a9n": 4354, "\u0120verboden": 4355, "\u0120verk": 4356, "\u0120negen": 4357, "\u0120herfst": 4358, "\u0120beton": 4359, "\u0120geraakt": 4360, "\u0120vissen": 4361, "zicht": 4362, "\u0120innovatie": 4363, "].": 4364, "\u0120\u00e2\u0128\u0134": 4365, "\u0120Mer": 4366, "\u0120BTW": 4367, "\u0120leveranciers": 4368, "wit": 4369, "\u0120kap": 4370, "\u0120apps": 4371, "\u0120plat": 4372, "\u0120Oud": 4373, "\u0120Gods": 4374, "\u0120behoeve": 4375, "\u0120aanleg": 4376, "\u0120besproken": 4377, "\u0120aansprakelijkheid": 4378, "AC": 4379, "splan": 4380, "\u0120oefenen": 4381, "\u0120milf": 4382, "uy": 4383, "\u0120spiegel": 4384, "\u0120bepalingen": 4385, "\u0120grijs": 4386, "\u0120uitkering": 4387, "kn": 4388, "\u0120namens": 4389, "OT": 4390, "\u0120meldt": 4391, "iaal": 4392, "\u0120status": 4393, "\u0120lijf": 4394, "\u0120Spaanse": 4395, "\u0120ac": 4396, "\u0120aankomst": 4397, "\u0120gegeten": 4398, "post": 4399, "\u00c3\u00a8": 4400, "zijde": 4401, "\u0120speelgoed": 4402, "\u0120wetenschap": 4403, "\u0120bedankt": 4404, "IP": 4405, "\u0120blijken": 4406, "\u0120Heer": 4407, "\u0120ernstige": 4408, "\u0120behalen": 4409, "\u0120zingen": 4410, "\u0120int": 4411, "\u0120vertrekken": 4412, "\u0120geslacht": 4413, "\u0120College": 4414, "\u0120tijde": 4415, "\u0120Stad": 4416, "visie": 4417, "advies": 4418, "\u0120toon": 4419, "maal": 4420, "IL": 4421, "\u0120blijkbaar": 4422, "\u0120tenminste": 4423, "\u0120afscheid": 4424, "\u0120do": 4425, "\u0120gevoelens": 4426, "\u0120besteden": 4427, "\u0120diner": 4428, "\u0120coach": 4429, "\u0120Ondanks": 4430, "\u0120Maas": 4431, "\u0120duren": 4432, "\u0120groeit": 4433, "\u0120cent": 4434, "\u0120droge": 4435, "\u0120Maastricht": 4436, "ild": 4437, "rand": 4438, "\u0120Home": 4439, "\u0120competitie": 4440, "\u0120120": 4441, "actie": 4442, "komen": 4443, "\u0120hobby": 4444, "\u0120ermee": 4445, "\u0120zwemmen": 4446, "vrouw": 4447, "\u0120ton": 4448, "\u0120Nou": 4449, "houders": 4450, "Af": 4451, "\u0120uitzending": 4452, "\u0120Wit": 4453, "\u0120aangebracht": 4454, "\u0120trok": 4455, "\u0120Drie": 4456, "\u0120praktisch": 4457, "IJ": 4458, "\u0120huisarts": 4459, "\u0120appartementen": 4460, "\u0120mon": 4461, "\u0120noorden": 4462, "\u0120patroon": 4463, "bord": 4464, "\u0120instrument": 4465, "\u0120kle": 4466, "ities": 4467, "dorp": 4468, "\u0120deels": 4469, "\u0120strategie": 4470, "US": 4471, "wedstrijd": 4472, "\u0120kunstenaars": 4473, "\u0120zilver": 4474, "\u0120groenten": 4475, "genoten": 4476, "\u0120tekenen": 4477, "\u0120bedenken": 4478, "\u0120ontmoet": 4479, "\u0120vrolijk": 4480, "\u0120zuid": 4481, "industrie": 4482, "\u00ef\u00bf\u00bd": 4483, "\u0120eraan": 4484, "\u0120voorjaar": 4485, "\u0120bronnen": 4486, "\u0120koers": 4487, "\u0120veelal": 4488, "\u0120Prijs": 4489, "\u0120reg": 4490, "\u0120kutje": 4491, "\u0120toepassingen": 4492, "\u0120bedacht": 4493, "\u0120Tilburg": 4494, "\u0120Contact": 4495, "angen": 4496, "\u0120verklaard": 4497, "\u0120Ph": 4498, "gr": 4499, "\u0120norm": 4500, "\u0120Dag": 4501, "kk": 4502, "gest": 4503, "\u0120produceren": 4504, "ton": 4505, "\u0120advertentie": 4506, "\u0120ministerie": 4507, "\u0120ligging": 4508, "\u0120Hiervoor": 4509, "dit": 4510, "\u0120trainen": 4511, "\u0120planning": 4512, "sbe": 4513, "\u0120boerderij": 4514, "\u0120un": 4515, "\u0120publieke": 4516, "Waar": 4517, "akt": 4518, "\u0120Reg": 4519, "\u0120aangeven": 4520, "\u0120rem": 4521, "\u0120besch": 4522, "\u0120Andere": 4523, "\u0120geheim": 4524, "\u01202002": 4525, "\u0120tentoonstelling": 4526, "\u0120stads": 4527, "\u0120metalen": 4528, "\u0120vriendelijke": 4529, "\u0120hel": 4530, "grond": 4531, "\u0120vastgelegd": 4532, "\u0120verricht": 4533, "\u0120gebleven": 4534, "\u0120Geef": 4535, "\u0120supermarkt": 4536, "\u0120USB": 4537, "\u0120filmpje": 4538, "vrije": 4539, "\u0120maximum": 4540, "\u0120beoordelen": 4541, "onden": 4542, "\u0120verschenen": 4543, "gebieden": 4544, "leg": 4545, "\u0120Sm": 4546, "\u0120gedachte": 4547, "\u0120bru": 4548, "VO": 4549, "\u0120klopt": 4550, "wij": 4551, "\u0120frisse": 4552, "\u0120Post": 4553, "onk": 4554, "\u0120hoofdstad": 4555, "do": 4556, "\u0120mini": 4557, "ba": 4558, "rat": 4559, "VA": 4560, "\u0120Bed": 4561, "ric": 4562, "\u0120webcam": 4563, "\u0120gewenst": 4564, "\u0120degelijk": 4565, "\u0120App": 4566, "ail": 4567, "\u0120vergroten": 4568, "\u0120ernstig": 4569, "\u0120technisch": 4570, "\u0120traject": 4571, "\u0123": 4572, "Bent": 4573, "\u0120menselijke": 4574, "ijt": 4575, "\u0120conclusie": 4576, "\u0120gevuld": 4577, "\u0120regelgeving": 4578, "\u0120ontbreken": 4579, "\u0120bot": 4580, "kel": 4581, "\u00e9": 4582, ".[": 4583, "beelden": 4584, "\u0120naakte": 4585, "\u0120dichter": 4586, "\u0120Tijd": 4587, "\u01202001": 4588, "\u0120dromen": 4589, "\u0120kwaad": 4590, "\u0120voortdurend": 4591, "\u0120meten": 4592, "\u0120beschermd": 4593, "\u0120specialisten": 4594, "\u0120tre": 4595, "\u0120aansluiten": 4596, "leider": 4597, "\u0120auteur": 4598, "\u0120tekort": 4599, "\u00b0": 4600, "\u0120dec": 4601, "\u0120opzet": 4602, "\u0120vanzelf": 4603, "\u0120Eerst": 4604, "\u0120dertig": 4605, "\u0120leef": 4606, "\u0120Echt": 4607, "\u0120verrichten": 4608, "\u0120stelde": 4609, "\u0120Elk": 4610, "78": 4611, "\u0120update": 4612, "\u0120Sw": 4613, "\u0120kanker": 4614, "\u0120duurzaamheid": 4615, "\u0120Em": 4616, "\u0120Bent": 4617, "\u0120verminderen": 4618, "ira": 4619, "ary": 4620, "\u0120ziel": 4621, "\u0120aut": 4622, "\u0120zodanig": 4623, "gels": 4624, "\u0120studio": 4625, "\u0120voertuig": 4626, "bad": 4627, "\u0120oefeningen": 4628, "\u0120geldig": 4629, "\u0120onderhouds": 4630, "\u0120single": 4631, "\u0120benodigde": 4632, "UR": 4633, "\u0120Mal": 4634, "schoenen": 4635, "systemen": 4636, "\u0120Cre": 4637, "\u013b": 4638, "\u0120bijeenkomst": 4639, "ctor": 4640, "\u0120inkomsten": 4641, "\u0120wild": 4642, "gedrag": 4643, "\u0120deelname": 4644, "\u0120verzameld": 4645, "\u0120verdwijnen": 4646, "\u0120isolatie": 4647, "\u0120kabinet": 4648, "\u0120Web": 4649, "va": 4650, "stoel": 4651, "\u0120opleidingen": 4652, "ams": 4653, "\u0120stuks": 4654, "\u0120getoond": 4655, "itt": 4656, "overeenkomst": 4657, "\u0120innovatieve": 4658, "\u0120campagne": 4659, "yp": 4660, "\u0120Ant": 4661, "ham": 4662, "\u0120operatie": 4663, "\u0120verwachtingen": 4664, "fonds": 4665, "\u0120nader": 4666, "\u0120diepe": 4667, "\u0120leukste": 4668, "\u0120registratie": 4669, "\u0120nieuwbouw": 4670, "\u0120Vereniging": 4671, "\u00c3\u00ab": 4672, "\u0120Doordat": 4673, "\u0120Mil": 4674, "\u0120Kinder": 4675, "\u0120verstandig": 4676, "\u0120box": 4677, "\u0120boodschappen": 4678, "\u0120presenteren": 4679, "ull": 4680, "\u0120Bart": 4681, "elende": 4682, "\u0120samenwerken": 4683, "\u0120draad": 4684, "\u0120Kleur": 4685, "\u0120vul": 4686, "\u0120make": 4687, "\u0120rijke": 4688, "stellingen": 4689, "\u0120kwart": 4690, "AB": 4691, "\u0120gewend": 4692, "\u0120draag": 4693, "\u0120gecombineerd": 4694, "\u0120gestuurd": 4695, "Net": 4696, "\u0120meid": 4697, "\u0120beiden": 4698, "\u0120meegenomen": 4699, "\u0120carri\u00c3\u00a8re": 4700, "\u0120exclusief": 4701, "\u0120kritiek": 4702, "laan": 4703, "di": 4704, "\u0120Zwolle": 4705, "\u0120zulke": 4706, "\u0120nl": 4707, "\u0120Rusland": 4708, "\u0120OP": 4709, "\u0120Piet": 4710, "\u0120jarenlang": 4711, "\u0120gebeurde": 4712, "\u0120verdwenen": 4713, "\u0120twaalf": 4714, "\u0120aandeel": 4715, "\u0120Breda": 4716, "boot": 4717, "station": 4718, "\u0120Londen": 4719, "\u0120filmpjes": 4720, "\u0120jurk": 4721, "za": 4722, "\u0120geregistreerd": 4723, "\u0120Onderwijs": 4724, "\u0120nauw": 4725, "\u0120minimum": 4726, "\u0120armen": 4727, "\u0120Goede": 4728, "ical": 4729, "Tot": 4730, "\u0120domein": 4731, "\u0120verteld": 4732, "\u0120;": 4733, "vaart": 4734, "\u0120overtuigd": 4735, "\u0120Zeer": 4736, "\u0142": 4737, "mb": 4738, "\u0120koopt": 4739, "\u0120winnaar": 4740, "\u0120oranje": 4741, "inen": 4742, "ave": 4743, "elend": 4744, "\u00e3\u0124": 4745, "vakantie": 4746, "\u0120ges": 4747, "\u0120$": 4748, "\u0120ofwel": 4749, "\u0120degene": 4750, "aai": 4751, "RE": 4752, "aarde": 4753, "regels": 4754, "\u0120invullen": 4755, "\u0120krediet": 4756, "\u0120avontuur": 4757, "auw": 4758, "CT": 4759, "illen": 4760, "\u0120pc": 4761, "akk": 4762, "dam": 4763, "\u0120Ke": 4764, "\u0120kilo": 4765, "\u0120achteraf": 4766, "76": 4767, "vragen": 4768, "\u0120Ha": 4769, "\u0120kandidaat": 4770, "\u00c2\u00bb": 4771, "\u0120reguliere": 4772, "\u0120feestje": 4773, "\u0120tijdelijke": 4774, "\u0120back": 4775, "\u0120Pieter": 4776, "\u0120roman": 4777, "\u0120VAN": 4778, "\u0120minste": 4779, "mar": 4780, "\u0120Sal": 4781, "\u0120gereden": 4782, "\u0120non": 4783, "\u0120Wereld": 4784, "\u0120varen": 4785, "\u00e2\u0124\u00ac": 4786, "\u0120luchthaven": 4787, "\u0120nederland": 4788, "\u0120ondernemen": 4789, "\u0120juridische": 4790, "\u0120continu": 4791, "\u0120aller": 4792, "icus": 4793, "\u0120spellen": 4794, "voorwaarden": 4795, "\u0120ge\u00c3\u00afnteresseerd": 4796, "\u0120investeren": 4797, "houden": 4798, "\u0120leeft": 4799, "ouwen": 4800, "\u0120eerdere": 4801, "\u0120cd": 4802, "\u0120wonder": 4803, "\u0120praat": 4804, "\u0120Unie": 4805, "\u0120schijf": 4806, "zij": 4807, "\u0120beroemde": 4808, "\u0120tijdig": 4809, "\u0120oppervlakte": 4810, "ka": 4811, "\u0120aangewezen": 4812, "oud": 4813, "\u0120Natuur": 4814, "ike": 4815, "\u0120begrepen": 4816, "\u0120wederom": 4817, "vraag": 4818, "brief": 4819, "\u0120volgde": 4820, "\u0120mod": 4821, "\u0120ondersteunt": 4822, "\u0120mits": 4823, "\u0120correct": 4824, "\u0120City": 4825, "kte": 4826, "\u0120verdient": 4827, "ama": 4828, "\u0120regionale": 4829, "\u0120kasteel": 4830, "ete": 4831, "brug": 4832, "\u0120kwartaal": 4833, "\u0120extreem": 4834, "plant": 4835, "\u0120beperkte": 4836, "uz": 4837, "\u0120bediening": 4838, "\u0120Lekker": 4839, "\u0120sterker": 4840, "\u0120Bet": 4841, "\u0120res": 4842, "\u0120slim": 4843, "\u0120gekoppeld": 4844, "\u0120kaartje": 4845, "\u0120schepen": 4846, "Hieronder": 4847, "\u0120overeengekomen": 4848, "\u0120aanzienlijk": 4849, "\u0120Kunst": 4850, "\u0120capaciteit": 4851, "ott": 4852, "\u0120Hoge": 4853, "\u0120wezen": 4854, "\u0120behoeften": 4855, "\u0120verstaan": 4856, "\u0120World": 4857, "vo": 4858, "\u0120jas": 4859, "\u0120gebeurtenissen": 4860, "Verder": 4861, "oze": 4862, "\u0120IS": 4863, "\u0120Jaar": 4864, "\u0120Tim": 4865, "\u00c2": 4866, "\u0120Hart": 4867, "\u0120Pol": 4868, "\u0120passend": 4869, "\u0120opbouw": 4870, "\u0120Oranje": 4871, "\u0120daartoe": 4872, "\u0120zette": 4873, "oep": 4874, "\u0120David": 4875, "\u0120gerecht": 4876, "\u0120betrouwbaar": 4877, "\u0120beveiliging": 4878, "\u012042": 4879, "atten": 4880, "\u0120verzorging": 4881, "\u0120gerealiseerd": 4882, "\u0120wetgeving": 4883, "\u0120machines": 4884, "\u0120treden": 4885, "\u0120tevoren": 4886, "\u0120FC": 4887, "\u0120concurrentie": 4888, "\u0120omvat": 4889, "\u0120prestatie": 4890, "\u0120rijst": 4891, "staan": 4892, "\u0120toeristen": 4893, "42": 4894, "\u00e3\u0125": 4895, "\u0120Inmiddels": 4896, "\u0120tientallen": 4897, "\u0120aantrekkelijk": 4898, "\u0120iPad": 4899, "\u0120uitbreiding": 4900, "200": 4901, "\u0120verlopen": 4902, "\u0120recepten": 4903, "go": 4904, "\u0120lening": 4905, "\u0120term": 4906, "Maak": 4907, "\u0120gesp": 4908, "\u0120overheids": 4909, "kop": 4910, "\u0120flexibel": 4911, "\u0120browser": 4912, "\u0120expertise": 4913, "\u0120onderzoekers": 4914, "\u0120Delft": 4915, ",\"": 4916, "\u0120Sk": 4917, "\u0120object": 4918, "\u0120schitterende": 4919, "racht": 4920, "\u012a": 4921, "gew": 4922, "\u0120wees": 4923, "\u0120balkon": 4924, "\u0120gestelde": 4925, "\u0120zonnepanelen": 4926, "\u0120Friesland": 4927, "\u0120schoonheid": 4928, "\u0120Beide": 4929, "service": 4930, "\u0120gere": 4931, "geen": 4932, "\u0120mist": 4933, "\u0120achterkant": 4934, "gemaakt": 4935, "\u0120Vind": 4936, "\u0120slachtoffers": 4937, "hem": 4938, "\u0120geproduceerd": 4939, "\u0120vreemde": 4940, "pje": 4941, "\u0120kwaliteits": 4942, "\u0120verhuur": 4943, "\u0120puur": 4944, "\u0120Albert": 4945, "\u0120Beste": 4946, "\u0120No": 4947, "\u0120veroorzaken": 4948, "\u0120stro": 4949, "\u0120Bas": 4950, "\u0120vogel": 4951, "olle": 4952, "shop": 4953, "bon": 4954, "\u0120bijbehorende": 4955, "management": 4956, "\u0120afgesproken": 4957, "\u0120geprobeerd": 4958, "\u0120bijv": 4959, "\u0120waaraan": 4960, "\u0120Mooie": 4961, "the": 4962, "LE": 4963, "\u0120moe": 4964, "\u0120Centraal": 4965, "\u0120inf": 4966, "\u00af": 4967, "\u012039": 4968, "\u0120fun": 4969, "\u0120voorop": 4970, "hulp": 4971, "\u0120gezinnen": 4972, "\u0120tand": 4973, "\u0120banen": 4974, "\u0120shop": 4975, "\u0120Bo": 4976, "\u0120download": 4977, "\u0120voorzichtig": 4978, "\u0120biologische": 4979, "\u0134": 4980, "\u0120doorgaans": 4981, "\u0120gegarandeerd": 4982, "ape": 4983, "\u0120plafond": 4984, "\u0120zus": 4985, "alisatie": 4986, "etter": 4987, "\u0120dieet": 4988, "43": 4989, "\u0120literatuur": 4990, "ici": 4991, "\u0120chocolade": 4992, "\u0120bol": 4993, "\u0120HR": 4994, "\u0120bestuurder": 4995, "\u0120dossier": 4996, "lopen": 4997, "\u0135": 4998, "\u0120voorlopig": 4999, "\u0120verbinden": 5000, "ico": 5001, "\u0120muren": 5002, "\u0120hierop": 5003, "\u0120Iedere": 5004, "\u0120kip": 5005, "\u0132": 5006, "\u0120bewaard": 5007, "\u0120geslaagd": 5008, "\u0120garanderen": 5009, "\u0120spieren": 5010, "\u0120wijst": 5011, "anders": 5012, "\u0120Leuk": 5013, "\u0120opgelost": 5014, "\u00d0\u00b0": 5015, "atoren": 5016, "ipp": 5017, "\u0120nek": 5018, "\u0120leverbaar": 5019, "zone": 5020, "bs": 5021, "\u0120inst": 5022, "\u0120beperken": 5023, "\u0120erf": 5024, "\u0120review": 5025, "\u0120malen": 5026, "\u0120bekijk": 5027, "\u0120afgewerkt": 5028, "\u0120commerci\u00c3\u00able": 5029, "ima": 5030, "aste": 5031, "oem": 5032, "car": 5033, "\u0120oplossen": 5034, "\u0120kunstenaar": 5035, "\u0120Mont": 5036, "\u0120geel": 5037, "slagen": 5038, "Lees": 5039, "\u0120verkiezingen": 5040, "\u0120belangstelling": 5041, "\u0120im": 5042, "\u0120ontslag": 5043, "\u0120Sam": 5044, "\u0120verborgen": 5045, "\u0120As": 5046, "\u0120Aut": 5047, "gericht": 5048, "\u0120Zw": 5049, "stijl": 5050, "\u0120One": 5051, "iro": 5052, "onnen": 5053, "\u00d0\u00b5": 5054, "\u0120toets": 5055, "ory": 5056, "\u0120Nationale": 5057, "\u0120gef": 5058, "\u0120Zwarte": 5059, "erse": 5060, "ieve": 5061, "omm": 5062, "bos": 5063, "\u0120beleids": 5064, "\u0120blok": 5065, "\u0120ingediend": 5066, "pas": 5067, "matig": 5068, "genoot": 5069, "\u0120opmerkingen": 5070, "\u0120gauw": 5071, "\u0120prof": 5072, "\u0120buren": 5073, "Daar": 5074, "\u00c2\u00b4": 5075, "artikelen": 5076, "\u0120Ac": 5077, "\u0120behandelingen": 5078, "\u0120onderzocht": 5079, "problemen": 5080, "\u0120normen": 5081, "\u0120plaatje": 5082, "\u0120verscheen": 5083, "\u0120parkeren": 5084, "bestand": 5085, "\u0120Escort": 5086, "\u0120bakken": 5087, "\u0120deelnemen": 5088, "oper": 5089, "\u0120emoties": 5090, "\u0120Gen": 5091, "\u0120vingers": 5092, "\u0120omvang": 5093, "way": 5094, "\u0120verlenen": 5095, "IM": 5096, "\u0120meerderheid": 5097, "eest": 5098, "ged": 5099, "Laat": 5100, "\u0120fles": 5101, "\u0120verspreid": 5102, "\u0120tijdstip": 5103, "\u0120Informatie": 5104, "\u0120boekje": 5105, "\u0120plaatse": 5106, "\u0120Vrij": 5107, "\u0120Hoofd": 5108, "\u00a8": 5109, "rijke": 5110, "\u0120Go": 5111, "opp": 5112, "elaars": 5113, "kw": 5114, "\u0120schoen": 5115, "ign": 5116, "\u0120zoektocht": 5117, "aald": 5118, "\u0120onafhankelijk": 5119, "\u0120waaruit": 5120, "\u0120Groep": 5121, "\u0120rendement": 5122, "\u0120Pr": 5123, "\u0120beg": 5124, "oth": 5125, "med": 5126, "\u0120lesbische": 5127, "\u0120doek": 5128, "test": 5129, "\u0120dagje": 5130, "\u0120branche": 5131, "\u0120Bijbel": 5132, "Dus": 5133, "\u0120anale": 5134, "\u0120inzichten": 5135, "Kl": 5136, "\u0120gedeeltelijk": 5137, "\u0120zitting": 5138, "\u0120Green": 5139, "\u0120bestond": 5140, "\u0120CV": 5141, "\u0120beschrijving": 5142, "\u0120lokaal": 5143, "77": 5144, "\u0120fraaie": 5145, "ads": 5146, "\u0120vestiging": 5147, "\u0120ongeluk": 5148, "\u012f": 5149, "makers": 5150, "mes": 5151, "68": 5152, "\u0120Business": 5153, "\u0120haast": 5154, "gevallen": 5155, "maken": 5156, "urt": 5157, "\u0120Zodra": 5158, "!\u00e2\u0122\u013f": 5159, "\u0120onafhankelijke": 5160, "\u0120voorkomende": 5161, "\u0120vijfde": 5162, "\u0120streek": 5163, "uizen": 5164, "\u0120platen": 5165, "\u0120verkregen": 5166, "ace": 5167, "\u0120zakken": 5168, "\u0120traditie": 5169, "\u0120Wereldoorlog": 5170, "\u0120hals": 5171, "rechten": 5172, "\u0120Kinderen": 5173, "\u0120PvdA": 5174, "\u0120stukjes": 5175, "\u0120Sn": 5176, "\u0120aangifte": 5177, "\u00c3\u0143": 5178, "EC": 5179, "ym": 5180, "\u0120bibliotheek": 5181, "\u0120toepassen": 5182, "\u0120Leg": 5183, "alis": 5184, "kleur": 5185, "ute": 5186, "\u0120Free": 5187, "\u0120vuil": 5188, "\u0120faciliteiten": 5189, "\u0120recent": 5190, "\u0120vrede": 5191, "\u0120afwerking": 5192, "\u0120Auto": 5193, "\u0120bereik": 5194, "stoffen": 5195, "\u0120voedings": 5196, "\u0120Ass": 5197, "\u0120trend": 5198, "\u0120sporen": 5199, "\u0120WK": 5200, "\u0120zoiets": 5201, "\u0120misbruik": 5202, "\u0120Dam": 5203, "\u0120aansluit": 5204, "\u0120kindje": 5205, "\u0120verzonden": 5206, "\u0120Du": 5207, "\u0120Henk": 5208, "lamp": 5209, "vloer": 5210, "dom": 5211, "ringen": 5212, "\u0120verloop": 5213, "\u0120schouder": 5214, "\u0120doeleinden": 5215, "\u0120diploma": 5216, "\u0120landelijk": 5217, "?\u00e2\u0122\u013f": 5218, "Nog": 5219, "\u0120slimme": 5220, "\u0120investering": 5221, "\u0120schriftelijke": 5222, "lang": 5223, "\u0120Mooi": 5224, "\u0120verv": 5225, "fase": 5226, "\u00e0\u00b8": 5227, "\u0120Russische": 5228, "dy": 5229, "\u0120exclusieve": 5230, "\u0120wisten": 5231, "\u0120Video": 5232, "\u0120wint": 5233, "\u0120wetenschappelijke": 5234, "\u0120genaamd": 5235, "\u0120opent": 5236, "\u0125": 5237, "\u0120heldere": 5238, "\u0120peper": 5239, "\u0120bruin": 5240, "\u0120aanvulling": 5241, "\u0120strakke": 5242, "\u0120Stel": 5243, "\u0120god": 5244, "\u0120ha": 5245, "\u0120groente": 5246, "\u0120NS": 5247, "\u0120belast": 5248, "ffen": 5249, "\u0120ge\u00c3\u00afn": 5250, "\u0120zul": 5251, "\u0120For": 5252, "\u0120race": 5253, "fer": 5254, "lijnen": 5255, "\u0133": 5256, "\u0120horeca": 5257, "\u0120pe": 5258, "\u0120frame": 5259, "\u0120verzorgt": 5260, "\u0120verblijven": 5261, "top": 5262, "\u0120brandweer": 5263, "\u0120lot": 5264, "IV": 5265, "zuur": 5266, "\u0120spoedig": 5267, "\u0120elders": 5268, "\u0120werkgevers": 5269, "\u0120rot": 5270, "\u0120taart": 5271, "\u0120Tour": 5272, "\u0120missie": 5273, "omp": 5274, "instellingen": 5275, "\u0124": 5276, "sver": 5277, "\u0120sol": 5278, "\u0120server": 5279, "\u0120noord": 5280, "MA": 5281, "dering": 5282, "\u0120proeven": 5283, "\u0120conform": 5284, "use": 5285, "nu": 5286, "\u0120drankje": 5287, "\u0120Boven": 5288, "\u0120verplichting": 5289, "\u0120bevestiging": 5290, "seks": 5291, "\u0120komst": 5292, "\u0120International": 5293, "\u0120Vlaams": 5294, "\u0120Johan": 5295, "\u0120stoere": 5296, "Uw": 5297, "gar": 5298, "Via": 5299, "pr": 5300, "\u0120cam": 5301, "\u0120origineel": 5302, "\u0120haal": 5303, "\u0120drukke": 5304, "\u0120Aantal": 5305, "leiding": 5306, "\u0120Jij": 5307, "koop": 5308, "zig": 5309, "alm": 5310, "\u0120Koninkrijk": 5311, "\u0120ontmoeting": 5312, "Nee": 5313, "\u0120aflevering": 5314, "\u013c": 5315, "\u0120inch": 5316, "\u0120zoet": 5317, "\u0120aanbieders": 5318, "vast": 5319, ".....": 5320, "\u0120ingeschreven": 5321, "\u0120Geb": 5322, "\u0120mama": 5323, "\u0120handleiding": 5324, "\u0120opstellen": 5325, "\u0120voordelig": 5326, "\u0120Leer": 5327, "\u0120aanmelden": 5328, "\u0120enthousiaste": 5329, "\u00b1": 5330, "\u012000": 5331, "\u0120metaal": 5332, "oorten": 5333, "ura": 5334, "\u0120Minister": 5335, "Ar": 5336, "lessen": 5337, "\u0120erkend": 5338, "\u0120logisch": 5339, "41": 5340, "\u0120Amsterdamse": 5341, "\u0120part": 5342, "\u0120grotendeels": 5343, "\u0120Gu": 5344, "\u0120inbegrepen": 5345, "\u0120medicijnen": 5346, "\u0120Bi": 5347, "\u0120Geile": 5348, "\u0120onderaan": 5349, "\u0120War": 5350, "\u0120poging": 5351, "verkeer": 5352, "mers": 5353, "\u0120gelukt": 5354, "\u012b": 5355, "\u0120meedoen": 5356, "\u0120Turkije": 5357, "\u0120breedte": 5358, "\u0120ophalen": 5359, "\u0120definitief": 5360, "\u0120lijden": 5361, "\u0120onderzoeks": 5362, "\u0120constructie": 5363, "\u0120verzet": 5364, "\u0120gevangen": 5365, "\u0120vinger": 5366, "\u0120aanbrengen": 5367, "Bl": 5368, "\u0120instellen": 5369, "\u0120klok": 5370, "ita": 5371, "\u0120roepen": 5372, "\u0120Hol": 5373, "Brabant": 5374, "spl": 5375, "SP": 5376, "\u0120klim": 5377, "mand": 5378, "amer": 5379, "\u0120destijds": 5380, "\u0120parkeer": 5381, "\u0120kopje": 5382, "\u00a1": 5383, "eloos": 5384, ".:": 5385, "\u0120ab": 5386, "\u0120reken": 5387, "\u0120verstand": 5388, "ikte": 5389, "vallen": 5390, "\u0120kamp": 5391, "\u0120verstrekken": 5392, "\u0120architectuur": 5393, "\u0120Gra": 5394, "\u0120Del": 5395, "\u0120voorgaande": 5396, "\u0120Kerst": 5397, "\u0120verzending": 5398, "\u0120lente": 5399, "ement": 5400, "vormen": 5401, "\u0120Bron": 5402, "gens": 5403, "2017": 5404, "\u0120Plaats": 5405, "prijzen": 5406, "\u0120daarover": 5407, "\u0120betaalde": 5408, "\u0120salaris": 5409, "\u0120schaduw": 5410, "\u0120concrete": 5411, "\u0120oren": 5412, "\u0120pass": 5413, "ada": 5414, "\u0120Zeeland": 5415, "\u0120gezamenlijke": 5416, "aliseren": 5417, "\u0120maatwerk": 5418, "\u0120tel": 5419, "uss": 5420, "\u0120klus": 5421, "ble": 5422, "ieken": 5423, "\u0120vacatures": 5424, "\u0120gitaar": 5425, "\u0120simpele": 5426, "\u0120Bol": 5427, "\u0120voeg": 5428, "iale": 5429, "\u0120items": 5430, "\u0120uitkomst": 5431, "\u0120aangenaam": 5432, "km": 5433, "\u0120vijftig": 5434, "\u0120gro": 5435, "\u0120groe": 5436, "\u0120meester": 5437, "\u0120hot": 5438, "tt": 5439, "\u0120straten": 5440, "On": 5441, "\u012044": 5442, "\u0120aanwezige": 5443, "iner": 5444, "\u0120opname": 5445, "gaat": 5446, "voet": 5447, "\u0120Achter": 5448, "\u0120opt": 5449, "\u0120VVD": 5450, "\u0120bevestigen": 5451, "\u0120moeilijke": 5452, "ias": 5453, "\u0120sur": 5454, "\u0120Anders": 5455, "\u0120percentage": 5456, "verlichting": 5457, "rein": 5458, "-)": 5459, "\u0120kapot": 5460, "\u0120natte": 5461, "dr": 5462, "\u0120wijnen": 5463, "Hoewel": 5464, "\u0120afgerond": 5465, "\u012095": 5466, "\u0120voer": 5467, "\u0120wapen": 5468, "\u0120meubels": 5469, "\u0120Hendrik": 5470, "\u0120Johannes": 5471, "\u0120lig": 5472, "\u0120montage": 5473, "\u0120dom": 5474, "\u0137": 5475, "\u0120vanavond": 5476, "\u0120manager": 5477, "Nederland": 5478, "mond": 5479, "\u0120drugs": 5480, "\u0120Bre": 5481, "\u0120docent": 5482, "kap": 5483, "\u0120Amersfoort": 5484, "stein": 5485, "\u0120elektriciteit": 5486, "\u0120slaat": 5487, "velden": 5488, "\u0120oorsprong": 5489, "schot": 5490, "\u0120dis": 5491, "\u0120architect": 5492, "\u0120verre": 5493, "BS": 5494, "\u0120Kar": 5495, "\u0120uitgenodigd": 5496, "\u0120At": 5497, "Samen": 5498, "ange": 5499, "\u0120Not": 5500, "\u0120genot": 5501, "\u0141": 5502, "\u0120vluchten": 5503, "Natuurlijk": 5504, "\u0120Japan": 5505, "\u0120spier": 5506, "uf": 5507, "uele": 5508, "\u0120tro": 5509, "\u0120Gar": 5510, "\u0120cre": 5511, "middag": 5512, "veren": 5513, "set": 5514, "\u0120stopt": 5515, "\u0120Rijk": 5516, "\u0120doden": 5517, "\u0120br": 5518, "\u0120essentieel": 5519, "\u0120vastgoed": 5520, "\u0120Nieuws": 5521, "aff": 5522, "ervaring": 5523, "\u0120huisje": 5524, "\u0120homo": 5525, "\u0120belangrijker": 5526, "\u0120soepel": 5527, "\u0120max": 5528, "\u0120Japanse": 5529, "EK": 5530, "\u0120retour": 5531, "\u0120afsluiten": 5532, "\u0120zelfde": 5533, "\u0120lezer": 5534, "\u0120fabriek": 5535, "\u0120stam": 5536, "\u0120Thuis": 5537, "bijvoorbeeld": 5538, "voorzitter": 5539, "\u0120bew": 5540, "\u013e": 5541, "\u0120levensduur": 5542, "\u0120out": 5543, "vermogen": 5544, "\u0120letter": 5545, "\u0120lachen": 5546, "\u0120volg": 5547, "\u0120Vul": 5548, "\u0120gij": 5549, "\u0120humor": 5550, "\u0120elektronische": 5551, "utt": 5552, "\u0120600": 5553, "\u0120red": 5554, "\u0120gewijzigd": 5555, "\u0120ruimtes": 5556, "dus": 5557, "\u0120Vis": 5558, "\u0120inschrijving": 5559, "\u0120gehoor": 5560, "\u0120adem": 5561, "\u0120aanvang": 5562, "\u0120leider": 5563, "\u0120stoelen": 5564, "antie": 5565, "oi": 5566, "\u0120overeenstemming": 5567, "\u0120definitie": 5568, "rad": 5569, "leer": 5570, "enk": 5571, "\u013d": 5572, "\u0120sowieso": 5573, "\u0120gecontroleerd": 5574, "UN": 5575, "versie": 5576, "pol": 5577, "\u0120Tro": 5578, "\u0120zijnde": 5579, "wiel": 5580, "],": 5581, "\u0120uiteenlopende": 5582, "hel": 5583, "lees": 5584, "\u0120schiet": 5585, "\u0120snap": 5586, "bers": 5587, "\u0120aantrekkelijke": 5588, "\u0120graf": 5589, "ene": 5590, "\u0120Brabant": 5591, "gro": 5592, "ants": 5593, "69": 5594, "\u0120Afrika": 5595, "ooi": 5596, "\u0120pen": 5597, "\u0120Pat": 5598, "gende": 5599, "\u0120Hel": 5600, "\u0120figuur": 5601, "\u0120applicatie": 5602, "ona": 5603, "\u0120Deel": 5604, "\u0120duik": 5605, "\u0120tube": 5606, "\u0120duizend": 5607, "ologisch": 5608, "\u0120universiteit": 5609, "\u0120knie": 5610, "\u0120promotie": 5611, "\u0120Tuin": 5612, "ografie": 5613, "\u0120getrouwd": 5614, "\u0120publicatie": 5615, "\u0120bonus": 5616, "\u013f": 5617, "\u0120perspectief": 5618, "\u0120vierkante": 5619, "\u0120Zou": 5620, "\u0120Di": 5621, "muziek": 5622, "\u0120datingsite": 5623, "\u0120toetsen": 5624, "partij": 5625, "\u0120off": 5626, "\u0120Martin": 5627, "\u0120Kleine": 5628, "\u00ba": 5629, "\u0120gemeenteraad": 5630, "\u0120kandidaten": 5631, "mel": 5632, "\u0120vermoeden": 5633, "\u0120gepresenteerd": 5634, ".-": 5635, "\u0120arbeidsmarkt": 5636, "\u0120steek": 5637, "\u0120vervanging": 5638, "gevoel": 5639, "\u0120Wim": 5640, "\u0120Bra": 5641, "\u0120\u00c3\u00a9cht": 5642, "\u0120schoonmaak": 5643, "\u0120plaatst": 5644, "\u0120Ajax": 5645, "\u0120renovatie": 5646, "alle": 5647, "woorden": 5648, "\u0120Tussen": 5649, "Ex": 5650, "\u0120Pop": 5651, "\u0120Star": 5652, "\u0120hom": 5653, "67": 5654, "onderwijs": 5655, "\u0120lampen": 5656, "\u0120communiceren": 5657, "werking": 5658, "gerichte": 5659, "\u0120muzikale": 5660, "\u0120gevaarlijk": 5661, "\u012009": 5662, "\u0120kwalitatief": 5663, "\u0120bro": 5664, "\u0120strip": 5665, "\u0120context": 5666, "ites": 5667, "\u0120creatief": 5668, "\u0120vlieg": 5669, "\u0120haalde": 5670, "onie": 5671, "bescherming": 5672, "\u0120overwinning": 5673, "\u0120cursussen": 5674, "deur": 5675, "\u0120oppervlak": 5676, "\u0120erger": 5677, "ijl": 5678, "\u0120oproep": 5679, "sprogramma": 5680, "\u0120bezoeker": 5681, "\u0120springen": 5682, "\u0120vluchtelingen": 5683, "\u0120docenten": 5684, "\u0120plaatselijke": 5685, "\u0120gelopen": 5686, "\u0120weerstand": 5687, "\u0120ontwikkelde": 5688, "\u00b2": 5689, "\u0120dekking": 5690, "\u0120krachten": 5691, "\u0120maatschappelijk": 5692, "\u0120inv": 5693, "\u0120gebleken": 5694, "AK": 5695, "\u0120gezelschap": 5696, "\u0120Bestuur": 5697, "oul": 5698, "\u0120Med": 5699, "rib": 5700, "\u0120stijlvolle": 5701, "\u0120Management": 5702, "\u0120getest": 5703, "\u0120Zwart": 5704, "hoofd": 5705, "\u0120wisselen": 5706, "\u0120Jeugd": 5707, "\u0120gat": 5708, "oloog": 5709, "ware": 5710, "reden": 5711, "aaf": 5712, "\u0120sche": 5713, "que": 5714, "Mar": 5715, "GB": 5716, "\u0120schakelen": 5717, "\u0120cel": 5718, "\u0120score": 5719, "ikk": 5720, "\u0120caf\u00c3\u00a9": 5721, "\u0120wetenschappelijk": 5722, "MS": 5723, "\u0120allebei": 5724, "\u0120miljoenen": 5725, "\u0120Film": 5726, "\u0120baas": 5727, "\u0120hang": 5728, "\u0120Ed": 5729, "\u0120bevorderen": 5730, "\u0120toren": 5731, "\u0120meenemen": 5732, "\u0120doorheen": 5733, "video": 5734, "\u0120mooier": 5735, "\u0120bewijzen": 5736, "\u0120tanden": 5737, "\u0120Rond": 5738, "`": 5739, "\u0120doos": 5740, "\u0120doch": 5741, "\u0120tekeningen": 5742, "\u0120India": 5743, "aler": 5744, "\u0120voorwaarde": 5745, "\u0120verwarming": 5746, "\u0120complexe": 5747, "\u0120em": 5748, "#": 5749, "\u0120zelden": 5750, "ese": 5751, "iets": 5752, "\u0120bevoegd": 5753, "ssen": 5754, "\u0120ondersteund": 5755, "\u0120Koning": 5756, "geschiedenis": 5757, "mann": 5758, "\u0120absolute": 5759, "\u0120Res": 5760, "\u0120glad": 5761, "\u0120trainings": 5762, "\u0120Tw": 5763, "\u0120zorgde": 5764, "Elke": 5765, "aanbod": 5766, "bergen": 5767, "rijden": 5768, "\u0120wassen": 5769, "\u0120vanzelfsprekend": 5770, "\u0120schijnt": 5771, "\u0120bedoelde": 5772, "ih": 5773, "\u0120pijpen": 5774, "kunde": 5775, "\u0120Naam": 5776, "\u0120roept": 5777, "\u0120Meestal": 5778, "\u0120Comp": 5779, "hoven": 5780, "\u0120beheren": 5781, "\u0120Toe": 5782, "illa": 5783, "\u0120beoordeeld": 5784, "\u0120su": 5785, "\u00c3\u00b3": 5786, "ificatie": 5787, "\u0120Neuken": 5788, "Waarom": 5789, "\u0120verkennen": 5790, "96": 5791, "\u0120selecteren": 5792, "ueel": 5793, "oelen": 5794, "ochten": 5795, "\u0120laagste": 5796, "platen": 5797, "\u0139": 5798, "\u0120tweedehands": 5799, "\u0120doelstellingen": 5800, "\u0120bijlage": 5801, "\u0120netwerken": 5802, "UT": 5803, "\u0120Ber": 5804, "\u00d0": 5805, "\u0120vergeet": 5806, "\u0120industri\u00c3\u00able": 5807, "\u0120aanval": 5808, "kundige": 5809, "ippen": 5810, "oeren": 5811, "\u012085": 5812, "Ons": 5813, "\u0120Tegen": 5814, "\u0120gevormd": 5815, "\u0120Ind": 5816, "aker": 5817, "installatie": 5818, "\u0120mr": 5819, "\u0120gevoerd": 5820, "\u0120effectieve": 5821, "\u0120dol": 5822, "\u0120vlot": 5823, "verlies": 5824, "back": 5825, "\u0120schieten": 5826, "\u0120ondernemingen": 5827, "\u0120plekje": 5828, "\u0120nachts": 5829, "\u0120filter": 5830, "\u0120afmetingen": 5831, "\u0120medisch": 5832, "\u012e": 5833, "\u0120negatief": 5834, "\u0120bedden": 5835, "\u0120opeens": 5836, "\u0120gaven": 5837, "\u0120debat": 5838, "\u0120Team": 5839, "\u0120{": 5840, "meester": 5841, "\u0120aanschaf": 5842, "\u0120intern": 5843, "\":": 5844, "\u0120verkoper": 5845, "\u0120gepland": 5846, "\u0120getrokken": 5847, "\u0120gezondheids": 5848, "\u0120wettelijk": 5849, "ith": 5850, "fiets": 5851, "\u00ce": 5852, "kle": 5853, "ces": 5854, "\u0120Rec": 5855, "\u0120shirt": 5856, "\u0120welzijn": 5857, "ister": 5858, "\u0120full": 5859, "gever": 5860, "\u0120creativiteit": 5861, "\u0120vloeren": 5862, "bes": 5863, "\u0120inspireren": 5864, "\u0120bereiden": 5865, "eth": 5866, "\u0120tennis": 5867, "\u0120sauna": 5868, "\u00a7": 5869, "\u0120Live": 5870, "isc": 5871, "iaanse": 5872, "\u0120ontspanning": 5873, "\u0120opleveren": 5874, "\u0120handelingen": 5875, "\u0120ph": 5876, "eder": 5877, "bedrag": 5878, "\u0120sier": 5879, "doen": 5880, "yc": 5881, "\u0120spelletjes": 5882, "\u0120herinneringen": 5883, "\u0120initiatieven": 5884, "kunst": 5885, "akte": 5886, "\u0120vlag": 5887, "\u0120Schiphol": 5888, "\u0120horloge": 5889, "\u0120gedeeld": 5890, "aring": 5891, "nemer": 5892, "uik": 5893, "\u0120anaal": 5894, "\u0120fabrikant": 5895, "derd": 5896, "behandeling": 5897, "shirt": 5898, "\u0120uitgebracht": 5899, "cy": 5900, "zakken": 5901, "aling": 5902, "\u0120voertuigen": 5903, "\u0120tegemoet": 5904, "\u0120tenslotte": 5905, "\u0120Port": 5906, "\u0120mevrouw": 5907, "\u0120tour": 5908, "\u0120daaraan": 5909, "\u0120leuker": 5910, "hy": 5911, "\u0120geboden": 5912, "\u0120conditie": 5913, "\u0120bossen": 5914, "\u0120Algemeen": 5915, "\u0120kerken": 5916, "\u0120achterzijde": 5917, "aria": 5918, "\u0120ke": 5919, "aans": 5920, "\u0120moed": 5921, "ichten": 5922, "manager": 5923, "\u0120onderscheid": 5924, "\u0120eieren": 5925, "ucht": 5926, "festival": 5927, "\u0120rec": 5928, "\u0120adviezen": 5929, "\u0120gooien": 5930, "vorming": 5931, "\u0120lever": 5932, "\u0120vroege": 5933, "\u0120Log": 5934, "\u0120ketting": 5935, "Goed": 5936, "iem": 5937, "%)": 5938, "\u0120deskundige": 5939, "\u0120beperkingen": 5940, "\u0120Bert": 5941, "\u00d1\u0122": 5942, "\u0120verzendkosten": 5943, "\u0120Radio": 5944, "no": 5945, "\u0120uitgangspunt": 5946, "\u0120seksuele": 5947, "gez": 5948, "\u00e3\u0123": 5949, ",...": 5950, "\u0120aziatische": 5951, "\u0120match": 5952, "eller": 5953, "schil": 5954, "formulier": 5955, "rug": 5956, "92": 5957, "\u0120onderling": 5958, "\u0120roken": 5959, "eringen": 5960, "uch": 5961, "\u0120aanpassingen": 5962, "\u0120besp": 5963, "\u0120fit": 5964, "\u0120feite": 5965, "\u0120versturen": 5966, "\u0120redden": 5967, "\u0120formule": 5968, "\u0120maag": 5969, "zon": 5970, "\u0120vlakbij": 5971, "zame": 5972, "\u0120singles": 5973, "\u0120trends": 5974, "\u0120samenstelling": 5975, "\u0120betrokkenheid": 5976, "\u0120:)": 5977, "\u0120vakantiehuis": 5978, "\u012005": 5979, "\u0120werkwijze": 5980, "\u0120bladeren": 5981, "\u0120Brand": 5982, "\u012046": 5983, "tens": 5984, "name": 5985, "\u0120opgegeven": 5986, "rag": 5987, "mo": 5988, "\u0120uitermate": 5989, "\u0120vel": 5990, "\u0120effici\u00c3\u00abnt": 5991, "\u0120Geest": 5992, "\u012d": 5993, "\u0120linker": 5994, ",\u00e2\u0122\u013f": 5995, "\u0120stelling": 5996, "\u0120schat": 5997, "schip": 5998, "west": 5999, "\u0120militaire": 6000, "\u0120Energie": 6001, "\u0120deelnemer": 6002, "\u0120Ideaal": 6003, "VV": 6004, "\u0120Cam": 6005, "\u0120moord": 6006, "\u0120beschrijft": 6007, "\u0120EUR": 6008, "\u0120lezers": 6009, "\u0120gec": 6010, "\u0120drukte": 6011, "\u0120verlangen": 6012, "\u0120particulieren": 6013, "ome": 6014, "\u0120enigszins": 6015, "\u0120w\u00c3\u00a9l": 6016, "?\u00e2\u0122\u013b": 6017, "sluiting": 6018, "\u0120vitamine": 6019, "\u0120probeerde": 6020, "\u0120Anna": 6021, "\u0120syn": 6022, "\u0120adviseur": 6023, "\u0120erover": 6024, "pjes": 6025, "\u0120invulling": 6026, "schrift": 6027, "\u0120begeleid": 6028, "\u0120bezienswaardigheden": 6029, "\u0120Group": 6030, "igend": 6031, "\u00a4": 6032, "\u0120feedback": 6033, "\u0120expert": 6034, "\u0120my": 6035, "\u0120therapie": 6036, "alisme": 6037, "\u0120High": 6038, "\u0120archief": 6039, "\u0120motivatie": 6040, "\u0120sportieve": 6041, "speler": 6042, "\u0120lichamelijke": 6043, "besluit": 6044, "raak": 6045, "\u0120berekend": 6046, "methode": 6047, "\u0120diens": 6048, "\u0120act": 6049, "\u0120Av": 6050, "\u012043": 6051, "\u0120verkeers": 6052, "\u0120taxi": 6053, "\u0120sieraden": 6054, "\u0120pijpbeurt": 6055, "ating": 6056, "gra": 6057, "sw": 6058, "\u0120najaar": 6059, "ipt": 6060, "poort": 6061, "98": 6062, "\u0120vaart": 6063, "aagd": 6064, "\u0120Almere": 6065, "\u0120Heerlijk": 6066, "\u0120To": 6067, "\u0120mouwen": 6068, "Afgelopen": 6069, "\u0120Cal": 6070, "ament": 6071, "\u0120Master": 6072, "\u0120ontwikkelt": 6073, "\u0120vrolijke": 6074, "\u0120kanaal": 6075, "\u0120bedienen": 6076, "\u0120talloze": 6077, "pak": 6078, "Jan": 6079, "\u0120Daarvoor": 6080, "\u0120overgenomen": 6081, "inden": 6082, "Geen": 6083, "\u0120btw": 6084, "\u0120uitgegeven": 6085, "\u0120raakte": 6086, "dheid": 6087, "\u0120Opdrachtgever": 6088, "ERS": 6089, "\u0120kapitaal": 6090, "72": 6091, "\u0120muis": 6092, "\u0120jury": 6093, "\u0120Les": 6094, "cellen": 6095, "verhaal": 6096, "\u0120nogmaals": 6097, "essen": 6098, "log": 6099, "\u0120ongetwijfeld": 6100, "\u0120log": 6101, "2016": 6102, "\u0130": 6103, "\u0120verleend": 6104, "daagse": 6105, "\u0120DOC": 6106, "ato": 6107, "\u0120ass": 6108, "\u0120vangen": 6109, "\u0120Voeg": 6110, "iber": 6111, "\u0120gezag": 6112, "\u0120standpunt": 6113, "\u0120schermen": 6114, "netwerk": 6115, "\u0120Grand": 6116, "oude": 6117, "\u0120verkoopt": 6118, "\u0120Vier": 6119, "\u0120versterkt": 6120, "\u0120Project": 6121, "aakt": 6122, "\u0120Big": 6123, "\u01201999": 6124, "\u0120webwinkel": 6125, "\u0120krachtig": 6126, "\u0120Wal": 6127, "\u0120vacature": 6128, "heer": 6129, "\u0120III": 6130, "\u0120schone": 6131, "\u0120zaad": 6132, "\u0120eenheid": 6133, "\u0120vermijden": 6134, "\u0131": 6135, "\u0120stoom": 6136, "klasse": 6137, "alk": 6138, "werkzaamheden": 6139, "blok": 6140, "ieel": 6141, "\u0120Galaxy": 6142, "97": 6143, "\u0120draai": 6144, "\u00b9": 6145, "enn": 6146, "houd": 6147, "\u0120hersenen": 6148, "\u0120buis": 6149, "\u0120verzameling": 6150, "\u00be": 6151, "\u0120goedkoopste": 6152, "gaande": 6153, "}": 6154, "\u0120computers": 6155, "\u0120verhoogd": 6156, "\u0120Cap": 6157, "\u0120reinigen": 6158, "\u0120Mel": 6159, "\u0120onbekende": 6160, "\u0120jarenlange": 6161, "\u0120finish": 6162, "\u012001": 6163, "\u0120geestelijke": 6164, "ning": 6165, "ollen": 6166, "\u0120dansen": 6167, "\u0120ultieme": 6168, "beurs": 6169, "verhalen": 6170, "64": 6171, "\u0120Bon": 6172, "\u0120aangenomen": 6173, "\u0120Ag": 6174, "\u0120bo": 6175, "rac": 6176, "\u0120Later": 6177, "IA": 6178, "\u0120schilderij": 6179, "\u0120papieren": 6180, "\u0120Ren": 6181, "\u0120hanteren": 6182, "\u0120constant": 6183, "zend": 6184, "\u0120berekenen": 6185, "\u0120stranden": 6186, "\u0120aanslag": 6187, "cel": 6188, "\u0120stalen": 6189, "\u0120talenten": 6190, "rap": 6191, "\u0120Start": 6192, "war": 6193, "\u0120centimeter": 6194, "ations": 6195, "une": 6196, "\u0120diepte": 6197, "rim": 6198, "\u0120instrumenten": 6199, "\u0120tabel": 6200, "\u0120overgang": 6201, "\u0120klantenservice": 6202, "\u0120klap": 6203, "\u0120wasmachine": 6204, "\u0120Weer": 6205, "58": 6206, "\u0120Turkse": 6207, "\u0120haha": 6208, "\u0120bewustzijn": 6209, "\u0120reageert": 6210, "\u0120poort": 6211, "dan": 6212, "\u0120Ap": 6213, "\u0120\u00c2": 6214, "\u0120must": 6215, "geven": 6216, "jaren": 6217, "\u0120getroffen": 6218, "OC": 6219, "ijst": 6220, "\u0120beslissingen": 6221, "\u0120alternatieve": 6222, "\u0120simpelweg": 6223, "\u0120Sil": 6224, "\u0120haren": 6225, "\u0120massa": 6226, "\u0120toelichting": 6227, "\u0120audio": 6228, "\u0120Thomas": 6229, "\u0120cum": 6230, "machines": 6231, "\u0120Jo": 6232, "\u0120port": 6233, "\u0120wor": 6234, "uck": 6235, "\u0120wachtwoord": 6236, "\u0120tegenstander": 6237, "\u0120Vader": 6238, "\u0120opgezet": 6239, "reken": 6240, "\u0120Mat": 6241, "rekening": 6242, "\u0120Licht": 6243, "inken": 6244, "\u0120enthousiasme": 6245, "\u0120tool": 6246, "\u0120verzoeken": 6247, "ios": 6248, "\u0120vide": 6249, "\u0120directie": 6250, "\u0120verplaatsen": 6251, "mee": 6252, "jarig": 6253, "\u0120vordering": 6254, "\u0120verloopt": 6255, "\u0120Aangezien": 6256, "\u0120verliefd": 6257, "\u0120contactformulier": 6258, "reek": 6259, "\u0120pure": 6260, "\u0120ontstond": 6261, "irt": 6262, "\u0120uitgave": 6263, "\u00a5": 6264, "\u00b4": 6265, "jurk": 6266, "\u0120toege": 6267, "oden": 6268, "\u0120Erg": 6269, "\u0120artiesten": 6270, "\u0120Beg": 6271, "\u0120outfit": 6272, "arn": 6273, "\u0120bezorgd": 6274, "\u0120Maat": 6275, "\u0120liedjes": 6276, "itter": 6277, "\u0120scoren": 6278, "\u0120lift": 6279, "\u0120koppel": 6280, "\u0120ide": 6281, "\u0120Des": 6282, "\u0120voorbereid": 6283, "\u0120nadeel": 6284, "\u0120soep": 6285, "ya": 6286, "\u0120uitdagingen": 6287, "\u00e2\u0122\u0133": 6288, "lem": 6289, "\u0120zwanger": 6290, "\u0120automatische": 6291, "\u0120\u00c3": 6292, "\u0120opbrengst": 6293, "\u0120kende": 6294, "\u0120uitgesproken": 6295, "\u0120IJ": 6296, "\u0120fans": 6297, "\u0120gede": 6298, "\u0120lippen": 6299, "Ga": 6300, "\u0120benadering": 6301, "\u00d0\u00be": 6302, "\u0120opdrachtgevers": 6303, "\u0120letters": 6304, "\u0120bestemd": 6305, "\u0120begrijp": 6306, "\u0120order": 6307, "otte": 6308, "\u0120schilderijen": 6309, "contact": 6310, "\u0120eeuwen": 6311, "\u0120bovenop": 6312, "\u0120herinnering": 6313, "zetten": 6314, "urg": 6315, "\u0120`": 6316, "was": 6317, "\u0120ongeacht": 6318, "\u0120nachten": 6319, "\u0120wou": 6320, "\u00b3": 6321, "\u0120dun": 6322, "\u0120behoud": 6323, "zing": 6324, "stenen": 6325, "locatie": 6326, "\u0120front": 6327, "kantoor": 6328, "\u0120categorie\u00c3\u00abn": 6329, "\u0120zeil": 6330, "techniek": 6331, "\u0120fotografie": 6332, "\u0120contactgegevens": 6333, "ches": 6334, "nes": 6335, "\u0120dure": 6336, "\u0120volume": 6337, "\u0120weliswaar": 6338, "uro": 6339, "\u0120reed": 6340, "\u0120vertrokken": 6341, "\u0120har": 6342, "\u0120keus": 6343, "\u0120hedendaagse": 6344, "\u0120Zet": 6345, "regel": 6346, "\u0120verzekerde": 6347, "brand": 6348, "ado": 6349, "\u0120Leeuwarden": 6350, "\u0120opvallend": 6351, "projecten": 6352, "\u0120Trump": 6353, "\u00bf": 6354, "\u0120Rem": 6355, "zee": 6356, "\u0120pat": 6357, "erden": 6358, "??": 6359, "\u0120afgestemd": 6360, "\u0120gemakkelijker": 6361, "\u0120ingeschakeld": 6362, "\u0120receptie": 6363, "\u0120\u00e2\u0122\u013f": 6364, "ving": 6365, "\u0120Doel": 6366, "\u0120BE": 6367, "\u0120ingevuld": 6368, "\u0120kids": 6369, "\u0120Dijk": 6370, "\u0120Woon": 6371, "\u0120win": 6372, "nog": 6373, "\u0120Bestel": 6374, "\u0120eindigt": 6375, "\u0120DJ": 6376, "\u0120bestuurders": 6377, "rische": 6378, "dem": 6379, "atte": 6380, "\u0127": 6381, "kken": 6382, "{": 6383, "gd": 6384, "\u0120\u00f0\u0141\u013b\u0124": 6385, "plicht": 6386, "\u0120sim": 6387, "\u0120verwijzen": 6388, "\u0120overeen": 6389, "\u0120boete": 6390, "\u0129": 6391, "\u0120Michael": 6392, "orte": 6393, "verklaring": 6394, "duur": 6395, "oeg": 6396, "\u0120Rome": 6397, "print": 6398, "\u0120ple": 6399, "\u0120eilanden": 6400, "lid": 6401, "banden": 6402, "sproces": 6403, "\u0120Chat": 6404, "apparatuur": 6405, "\u0120schulden": 6406, "\u0120plaatjes": 6407, "\u0120mannelijke": 6408, "\u0120talen": 6409, "erings": 6410, "\u0120kranten": 6411, "oost": 6412, "\u0120wijken": 6413, "\u0120concentratie": 6414, "\u0120element": 6415, "\u00ac": 6416, "\u0120toevallig": 6417, "\u0120aanv": 6418, "ertje": 6419, "\u0120Stuur": 6420, "\u0120AC": 6421, "\u0120Leuven": 6422, "\u0120kussen": 6423, "\u012047": 6424, "\u0120tijdschrift": 6425, "\u0120tegels": 6426, "oof": 6427, "\u0120conflict": 6428, "uff": 6429, "\u0120exact": 6430, "\u0120respectievelijk": 6431, "lex": 6432, "\u0120stuurt": 6433, "\u0120volks": 6434, "\u0120redelijke": 6435, "\u0120Houd": 6436, "\u0120Instagram": 6437, "\u0120verrassing": 6438, "\u0120Drenthe": 6439, "\u0120aanwijzingen": 6440, "haven": 6441, "wagens": 6442, "\u0120smaken": 6443, "\u0120Apeldoorn": 6444, "\u0120aangevuld": 6445, "\u0120diversiteit": 6446, "\u0120Boer": 6447, "erst": 6448, "\u0120cons": 6449, "\u0120Tele": 6450, "\u0120sfeervolle": 6451, "\u0120label": 6452, "inten": 6453, "\u0120Lang": 6454, "\u0120nadruk": 6455, "oenen": 6456, "\u0120incl": 6457, "Zijn": 6458, "\u0120Marc": 6459, "mende": 6460, "\u0120are": 6461, "\u0120PS": 6462, "\u0120cloud": 6463, "\u0120verenigingen": 6464, "\u0120financiering": 6465, "56": 6466, "\u0120mes": 6467, "\u0120ap": 6468, "\u0120Vers": 6469, "\u0120beleving": 6470, "\u0120treedt": 6471, "nieuw": 6472, "\u012052": 6473, "\u0120Ministerie": 6474, "\u0120Hou": 6475, "ball": 6476, "\u012008": 6477, "\u0120exemplaar": 6478, "\u0120geluids": 6479, "oei": 6480, "\u0120Oostenrijk": 6481, "\u0120gemeld": 6482, "\u01201998": 6483, "woningen": 6484, "\u0120reserveren": 6485, "asc": 6486, "\u0120schuur": 6487, "sy": 6488, "\u0120indienen": 6489, "hoe": 6490, "positie": 6491, "\u0120signaal": 6492, "\u0120Probeer": 6493, "ruk": 6494, "\u0120Smart": 6495, "\u0120zelfstandige": 6496, "\u0120AM": 6497, "mijn": 6498, "\u0120mo": 6499, "59": 6500, "\u0120dorpje": 6501, "\u0120Koop": 6502, "\u012041": 6503, "\u0120shemale": 6504, "glas": 6505, "\u0120zang": 6506, "stelsel": 6507, "\u0120geselecteerd": 6508, "ata": 6509, "iva": 6510, "\u012064": 6511, "inst": 6512, "\u0120Kw": 6513, "\u0120verbeterd": 6514, "86": 6515, "\u0120ontbreekt": 6516, "\u0120Berlijn": 6517, "Pl": 6518, "\u0120Gelderland": 6519, "\u0120Beach": 6520, "ect": 6521, "komt": 6522, "\u0120reizigers": 6523, "\u0120[...]": 6524, "\u0120vervelend": 6525, "eem": 6526, "entje": 6527, "waarden": 6528, "\u0120objecten": 6529, "fotos": 6530, "\u0120gescheiden": 6531, "inger": 6532, "\u0120Kat": 6533, "\u0120evenwicht": 6534, "\u0120lenen": 6535, "\u0120spuit": 6536, "\u0120intensief": 6537, "\u0120spaar": 6538, "best": 6539, "tuin": 6540, "raf": 6541, "\u0120Luc": 6542, "ida": 6543, "\u0120Trans": 6544, "\u0120investeringen": 6545, "hi": 6546, "vi": 6547, "date": 6548, "\u00a3": 6549, "?)": 6550, "\u0120deelt": 6551, "\u0120indrukwekkende": 6552, "\u0120richtlijnen": 6553, "zonder": 6554, "\u0120dorps": 6555, "\u0120gemeten": 6556, "\u0120gebonden": 6557, "\u0120degenen": 6558, "\u0120overeenkomsten": 6559, "hen": 6560, "okt": 6561, "\u0120geneukt": 6562, "\u0120ongeval": 6563, "\u0120accepteren": 6564, "\u0120flexibele": 6565, "\u0120schilderen": 6566, "Ad": 6567, "uim": 6568, "\u0120stilte": 6569, "\u0120westen": 6570, "\u0120Jammer": 6571, "\u0120infrastructuur": 6572, "schaps": 6573, "\u0120Groene": 6574, "\u0120Markt": 6575, "ua": 6576, "\u0120profiteren": 6577, "intje": 6578, "web": 6579, "\u0120laden": 6580, "\u0120jacht": 6581, "lement": 6582, "\u0120tax": 6583, "\u0120letten": 6584, "\u0120bedrijfsleven": 6585, "\u0120zakelijk": 6586, "\u0120uitgaven": 6587, "atische": 6588, "\u0120Witte": 6589, "\u0120da": 6590, "\u0120drank": 6591, "\u0120offertes": 6592, "\u0120lat": 6593, "\u0120Gewoon": 6594, "serie": 6595, "\u0120moeders": 6596, "\u0120voorheen": 6597, "\u0120boter": 6598, "\u0120sloten": 6599, "\u0120wifi": 6600, "\u0120vermelding": 6601, "aap": 6602, "\u0120nadenken": 6603, "\u0120vervaardigd": 6604, "\u0120Hu": 6605, "\u0120individueel": 6606, "\u0120AD": 6607, "\u0120Val": 6608, "raa": 6609, "\u0120oosten": 6610, "iff": 6611, "\u0120more": 6612, "\u0120tellen": 6613, "\u0120rechte": 6614, "\u0120grijze": 6615, "\u0120Heren": 6616, "Toch": 6617, "\u0120Nationaal": 6618, "\u0120Cultuur": 6619, "\u0120uurtje": 6620, "\u0120binnenkant": 6621, "sland": 6622, "\u0120Enkele": 6623, "\u0120gedwongen": 6624, "\u0120Jacob": 6625, "\u0120uitslag": 6626, "\u0120Wordt": 6627, "\u0120KN": 6628, "sem": 6629, "2015": 6630, "klachten": 6631, "ijns": 6632, "hoogte": 6633, "\u0120vergelijkbaar": 6634, "cul": 6635, "\u0120pomp": 6636, "planten": 6637, "Gebruik": 6638, "\u012049": 6639, "\u0120Eigenlijk": 6640, "\u0120geleverde": 6641, "\u0120item": 6642, "\u0120omschreven": 6643, "\u0120long": 6644, "\u0120verklaren": 6645, "\u0120time": 6646, "\u0120jongere": 6647, "\u0120Fre": 6648, "\u0120Pagina": 6649, "\u0120symbool": 6650, "\u0120Inhoud": 6651, "\u0120that": 6652, "\u0120Duits": 6653, "\u0120bruiloft": 6654, "\u0120Muziek": 6655, "\u0120appel": 6656, "atuur": 6657, "\u0120gestopt": 6658, "\u0120temperaturen": 6659, "horst": 6660, "\u0120toestand": 6661, "\u0120certificaat": 6662, "houdt": 6663, "\u0120cou": 6664, "akers": 6665, "\u0120beveiligd": 6666, "\u0120entree": 6667, "\u0120Robert": 6668, "voorziening": 6669, "\u0120tong": 6670, "igingen": 6671, "chen": 6672, "pert": 6673, "\u0120Ro": 6674, "\u00c3": 6675, "\u0120led": 6676, "\u0120waarover": 6677, "\u0120studies": 6678, "\u0120slagen": 6679, "\u0120Extra": 6680, "ky": 6681, "\u0120administratieve": 6682, "stal": 6683, "Ten": 6684, "\u0120aangelegd": 6685, "\u0120elf": 6686, "ionele": 6687, "\u0120voorkant": 6688, "\u0120Keuken": 6689, "\u0120leidde": 6690, "\u0120liepen": 6691, "ppen": 6692, "\u0120gemeentelijke": 6693, "aster": 6694, "\u0120Iets": 6695, "\u0120180": 6696, "\u0120Play": 6697, "matige": 6698, "\u0120kopie": 6699, "\u0120Dutch": 6700, "inkt": 6701, "\u0120experts": 6702, "73": 6703, "uiten": 6704, "\u0128": 6705, "\u0120brandstof": 6706, "inc": 6707, "vin": 6708, "\u0120med": 6709, "\u0120maan": 6710, "\u00d1\u0125": 6711, "\u0120pasvorm": 6712, "\u0120zekere": 6713, "\u0120Power": 6714, "iat": 6715, "spraak": 6716, "wacht": 6717, "\u0120glimlach": 6718, "\u0120particuliere": 6719, "ochtend": 6720, "\u0120boos": 6721, "\u0120betalings": 6722, "papier": 6723, "\u0120camper": 6724, "\u0120inschrijven": 6725, "eens": 6726, "\u0120onbekend": 6727, "Let": 6728, "\u0120nauwkeurig": 6729, "\u0136": 6730, "\u0120Mo": 6731, "iken": 6732, "\u0120your": 6733, "\u0120Griekse": 6734, "\u0120gelijke": 6735, "\u0120Geert": 6736, "\u0120moeilijker": 6737, "anger": 6738, "\u0120kampioen": 6739, "\u0120uiteen": 6740, "ition": 6741, "\u0120meubel": 6742, "\u0120gevaarlijke": 6743, "\u0120beslissen": 6744, "\u0120relevant": 6745, "bladen": 6746, "\u0120kwaliteiten": 6747, "\u0120hol": 6748, "\u0120aanb": 6749, "\u0120opvallende": 6750, "aaien": 6751, "\u0120tran": 6752, "\u0120beschikbaarheid": 6753, "\u0120verdwijnt": 6754, "kundig": 6755, "\u0120overeenkomstig": 6756, "ilm": 6757, "\u00a6": 6758, "bezoek": 6759, "\u0120Eigen": 6760, "\u0120alarm": 6761, "ators": 6762, "\u0120noodzaak": 6763, "\u0120molen": 6764, "\u0120vertaling": 6765, "\u0120installaties": 6766, "rent": 6767, "\u0120trappen": 6768, "\u0120sessie": 6769, "\u0120Hen": 6770, "\u0120Klein": 6771, "lucht": 6772, "\u0120munt": 6773, "79": 6774, "\u0120ge\u00c3\u00afnstalleerd": 6775, "\u0120basisschool": 6776, "\u0120Rode": 6777, "\u0120SE": 6778, "heen": 6779, "voering": 6780, "aj": 6781, "fin": 6782, "chter": 6783, "\u0120jongste": 6784, "\u0120Prof": 6785, "ioneel": 6786, "rok": 6787, "\u0120famil": 6788, "\u0120UWV": 6789, "\u0120authentieke": 6790, "werkers": 6791, "row": 6792, "\u0120introductie": 6793, "\u0120Mad": 6794, "\u0120module": 6795, "\u0120scenario": 6796, "\u0120toestellen": 6797, "\u0120islam": 6798, "atiet": 6799, "\u0120reviews": 6800, "\u0120map": 6801, "\u0120verdriet": 6802, "\u0120Bro": 6803, "\u0120Geniet": 6804, "spelen": 6805, "\u0120zonde": 6806, "\u0120big": 6807, "kamers": 6808, "wijzen": 6809, "\u0120lieten": 6810, "\u0120event": 6811, "afels": 6812, "houding": 6813, "eef": 6814, "\u0120rubriek": 6815, "basis": 6816, "\u0120trip": 6817, "\u0120vergroot": 6818, "\u013a": 6819, "ilt": 6820, "ups": 6821, "\u0120Ron": 6822, "\u0120disc": 6823, "gids": 6824, "\u0120honger": 6825, "bericht": 6826, "tre": 6827, "gele": 6828, "Misschien": 6829, "eland": 6830, "\u0120redactie": 6831, "\u0120afd": 6832, "\u0120Festival": 6833, "\u0120so": 6834, "\u0120vergeleken": 6835, "\u0120desbetreffende": 6836, "seizoen": 6837, "nieuws": 6838, "ule": 6839, "keuze": 6840, "\u0120onderstaand": 6841, "gas": 6842, "\u0120factor": 6843, "uwe": 6844, "IK": 6845, "productie": 6846, "\u0120Sinterklaas": 6847, "\u0120verzenden": 6848, "\u0120noten": 6849, "museum": 6850, "oef": 6851, "\u0120Lange": 6852, "board": 6853, "itten": 6854, "\u0120You": 6855, "\u0120Dames": 6856, "\u0120criteria": 6857, "gek": 6858, "BA": 6859, "71": 6860, "book": 6861, "bewijs": 6862, "\u0120fantasie": 6863, "\u0120Jack": 6864, "\u0120kr": 6865, "\u0120loopafstand": 6866, "\u0126": 6867, "TE": 6868, "\u0120toernooi": 6869, "\u0120meegemaakt": 6870, "asse": 6871, "52": 6872, "\u0120storm": 6873, "\u0120clubs": 6874, "\u0120erkende": 6875, "naar": 6876, "blog": 6877, "\u0120spreek": 6878, "wee": 6879, "\u0120NV": 6880, "\u0120spoed": 6881, "ENT": 6882, "\u0120verhuizen": 6883, "cor": 6884, "specialist": 6885, "\u0120Hout": 6886, "\u0120begroting": 6887, "\u0120merkt": 6888, "\u0120parkeerplaats": 6889, "\u0120800": 6890, "\u00c3\u00a2": 6891, "\u0120bestellingen": 6892, "\u0120Ham": 6893, "ush": 6894, "\u0120breng": 6895, "\u0120oorspronkelijk": 6896, "\u0120waardevolle": 6897, "arch": 6898, "\u0120bewerken": 6899, "\u0120benoemd": 6900, "\u0120politici": 6901, "\u0120uitgelegd": 6902, "uif": 6903, "oft": 6904, "annen": 6905, "\u0120index": 6906, "house": 6907, "\u0120fiscale": 6908, "\u0120Sol": 6909, "motor": 6910, "\u0120herinneren": 6911, "\u0120lege": 6912, "\u0120onszelf": 6913, "\u0120verzekeraar": 6914, "menu": 6915, "\u0120fysiek": 6916, "urk": 6917, "DEN": 6918, "uid": 6919, "\u0120nuttig": 6920, "Te": 6921, "\u0120trouwde": 6922, "pop": 6923, "\u00b8": 6924, "\u0120Geschikt": 6925, "\u0120begrijpt": 6926, "\u0120behaald": 6927, "\u0120yoga": 6928, "54": 6929, "AND": 6930, "\u0120duurder": 6931, "\u0120rock": 6932, "\u0120jarige": 6933, "\u0120instructies": 6934, "\u0120latere": 6935, "\u0120realiteit": 6936, "vest": 6937, "\u0120rel": 6938, "\u0120Philips": 6939, "\u0120treft": 6940, "\u0120koor": 6941, "\u0120lezing": 6942, "\u0120vormgeving": 6943, "\u0120comp": 6944, "\u0120diagnose": 6945, "\u0120vergoed": 6946, "\u0120Kort": 6947, "\u00c4": 6948, "\u0120gemeenschappelijke": 6949, "stop": 6950, "\u0120potenti\u00c3\u00able": 6951, "\u0120verrassend": 6952, "ozen": 6953, "ratie": 6954, "fabriek": 6955, "89": 6956, "slaan": 6957, "\u0120som": 6958, "Twee": 6959, "\u0120inkt": 6960, "\u0120stijging": 6961, "\u0120rijbewijs": 6962, "\u0120oorzaken": 6963, "\u0120schooljaar": 6964, "\u0120voortaan": 6965, "arten": 6966, "\u0120fotograaf": 6967, "afdeling": 6968, "iere": 6969, "igende": 6970, "\u0120staande": 6971, "\u0120vergelijk": 6972, "\u0120poly": 6973, "\u0120ei": 6974, "anda": 6975, "ateur": 6976, "\u0120hierna": 6977, "\u0120mass": 6978, "OD": 6979, "\u0120voorwerpen": 6980, "\u0120uiterste": 6981, "\u0120perceel": 6982, "\u0120wal": 6983, "\u0120bewegingen": 6984, "\u0120treffen": 6985, "\u0140": 6986, "\u0120gevoelig": 6987, "\u0120artsen": 6988, "Binnen": 6989, "\u0120doelstelling": 6990, "Helaas": 6991, "bestuur": 6992, "roep": 6993, "\u0120integratie": 6994, "\u00d1\u0124": 6995, "\u0120gezondheidszorg": 6996, "\u0120wennen": 6997, "iment": 6998, "\u00d8\u00a7": 6999, "\u0120trendy": 7000, "structuur": 7001, "oorde": 7002, "\u0120stijgen": 7003, "imp": 7004, "uts": 7005, "\u0120Ba": 7006, "\u0120dieper": 7007, "\u0120dek": 7008, "\u0120waardering": 7009, "\u0120kocht": 7010, "\u0120voortgezet": 7011, "84": 7012, "\u0120haak": 7013, "\u0120behoudt": 7014, "\u0120bruine": 7015, "oets": 7016, "\u0120\u00c2\u00ab": 7017, "\u0120beschermt": 7018, "\u0120eigenaren": 7019, "\u0120voorzijde": 7020, "\u0120overheden": 7021, "gegaan": 7022, "\u0120aangekomen": 7023, "82": 7024, "\u0120cv": 7025, "\u0120toneel": 7026, "reizen": 7027, "gesch": 7028, "rig": 7029, "apparaat": 7030, "ros": 7031, "\u0120verbruik": 7032, "\u0120Dirk": 7033, "\u0120acc": 7034, "banen": 7035, "\u0120bleven": 7036, "\u0120keten": 7037, "nam": 7038, "\u0120overdag": 7039, "jo": 7040, "Neem": 7041, "ated": 7042, "\u0120overdracht": 7043, "AAR": 7044, "\u0120Sy": 7045, "\u0120Dordrecht": 7046, "\u0120wetten": 7047, "bomen": 7048, "\u00ab": 7049, "jaars": 7050, "\u0120hy": 7051, "74": 7052, "iding": 7053, "\u0120groeiende": 7054, "\u0120Jean": 7055, "\u0120markten": 7056, "\u0120ham": 7057, "verf": 7058, "son": 7059, "\u0120applicaties": 7060, "\u0120tak": 7061, "ates": 7062, "ela": 7063, "\u0120kippen": 7064, "merken": 7065, "\u0120uitnodiging": 7066, "Sh": 7067, "\u0120dorpen": 7068, "\u0120garant": 7069, "\u0120gedicht": 7070, "\u0120gebruiks": 7071, "\u0120Sim": 7072, "rekken": 7073, "\u0120kloppen": 7074, "\u0120display": 7075, "\u0120vijftien": 7076, "kan": 7077, "\u0120brieven": 7078, "\u0120vijand": 7079, "\u0120US": 7080, "\u0120vakken": 7081, "opl": 7082, "\u0120loopbaan": 7083, "werker": 7084, "\u0120medium": 7085, "\u0120penis": 7086, "\u0120Download": 7087, "Sl": 7088, "\u0120\u00e2\u0122\u012d\u00e2\u0122\u012d": 7089, "\u0120gereedschap": 7090, "anna": 7091, "\u0120specificaties": 7092, "\u0120legde": 7093, "\u0120mel": 7094, "oeken": 7095, "\u0120ve": 7096, "part": 7097, "\u0120gezorgd": 7098, "beurt": 7099, "zin": 7100, "fen": 7101, "chten": 7102, "\u0120dunne": 7103, "\u0120scheiding": 7104, "\u0120ondergrond": 7105, "\u0120wer": 7106, "\u0120lak": 7107, "\u0120vergader": 7108, "rist": 7109, "uurt": 7110, "\u0120vliegveld": 7111, "\u0120Basis": 7112, "\u0120Bob": 7113, "\u00aa": 7114, "\u0120rijpe": 7115, "\u0120Ken": 7116, "\u0120toegekend": 7117, "\u0120feestdagen": 7118, "igers": 7119, "\u0120Anne": 7120, "\u0120darm": 7121, "doel": 7122, "\u0120Ontdek": 7123, "\u0120stud": 7124, "OV": 7125, "\u0120kilometers": 7126, "\u0120kritisch": 7127, "\u0120Mor": 7128, "\u0120ge\u00c3\u00afnspireerd": 7129, "\u0120nest": 7130, "\u0120gunstig": 7131, "derde": 7132, "\u0120Snel": 7133, "\u0120Verd": 7134, "\u0120sal": 7135, "\u0120Ton": 7136, "\u00a2": 7137, "\u0120prettige": 7138, "\u0120koos": 7139, "\u0120plaatsgevonden": 7140, "\u0120Gerrit": 7141, "\u0120Rom": 7142, "wijzer": 7143, "\u0120erfgoed": 7144, "\u0120dwars": 7145, "2014": 7146, "\u0120opzetten": 7147, "\u0120dokter": 7148, "\u0120bedoel": 7149, "gde": 7150, "\u0120lidmaatschap": 7151, "oest": 7152, "sens": 7153, "analyse": 7154, "\u0120zestig": 7155, "\u0120vrucht": 7156, "\u0120uitvoer": 7157, "zi": 7158, "\u0120uitdrukkelijk": 7159, "\u0120overleven": 7160, "\u0120uitvaart": 7161, "ize": 7162, "\u0120Brugge": 7163, "UL": 7164, "53": 7165, "\u0120Jeroen": 7166, "\u0120voorziet": 7167, "\u0120Sur": 7168, "\u0120patronen": 7169, "\u0120durven": 7170, "tot": 7171, "\u00c5": 7172, "94": 7173, "\u0120maatregel": 7174, "AF": 7175, "\u0120rits": 7176, "\u0120Weet": 7177, "vens": 7178, "OO": 7179, "\u0120opmerking": 7180, "\u00b7": 7181, "Iedereen": 7182, "\u0120rijtje": 7183, "\u0120gevoelige": 7184, "\u0120bril": 7185, "\u0120gebeurtenis": 7186, "plek": 7187, "\u0120binnenstad": 7188, "\u0120armoede": 7189, "dek": 7190, "\u012056": 7191, "idt": 7192, "camera": 7193, "\u0120duurde": 7194, "\u0120Website": 7195, "\u0120verrast": 7196, "\u0120gedreven": 7197, "acties": 7198, "\u0120job": 7199, "\u0120knoop": 7200, "\u0120Get": 7201, "\u0120vertrouwde": 7202, "\u0120VER": 7203, "\u0120zom": 7204, "\u0120Center": 7205, "87": 7206, "schema": 7207, "\u0120schadevergoeding": 7208, "ays": 7209, "uut": 7210, "rec": 7211, "\u0120chauffeur": 7212, "\u0120christelijke": 7213, "\u0120verzekeringen": 7214, "\u0120Eind": 7215, "\u0120raar": 7216, "\u0120opv": 7217, "EE": 7218, "ello": 7219, "\u0120greep": 7220, "\u0120leraar": 7221, "pat": 7222, "\u0120minimale": 7223, "bre": 7224, "\u0120kleurrijke": 7225, "\u0120bescheiden": 7226, "ures": 7227, "\u0120tieners": 7228, "\u0120beschadigd": 7229, "\u0120stabiel": 7230, "\u0120CDA": 7231, "aks": 7232, "\u0120toevoeging": 7233, "fit": 7234, "\u0120uitspraken": 7235, "\u0120plaatsing": 7236, "waren": 7237, "\u0120hoeveelheden": 7238, "\u0120tr": 7239, "oopt": 7240, "\u0120Mol": 7241, "\u0120oost": 7242, "EP": 7243, "\u0120tuinen": 7244, "\u0120inkoop": 7245, "aats": 7246, "\u0120indicatie": 7247, "\u0120grip": 7248, "herapie": 7249, "Nadat": 7250, "\u0120Onderzoek": 7251, "\u0120Bay": 7252, "\u0120bezoekt": 7253, "vet": 7254, "\u0120huurder": 7255, "gesteld": 7256, "\u0120parlement": 7257, "\u0120doorgaan": 7258, "ko": 7259, "hol": 7260, "stoelen": 7261, "\u0120database": 7262, "\u0120verantwoord": 7263, "\u0120Zweden": 7264, "El": 7265, "rend": 7266, "onn": 7267, "\u0120play": 7268, "roll": 7269, "Mocht": 7270, "omgeving": 7271, "\u0120schoot": 7272, "\u00b6": 7273, "\u0120weder": 7274, "morgen": 7275, "\u0120geg": 7276, "\u0120lach": 7277, "zetting": 7278, "\u0120nov": 7279, "waard": 7280, "\u0120ir": 7281, "\u0120voorsprong": 7282, "\u0120geliefde": 7283, "ossen": 7284, "\u0120gedichten": 7285, "\u0120verliest": 7286, "\u0120menselijk": 7287, "partijen": 7288, "\u0120justitie": 7289, "\u0120voorafgaand": 7290, "\u0120breken": 7291, "\u0120be\u00c3\u00afnvloeden": 7292, "\u0120goedgekeurd": 7293, "\u0120saus": 7294, "\u0120gekleurde": 7295, "\u0120verpakt": 7296, "\u0120\u00f0\u0141\u013a\u012b": 7297, "ouch": 7298, "\u0120onthouden": 7299, "oofd": 7300, "\u0120Hy": 7301, "\u0120psych": 7302, "\u0120zoo": 7303, "''": 7304, "\u0120aanvallen": 7305, "vriendelijk": 7306, "\u0120Druk": 7307, "\u0120liefhebbers": 7308, "\u0120opgave": 7309, "\u0120Alkmaar": 7310, "\u0120bele": 7311, "aven": 7312, "\u0120symptomen": 7313, "ronde": 7314, "\u0120Dank": 7315, "\u0120boer": 7316, "\u0120favoriet": 7317, "63": 7318, "\u0120wethouder": 7319, "\u012099": 7320, "\u0120air": 7321, "\u0120studeren": 7322, "\u0120gulden": 7323, "massage": 7324, "\u0120hersen": 7325, "zoek": 7326, "?!": 7327, "51": 7328, "product": 7329, "\u0120typisch": 7330, "\u0120Ieder": 7331, "\u0120tank": 7332, "CO": 7333, "\u0120Enschede": 7334, "\u00a9": 7335, "\u0120volgorde": 7336, "\u0120Hierin": 7337, "\u0120functionaliteit": 7338, "\u0120geboekt": 7339, "lin": 7340, "har": 7341, "\u0120zuiver": 7342, "gesprek": 7343, "ii": 7344, "\u0120Bal": 7345, "\u0120aanbevolen": 7346, "\u0120optimaliseren": 7347, "\u0120bied": 7348, "\u0120koppelen": 7349, "ummer": 7350, "som": 7351, "TV": 7352, "\u0120bovenste": 7353, "ho": 7354, "\u0120betaalbare": 7355, "halen": 7356, "\u0120Griekenland": 7357, "\u0120ambitie": 7358, "mus": 7359, "\u0120voormalig": 7360, "\u0120varianten": 7361, "\u0120Prins": 7362, "\u0120Instituut": 7363, "kennis": 7364, "eep": 7365, "rale": 7366, "\u0120zoete": 7367, "\u0120staats": 7368, "\u0120opslaan": 7369, "\u0120Bad": 7370, "overzicht": 7371, "\u0120sterven": 7372, "62": 7373, "\u0120showroom": 7374, "\u0120Herman": 7375, "platform": 7376, "\u0120aanpassing": 7377, "ulatie": 7378, "\u0120Totaal": 7379, "\u0120plaatsvindt": 7380, "\u00bb": 7381, "\u0120Barcelona": 7382, "83": 7383, "rel": 7384, "\u0120grappig": 7385, "\u0120Blue": 7386, "\u0120beker": 7387, "\u0120lied": 7388, "\u0120Sony": 7389, "\u0120woonde": 7390, "\u0120Sociale": 7391, "reet": 7392, "meter": 7393, "Heel": 7394, "\u0120steunen": 7395, "okk": 7396, "\u0120maaltijden": 7397, "\u0120kanalen": 7398, "\u0120interactieve": 7399, "\u0120Altijd": 7400, "\u0120goedkeuring": 7401, "\u0120Ooster": 7402, "aarden": 7403, "elings": 7404, "\u0120ballen": 7405, "\u0120herkenbaar": 7406, "\u0120dw": 7407, "\u0120Twente": 7408, "anken": 7409, "hard": 7410, "\u00d7": 7411, "ual": 7412, "olog": 7413, "\u0120ras": 7414, "\u0120Standaard": 7415, "\u0120stal": 7416, "\u0120schouders": 7417, "\u0120Canada": 7418, "\u0120auteurs": 7419, "centra": 7420, "achter": 7421, "jas": 7422, "\u0120amper": 7423, "\u0120duiven": 7424, "\u0120Studio": 7425, "raag": 7426, "93": 7427, "\u0120exemplaren": 7428, "\u0120tw": 7429, "\u0120Vert": 7430, "\u0120let": 7431, "oods": 7432, "\u0120inspirerende": 7433, "SC": 7434, "hoog": 7435, "\u0120fel": 7436, "\u0120bbw": 7437, "\u0120cellen": 7438, "ullen": 7439, "fe": 7440, "\u0120Advies": 7441, "verb": 7442, "57": 7443, "ampen": 7444, "iot": 7445, "\u0120don": 7446, "\u0120Fun": 7447, "\u0120leerkrachten": 7448, "\u0120chemische": 7449, "\u0120getuigen": 7450, "\u0120werkdag": 7451, "\u0120zuur": 7452, "\u0120combineert": 7453, "\u0120termen": 7454, "\u0120aspect": 7455, "\u00c3\u00aa": 7456, "\u0120sloot": 7457, "\u00c3\u0125": 7458, "\u0120Jans": 7459, "\u0120Justitie": 7460, "bond": 7461, "\u0120ontdek": 7462, "VS": 7463, "aakte": 7464, "\u0120plein": 7465, "\u0120Materiaal": 7466, "\u0120jubileum": 7467, "\u00d0\u00bd": 7468, "\u0120hoogtepunt": 7469, "\u0120PR": 7470, "\u0120uitgewerkt": 7471, "ony": 7472, "\u0120boel": 7473, "Afrika": 7474, "\u0120spijt": 7475, "\u0120can": 7476, "\u0120notaris": 7477, "\u0120Ann": 7478, "ye": 7479, "\u0120Graag": 7480, "TC": 7481, "\u0120emotionele": 7482, "\u0120leraren": 7483, "zy": 7484, "\u0120ml": 7485, "\u0120textiel": 7486, "\u0120Hard": 7487, "iaan": 7488, "\u0120bra": 7489, "\u0120economisch": 7490, "\u0120IV": 7491, "\u0120beveiligings": 7492, "\u0120Afhankelijk": 7493, "\u0120tools": 7494, "oto": 7495, "\u0120Rock": 7496, "ep": 7497, "coach": 7498, "\u0120heilige": 7499, "\u0120zanger": 7500, "\u0120althans": 7501, "\u0120Bor": 7502, "\u0120aangename": 7503, "\u0120Hollandse": 7504, "press": 7505, "\u0120vervallen": 7506, "iviteit": 7507, "\u0120extreme": 7508, "ervice": 7509, "\u0120recreatie": 7510, "\u00e2\u0122\u0136": 7511, "knop": 7512, "\u0120nadere": 7513, "\u0120coaching": 7514, "\u0120decoratie": 7515, "\u0120cur": 7516, "\u0120piano": 7517, "\u0120buitenkant": 7518, "\u0120Porn": 7519, "\u0120ren": 7520, "\u0120veertig": 7521, "\u0120HP": 7522, "\u0120tram": 7523, "<": 7524, "?\"": 7525, "imm": 7526, "\u0120typische": 7527, "\u0120spot": 7528, "\u0120daarentegen": 7529, "\u0120opkomst": 7530, "\u0120mer": 7531, "\u0120woonplaats": 7532, "\u0120laad": 7533, "ester": 7534, "\u0120geacht": 7535, "hor": 7536, "\u0120vermelden": 7537, "boven": 7538, "\u0120Hal": 7539, "\u0120help": 7540, "rouw": 7541, "\u0120bijeenkomsten": 7542, "\u0120bon": 7543, "cursus": 7544, "iller": 7545, "\u0120lopende": 7546, "\u0120aanbieder": 7547, "\u0120Direct": 7548, "BC": 7549, "\u0120peil": 7550, "\u0120Mannen": 7551, "ctief": 7552, "\u0120wapens": 7553, "\u0120erachter": 7554, "\u0120hardware": 7555, "\u0120bre": 7556, "\u0120zilveren": 7557, "ertjes": 7558, "\u0120Jos": 7559, "\u0120Ros": 7560, "\u0120Wol": 7561, "\u0120Christ": 7562, "tu": 7563, "\u0120rubber": 7564, "rond": 7565, "\u0120Inleiding": 7566, "\u0120nationaal": 7567, "\u0120Bergen": 7568, "\u0120tassen": 7569, "rab": 7570, "\u012054": 7571, "ield": 7572, "\u0120jazz": 7573, "MC": 7574, "\u0120form": 7575, "wedstrijden": 7576, "apen": 7577, "gere": 7578, "elder": 7579, "\u0120Meld": 7580, "beweging": 7581, "\u0120matras": 7582, "ope": 7583, "aarten": 7584, "\u0120zolder": 7585, "\u0120oefening": 7586, "\u0120nut": 7587, "bor": 7588, "\u0120naartoe": 7589, "\u0120verschillend": 7590, "cher": 7591, "gratis": 7592, "mens": 7593, "ref": 7594, "\u01201997": 7595, "\u0120Tel": 7596, "procedure": 7597, "\u0120Stap": 7598, "\u0120barbecue": 7599, "\u0120zwak": 7600, "\u0120Koninklijke": 7601, "\u0120gestaan": 7602, "\u0120massages": 7603, "\u0120verrassen": 7604, "\u0120oper": 7605, "\u0120Maarten": 7606, "\u0120Verb": 7607, "\u0120vliegt": 7608, "grens": 7609, "\u0120schitterend": 7610, "\u0120tegel": 7611, "\u0120Gal": 7612, "\u0120wiel": 7613, "\u0120profielen": 7614, "!\"": 7615, "\u0120toenemende": 7616, "\u0120sommigen": 7617, "kker": 7618, "\u0120ziekenhuizen": 7619, "\u0120gemist": 7620, "\u0120indeling": 7621, "\u0120toename": 7622, "\u0120senioren": 7623, "\u0120Gerard": 7624, "\u0120cont": 7625, "ouder": 7626, "\u0120Mc": 7627, "SM": 7628, "\u0120polyester": 7629, "dragen": 7630, "\u0120analyseren": 7631, "win": 7632, "\u0120Cas": 7633, "\u0120typen": 7634, "\u0120uitb": 7635, "\u0120Vandaar": 7636, "kering": 7637, "\u0120wol": 7638, "\u0120evaluatie": 7639, "Mensen": 7640, "\u0120nieuwsgierig": 7641, "\u0120AS": 7642, "oms": 7643, "\u0120lens": 7644, "\u0120Mede": 7645, "olf": 7646, "\u0120zonnige": 7647, "\u0120oplopen": 7648, "\u0120verschuldigd": 7649, "\u0120Opt": 7650, "\u00b5": 7651, "\u0120kelder": 7652, "\u00d0\u00bb": 7653, "\u0120pizza": 7654, "\u0120gezelligheid": 7655, "\u0120bovenaan": 7656, "\u0120card": 7657, "\u0120dankbaar": 7658, "Zorg": 7659, "\u0120publiceren": 7660, "\u0120smalle": 7661, "\u0120hit": 7662, "voeding": 7663, "\u0120YouTube": 7664, "\u00d1\u0123": 7665, "\u0120King": 7666, "raal": 7667, "rollen": 7668, "rode": 7669, "\u0120definitieve": 7670, "tr": 7671, "gedeelte": 7672, "\u0120drink": 7673, "bit": 7674, "zers": 7675, "\u0120vertrekt": 7676, "\u0120Gel": 7677, "\u0120vaststellen": 7678, "\u0120uiteindelijke": 7679, "\u0120begraven": 7680, "hou": 7681, "\u0120Terug": 7682, "\u0120dealer": 7683, "\u0120from": 7684, "\u0120Kennis": 7685, "aaid": 7686, "\u0120aandoening": 7687, "eelt": 7688, "rapport": 7689, "stap": 7690, "\u0120fraai": 7691, "\u0120oplevert": 7692, "\u0120vruchten": 7693, "bin": 7694, "\u0120begane": 7695, "\u0120tekening": 7696, "81": 7697, "\u0120veroordeeld": 7698, "\u0120Ged": 7699, "slot": 7700, "\u0120sj": 7701, "\u0120musea": 7702, "\u0120kool": 7703, "\u0120vriendinnen": 7704, "eeuw": 7705, "\u0120pauze": 7706, "TA": 7707, "veiligheid": 7708, "\u0143": 7709, "\u0120Verg": 7710, "aand": 7711, "\u0120raadplegen": 7712, "\u0120Wer": 7713, "\u0120Tegenwoordig": 7714, "\u0120aangekondigd": 7715, "\u0120dergelijk": 7716, "\u0120fitness": 7717, "\u0120Len": 7718, "-/": 7719, "tegen": 7720, "\u0120historisch": 7721, "stijd": 7722, "\u0120snijden": 7723, "UM": 7724, "brengen": 7725, "\u0120bepaling": 7726, "\u0120Lu": 7727, "hr": 7728, "\u0120Da": 7729, "ystemen": 7730, "\u0120noodzakelijke": 7731, "\u0120str": 7732, "\u00bc": 7733, "\u0120kwartier": 7734, "\u0120flexibiliteit": 7735, "\u0120League": 7736, "vlees": 7737, "orde": 7738, "\u0120haard": 7739, "\u0120kam": 7740, "\u0120leverde": 7741, "\u0120grondslag": 7742, "\u0120Dieren": 7743, "\u0120Golf": 7744, "\u01201995": 7745, "\u0120erkenning": 7746, "\u0120Kap": 7747, "\u0120opa": 7748, "kanker": 7749, "\u0120blonde": 7750, "Hallo": 7751, "\u00d8": 7752, "\u0120klikt": 7753, "\u0120Erik": 7754, "\u0120Office": 7755, "\u0120schema": 7756, "order": 7757, "veel": 7758, "groei": 7759, "\u0120monteren": 7760, "\u0120intensieve": 7761, "\u0120geconfronteerd": 7762, "\u0120Australi\u00c3\u00ab": 7763, "\u0120beschrijven": 7764, "\u0120optredens": 7765, "\u0120hoopt": 7766, "\u0120registreren": 7767, "\u0120soft": 7768, "\u0120procedures": 7769, "91": 7770, "\u0120Bureau": 7771, "\u0120Sun": 7772, "vervoer": 7773, "\u0120knap": 7774, "\u0120versies": 7775, "\u0120klassiek": 7776, "\u0120gebakken": 7777, "\u0120record": 7778, "\u0120Kruis": 7779, "\u0120Moet": 7780, "outen": 7781, "\u0120gelaten": 7782, "roepen": 7783, "\u0120minst": 7784, "gezet": 7785, "\u0120wielen": 7786, "\u0120vergelijkbare": 7787, "maak": 7788, "huur": 7789, "\u0120hd": 7790, "TS": 7791, "\u0120Dom": 7792, "\u012051": 7793, "ork": 7794, "\u0120vereiste": 7795, "\u0120verklaart": 7796, "\u0120vee": 7797, "\u0120plakken": 7798, "\u0120voorafgaande": 7799, "\u0120kozijnen": 7800, "\u0120keur": 7801, "\u0120feesten": 7802, "eft": 7803, "\u0120Mot": 7804, "\u0120vest": 7805, "sing": 7806, "\u0120kinderopvang": 7807, "aller": 7808, "\u0120gezeten": 7809, "groot": 7810, "apos": 7811, "\u0120velden": 7812, "\u0120vari\u00c3\u00abren": 7813, "\u0120Veen": 7814, "\u0120zelfgemaakte": 7815, "geving": 7816, "\u0120hopelijk": 7817, "\u0120protest": 7818, "\u0120opgehaald": 7819, "\u0120nederlandse": 7820, "time": 7821, "\u0120bagage": 7822, "\u00ae": 7823, "denk": 7824, "\u0120verspreiden": 7825, "\u0120serieuze": 7826, "\u0120duiken": 7827, "\u0120wereldwijde": 7828, "\u0120VN": 7829, "arte": 7830, "\u0120weleens": 7831, "denken": 7832, "route": 7833, "\u0120kennelijk": 7834, "ruit": 7835, "\u0120adressen": 7836, "rus": 7837, "\u0120ret": 7838, "Home": 7839, "\u0120harder": 7840, "\u0120kleren": 7841, ",,": 7842, "\u0120Kwaliteit": 7843, "\u0120AB": 7844, "\u0120overzichtelijk": 7845, "\u012003": 7846, "\u0120Vel": 7847, "\u0120keel": 7848, "\u012c": 7849, "ontwerp": 7850, "\u0120vertalen": 7851, "\u0120tickets": 7852, "\u0120tafels": 7853, "\u0120individu": 7854, "Kijk": 7855, "oning": 7856, "hoorn": 7857, "erland": 7858, "\u0120grondstoffen": 7859, "\u0120bond": 7860, "put": 7861, "uld": 7862, "\u0120vertaald": 7863, "verl": 7864, "\u0120veren": 7865, "oeden": 7866, "ema": 7867, "account": 7868, "\u0120kosteloos": 7869, "ijf": 7870, "din": 7871, "for": 7872, "\u0120danken": 7873, "films": 7874, "vat": 7875, "\u0120voorschriften": 7876, "\u0120Los": 7877, "\u0120persoonlijkheid": 7878, "mis": 7879, "\u0120werkplek": 7880, "\u0120commentaar": 7881, "\u0120zijkant": 7882, "Naar": 7883, "\u0120Wester": 7884, "ilen": 7885, "nieuwe": 7886, "gebonden": 7887, "\u0120Lam": 7888, "bie": 7889, "vergadering": 7890, "ero": 7891, "\u0120Kees": 7892, "\u0120kantoren": 7893, "\u0120werkelijke": 7894, "VB": 7895, "\u0120escorts": 7896, "bb": 7897, "\u0120mijzelf": 7898, "gangen": 7899, "\u0120eerlijke": 7900, "\u0120reist": 7901, "\u0120oprichting": 7902, "omb": 7903, "\u0120uitgezonden": 7904, "rip": 7905, "unch": 7906, "\u0120Bijna": 7907, "\u0120uitgaan": 7908, "steun": 7909, "\u0120belastingen": 7910, "\u0120schot": 7911, "\u0120lijstje": 7912, "\u0120vent": 7913, "inge": 7914, "verm": 7915, "\u0120Wijn": 7916, "\u0120WiFi": 7917, "\u0120aanschaffen": 7918, "Welkom": 7919, "itair": 7920, "aalde": 7921, "iks": 7922, "\u0120langdurige": 7923, "\u0120sign": 7924, "\u0120bijbel": 7925, "raat": 7926, "lands": 7927, "\u0120Cat": 7928, "\u0120richtlijn": 7929, "\u0120go": 7930, "iter": 7931, "\u0120branden": 7932, "\u0120geldende": 7933, "\u0120Camp": 7934, "61": 7935, "\u0120compacte": 7936, "\u0120ingebouwde": 7937, "\u0120intussen": 7938, "maatschappij": 7939, "\u0120ingevoerd": 7940, "DS": 7941, "!\u00e2\u0122\u013b": 7942, "\u0120gemonteerd": 7943, "\u0120pakte": 7944, "namen": 7945, "Bekijk": 7946, "\u0120opzoek": 7947, "\u0120west": 7948, "\u0120Mus": 7949, "lee": 7950, "\u0120repareren": 7951, "\u0120mand": 7952, "\u0120onderkant": 7953, "\u0120religieuze": 7954, "\u0120cookie": 7955, "\u0120bijstand": 7956, "\u0120trio": 7957, "ades": 7958, "\u0120kraan": 7959, "\u0120achternaam": 7960, "\u0120bijeen": 7961, "\u01201996": 7962, "show": 7963, "hotel": 7964, "AV": 7965, "\u0120Vries": 7966, "\u0120tomaten": 7967, "ude": 7968, "itaire": 7969, "\u0120zuurstof": 7970, "ruim": 7971, "staand": 7972, "Th": 7973, "macht": 7974, "\u0120BW": 7975, "Geplaatst": 7976, "Soms": 7977, "\u0120opgeleverd": 7978, "\u0120deal": 7979, "\u0120snij": 7980, "\u0120toer": 7981, "\u0120Leven": 7982, "\u0120wetenschappers": 7983, "scholen": 7984, "\u0120ernaar": 7985, "\u0120Belastingdienst": 7986, "\u0120verzekeren": 7987, "\u0120one": 7988, "\u0120lasten": 7989, "\u0120pet": 7990, "\u0120spring": 7991, "Per": 7992, "\u0120Schrijf": 7993, "\u0120VOOR": 7994, "wezen": 7995, "\u0120democratie": 7996, "\u0120mot": 7997, "oeder": 7998, "\u0120aangetoond": 7999, "\u0120Bezoek": 8000, "\u0120neukt": 8001, "\u0120wekelijks": 8002, "\u0120updates": 8003, "uig": 8004, "\u0120gezins": 8005, "iver": 8006, "\u0120dalen": 8007, "\u0120pakt": 8008, "\u0120zone": 8009, "\u0120ge\u00c3\u00ab": 8010, "\u0120Juist": 8011, "onne": 8012, "\u0120vonnis": 8013, "\u0120Kim": 8014, "\u0120plotseling": 8015, "\u0120Voorwaarden": 8016, "\u0120vintage": 8017, "\u0120gebroken": 8018, "\u0120vaststelling": 8019, "\u0120Ven": 8020, "\u0120berekening": 8021, "iseerd": 8022, "zeker": 8023, "\u0120bloot": 8024, "\u0120aannemer": 8025, "kasten": 8026, "vlak": 8027, "\u0120Recht": 8028, "PC": 8029, "\u0120inspectie": 8030, "\u0120gedoopt": 8031, "oster": 8032, "ll": 8033, "\u0120duo": 8034, "\u0120alsook": 8035, "\u0120behaalde": 8036, "\u0120toegevoegde": 8037, "\u0120Klant": 8038, "\u0120eiken": 8039, "ril": 8040, "site": 8041, "Ont": 8042, "heim": 8043, "\u0120Saint": 8044, "\u0120meld": 8045, "\u0120Bedankt": 8046, "\u0120verwijst": 8047, "2013": 8048, "\u0120wastafel": 8049, "\u0120resolutie": 8050, "\u0120trans": 8051, "\u0120ISO": 8052, "\u0120beantwoord": 8053, "\u0120cap": 8054, "\u0120buit": 8055, "\u0120routes": 8056, "NA": 8057, "verkoop": 8058, "\u0120personages": 8059, "\u0120bestrijden": 8060, "\u0120koffer": 8061, "\u0120Assen": 8062, "activiteit": 8063, "\u0120uitkomt": 8064, "pos": 8065, "\u00c3\u00a9e": 8066, "Even": 8067, "\u0120lukken": 8068, "kar": 8069, "\u0120heuvel": 8070, "\u0120National": 8071, "\u0120medicatie": 8072, "ital": 8073, "\u012053": 8074, "nr": 8075, "\u0120gronden": 8076, "sd": 8077, "igings": 8078, "han": 8079, "Com": 8080, "\u0120Zwitserland": 8081, "\u0120vennootschap": 8082, "\u0120voorbereiden": 8083, "\u0120lichaams": 8084, "\u0120Niets": 8085, "\u0120duidelijkheid": 8086, "\u0120oefen": 8087, "ije": 8088, "\u0120sectoren": 8089, "\u0120omschrijving": 8090, "LA": 8091, "oeld": 8092, "\u0120Polen": 8093, "\u0120MS": 8094, "\u0120opbouwen": 8095, "\u0120interactie": 8096, "\u0120motoren": 8097, "\u0120aangepaste": 8098, "\u0120verplichte": 8099, "uze": 8100, "\u0120aangehouden": 8101, "\u0120pasta": 8102, "\u0120Jonge": 8103, "bestanden": 8104, "\u0120ramp": 8105, "He": 8106, "\u01202020": 8107, "orf": 8108, "kanaal": 8109, "\u0120Selecteer": 8110, "\u0120Word": 8111, "\u0120deeg": 8112, "ray": 8113, "bestendig": 8114, "SS": 8115, "ae": 8116, "\u0120check": 8117, "\u0120gevangenis": 8118, "Zij": 8119, "\u0120stijgt": 8120, "\u0120nagenoeg": 8121, "\u0120Ram": 8122, "not": 8123, "\u0120secretaris": 8124, "ials": 8125, "ove": 8126, "\u0120vestigingen": 8127, "\u0120Begin": 8128, "\u0120derhalve": 8129, "\u0120onderlinge": 8130, "\u0120sterkte": 8131, "\u0120DNA": 8132, "\u0120House": 8133, "Con": 8134, "\u0120advocaten": 8135, "ieven": 8136, "\u0120dialoog": 8137, "\u0120Cornelis": 8138, "\u0120bestuurs": 8139, "ilde": 8140, "\u0120Pan": 8141, "\u0120bundel": 8142, "ziekte": 8143, "\u0120licentie": 8144, "\u0120Kle": 8145, "\u0120Body": 8146, "\u0120Besluit": 8147, "bakken": 8148, "borg": 8149, "Wel": 8150, "\u0120Vakantie": 8151, "\u0120waarderen": 8152, "\u0120uitleggen": 8153, "FC": 8154, "\u0120gepaard": 8155, "\u0120voorgesteld": 8156, "\u0120cijfer": 8157, "\u0120getuige": 8158, "\u0120hieraan": 8159, "\u0120mg": 8160, "\u0120anderzijds": 8161, "pass": 8162, "\u0120pil": 8163, "oring": 8164, "\u0120overlast": 8165, "\u0120Speel": 8166, "Inter": 8167, "keten": 8168, "Zelf": 8169, "\u0120ontving": 8170, "landen": 8171, "Nou": 8172, "\u0120geavanceerde": 8173, "\u0120Geld": 8174, "\u0120overleed": 8175, "\u0120verloor": 8176, "gekomen": 8177, "\u0120waarborgen": 8178, "\u0120inform": 8179, "\u0120DVD": 8180, "\u0120Behalve": 8181, "complex": 8182, "Bel": 8183, "\u0120wanden": 8184, "\u0120daaruit": 8185, "\u0120zocht": 8186, "\u0120opleidings": 8187, "bloem": 8188, "\u0120pap": 8189, "\u0120fin": 8190, "\u0120;-)": 8191, "iders": 8192, "urn": 8193, "\u012002": 8194, "\u0120roer": 8195, "\":\"": 8196, "\u0120Overijssel": 8197, "\u0120behandel": 8198, "i\u00c3\u00abrs": 8199, "\u0120bekendste": 8200, "\u0120klooster": 8201, "\u0120koeien": 8202, "\u0120IJssel": 8203, "\u0120borden": 8204, "\u0120Datum": 8205, "\u0120contrast": 8206, "Fl": 8207, "cultuur": 8208, "\u0120Type": 8209, "laat": 8210, "\u0120Light": 8211, "\u0120inspanning": 8212, "\u0120oftewel": 8213, "\u0120diefstal": 8214, "LO": 8215, "\u0120EP": 8216, "\u0120vijver": 8217, "rest": 8218, "\u0120aankomen": 8219, "groen": 8220, "akker": 8221, "ific": 8222, "\u0120verstuurd": 8223, "\u0120opvolger": 8224, "\u0120Mart": 8225, "vormige": 8226, "Beste": 8227, "\u0120hecht": 8228, "\u0120verwijzing": 8229, "\u0120keurig": 8230, "rijp": 8231, "centrale": 8232, "oun": 8233, "\u0120levende": 8234, "\u0120:-)": 8235, "ulp": 8236, "\u0120\u00dc": 8237, "how": 8238, "\u0120KPN": 8239, "\u0120betrokkenen": 8240, "Ste": 8241, "orie": 8242, "\u0120premier": 8243, "\u0120110": 8244, "\u0120gebruikelijke": 8245, "\u0120Wees": 8246, "\u0120run": 8247, "Mooie": 8248, "\u0120zeep": 8249, "entjes": 8250, "alisering": 8251, "\u0120wijs": 8252, "speel": 8253, "\u0120pakketten": 8254, "\u0120Mr": 8255, "\u0120venster": 8256, ",\u00e2\u0122\u013b": 8257, "\u0120aangeeft": 8258, "pan": 8259, "\u0120staart": 8260, "verslag": 8261, "zaamheid": 8262, "\u0120romantische": 8263, "enter": 8264, "porno": 8265, "\u0120jonger": 8266, "ito": 8267, "\u0120kaartjes": 8268, "leiders": 8269, "\u0120Portugal": 8270, "rood": 8271, "\u0120Winter": 8272, "\u0120OS": 8273, "\u0120monument": 8274, "\u0120geslagen": 8275, "\u0120Fin": 8276, "\u0120hinder": 8277, "\u0120langdurig": 8278, "unde": 8279, "\u0120psychische": 8280, "\u0120huwelijks": 8281, "\u0120opvoeding": 8282, "\u0120ondergaan": 8283, "\u0120decennia": 8284, "ula": 8285, "nie": 8286, "\u0120Harry": 8287, "\u0120inbouw": 8288, "\u0120verzuim": 8289, "\u0120Dis": 8290, "\u0120Had": 8291, "\u0120opgelegd": 8292, "Me": 8293, "verh": 8294, "\u0120rusten": 8295, "ologen": 8296, "\u0120therm": 8297, "mend": 8298, "BE": 8299, "voordeel": 8300, "\u01201994": 8301, "nem": 8302, "\u0120Week": 8303, "elementen": 8304, "\u0120overtuigen": 8305, "\u0120gecre\u00c3\u00aberd": 8306, "\u0120implementatie": 8307, "uitkering": 8308, "\u0120concreet": 8309, "eken": 8310, "\u0120filosofie": 8311, "\u0120gewaardeerd": 8312, "\u0120goeie": 8313, "tekening": 8314, "\u0120leerkracht": 8315, "\u0120Veiligheid": 8316, "SL": 8317, "\u0120ped": 8318, "\u0120Deventer": 8319, "\u0120gespecialiseerde": 8320, "\u0120doorgeven": 8321, "\u0120nadelen": 8322, "\u0120Wh": 8323, "\u0120RVS": 8324, "\u0120cover": 8325, "\u0120noemde": 8326, "\u0120Ondertussen": 8327, "\u0120mest": 8328, "\u0120publicaties": 8329, "\u0120stiekem": 8330, "\u0120toeristische": 8331, "ores": 8332, "ally": 8333, "\u0120ag": 8334, "\u0120gym": 8335, "streek": 8336, "\u0120spuiten": 8337, "\u0120houder": 8338, "\u0120col": 8339, "isen": 8340, "\u0120verhuis": 8341, "\u0120Joden": 8342, "\u0120touch": 8343, "\u0120knoflook": 8344, "\u0120kou": 8345, "\u0120Baby": 8346, "plannen": 8347, "\u0120Pet": 8348, "\u0120mal": 8349, "\u0120geschil": 8350, "\u0120groeide": 8351, "\u0120Jouw": 8352, "\u0120ser": 8353, "Online": 8354, "\u0120vertel": 8355, "online": 8356, "\u0120Privacy": 8357, "\u0120bedanken": 8358, "\u0120lust": 8359, "\u0120uzelf": 8360, "bev": 8361, "\u0120telefoons": 8362, "oede": 8363, "\u0120omslag": 8364, "\u0120badkamers": 8365, "\u00e2": 8366, "\u0120master": 8367, "\u0120power": 8368, "led": 8369, "RC": 8370, "\u0120kroon": 8371, "mensen": 8372, "ney": 8373, "\u0120vroegere": 8374, "\u0120historie": 8375, "\u0120zesde": 8376, "\u0120mailen": 8377, "\u0120Amateur": 8378, "\u0120gebeld": 8379, "\u0120samenhang": 8380, "\u0120Overigens": 8381, "\u0120Manager": 8382, "\u0120chronische": 8383, "\u0120bocht": 8384, "\u0120gecertificeerd": 8385, "\u0120cre\u00c3\u00abert": 8386, "Vlaanderen": 8387, "\u0138": 8388, "\u0120aanpakken": 8389, "\u0120grondig": 8390, "\u0120Iemand": 8391, "plezier": 8392, "Un": 8393, "risch": 8394, "vrouwen": 8395, "\u0120Rij": 8396, "rix": 8397, "\u0120home": 8398, "stromen": 8399, "\u0120140": 8400, "\u0120dem": 8401, "\u0120luister": 8402, "\u012007": 8403, "\u0120Fe": 8404, "\u0120insecten": 8405, "type": 8406, "kijken": 8407, "\u0120end": 8408, "\u0120Tru": 8409, "Hand": 8410, "\u0120Verm": 8411, "\u0120stemming": 8412, "\u0120Casino": 8413, "\u0120sexdate": 8414, "capaciteit": 8415, "\u0120invoering": 8416, "\u0120lood": 8417, "\u0120Site": 8418, "aur": 8419, "\u0120intens": 8420, "\u0120Sj": 8421, "\u0120honing": 8422, "winkels": 8423, "doek": 8424, "\u0120verzekerings": 8425, "\u0120XL": 8426, "\u0120variatie": 8427, "\u0120fil": 8428, "\u0120party": 8429, "\u0120Molen": 8430, "\u0120rots": 8431, "\u0120Fab": 8432, "\u0120winkelen": 8433, "\u0120betaalbaar": 8434, "\u0120ontwikkelings": 8435, "ulde": 8436, "amm": 8437, "rust": 8438, "\u0120kalk": 8439, "contract": 8440, "artikel": 8441, "\u0120facebook": 8442, "orden": 8443, "\u0120passagiers": 8444, "graven": 8445, "\u0120vriendschap": 8446, "\u0120uitkomen": 8447, "\u0120aanraking": 8448, "\u0120noem": 8449, "technologie": 8450, "\u0120opst": 8451, "ming": 8452, "Uitslag": 8453, "\u0120diameter": 8454, "\u0120wh": 8455, "\u0120vermogens": 8456, "ml": 8457, "\u0120ertoe": 8458, "\u0120aangetroffen": 8459, "\u0120bio": 8460, "\u0120fot": 8461, "afstand": 8462, "\u0120Kon": 8463, "\u0120Pen": 8464, "richting": 8465, "key": 8466, "\u0120niveaus": 8467, "iser": 8468, "bodem": 8469, "\u0120blogs": 8470, "\u0120reglement": 8471, "\u0120private": 8472, "\u0120schaffen": 8473, "\u0120printer": 8474, "\u0120overname": 8475, "\u0120gaaf": 8476, "\u0120Overeenkomst": 8477, "\u0120eiwit": 8478, "\u0120aldaar": 8479, "\u0120ambtenaren": 8480, "\u0120ingerichte": 8481, "\u0120verrassende": 8482, "\u0120gene": 8483, "\u0120regie": 8484, "\u0120NIET": 8485, "uwen": 8486, "\u0120getekend": 8487, "ey": 8488, "\u0120datingsites": 8489, "\u0120aankopen": 8490, "\u0120besef": 8491, "\u0120support": 8492, "nacht": 8493, "\u0120families": 8494, "register": 8495, "wind": 8496, "\u0120schuim": 8497, "\u0120vertrouwd": 8498, "\u0120Oh": 8499, "\u0120gekl": 8500, "\u0120afzonderlijke": 8501, "\u0120stapel": 8502, "\u0120Touch": 8503, "\u0120middelbare": 8504, "\u0120ventilatie": 8505, "\u0120betrouwbaarheid": 8506, "\u0120Su": 8507, "\u0120riep": 8508, "\u0120Et": 8509, "\u0120mededeling": 8510, "ny": 8511, "sels": 8512, "\u0120gewezen": 8513, "\u0120overl": 8514, "esse": 8515, "\u0120innerlijke": 8516, "II": 8517, "\u0120ticket": 8518, "hart": 8519, "Ondanks": 8520, "\u0120Nederlander": 8521, "TO": 8522, "oma": 8523, "\u0120Bu": 8524, "aming": 8525, "\u0120versl": 8526, "\u0120Tor": 8527, "\u0120schrijvers": 8528, "\u0120moslims": 8529, "\u0120z\u00c3\u00b3": 8530, "krachten": 8531, "atis": 8532, "\u0120Laten": 8533, "\u0120series": 8534, "\u0120Gem": 8535, "dien": 8536, "\u0120betrekken": 8537, "\u0120omgezet": 8538, "\u0120stadje": 8539, "\u0120componenten": 8540, "\u0120Mij": 8541, "\u0120dijk": 8542, "Cl": 8543, "\u0120geroepen": 8544, "\u0120Alex": 8545, "\u0120sperma": 8546, "\u0120''": 8547, "\u0120hulpmiddelen": 8548, "\u0120inzage": 8549, "been": 8550, "work": 8551, "bedden": 8552, "\u0120reserve": 8553, "ves": 8554, "IR": 8555, "\u0120mobiliteit": 8556, "\u0120uitbreiden": 8557, "\u0120Product": 8558, "\u0120behulpzaam": 8559, "oeien": 8560, "ict": 8561, "\u0120Pal": 8562, "\u0120religie": 8563, "\u0120schakel": 8564, "\u0120toegelaten": 8565, "\u0120mineralen": 8566, "nel": 8567, "\u0120poeder": 8568, "\u0120wissel": 8569, "cijfers": 8570, "schrijven": 8571, "\u0120hersteld": 8572, "\u01201990": 8573, "Vol": 8574, "grote": 8575, "\u0120geduld": 8576, "\u0120eindigde": 8577, "\u0120chatten": 8578, "\u0120vr": 8579, "iete": 8580, "\u0120kraam": 8581, "\u0120functionele": 8582, "\u0120SC": 8583, "\u0120professional": 8584, "\u0120130": 8585, "\u0120fotograferen": 8586, "las": 8587, "\u0120kleinste": 8588, "own": 8589, "wen": 8590, "\u0120zake": 8591, "aagde": 8592, "\u0120kre": 8593, "lingen": 8594, "\u0120Vergelijk": 8595, "\u0120ram": 8596, "\u0120control": 8597, "lampen": 8598, "\u0120documentaire": 8599, "\u0120meneer": 8600, "\u0120papa": 8601, "\u0120signalen": 8602, "\u0120).": 8603, "\u0120onduidelijk": 8604, "CHT": 8605, "\u0120verdeling": 8606, "\u0120afgenomen": 8607, "\u0120uitgesloten": 8608, "\u0120cirkel": 8609, "vriendelijke": 8610, "\u0120vertegenwoordigd": 8611, "\u0120case": 8612, "Tra": 8613, "\u012057": 8614, "\u0120spre": 8615, "\u0120Check": 8616, "\u012058": 8617, "kabel": 8618, "\u0120Vak": 8619, "\u0120vertraging": 8620, "\u0120Shop": 8621, "gent": 8622, "\u0120gelooft": 8623, "\u0120sollicitatie": 8624, "\u0120James": 8625, "\u0120paal": 8626, "uist": 8627, "\u0120nul": 8628, "mannen": 8629, "\u0120realisatie": 8630, "jan": 8631, "\u0120Ball": 8632, "\u0120hitte": 8633, "\u0120tint": 8634, "\u0120Richard": 8635, "ower": 8636, "\u0120aft": 8637, "duizend": 8638, "\u0120eng": 8639, "tem": 8640, "\u0120Ak": 8641, "reerd": 8642, "\u0120Zal": 8643, "Zie": 8644, "\u0120volkomen": 8645, "uten": 8646, "\u0120Theater": 8647, "schen": 8648, "ichting": 8649, "\u0120Syn": 8650, "oorden": 8651, "\u0120sms": 8652, "cer": 8653, "Kom": 8654, "\u0120klassen": 8655, "Alles": 8656, "\u0120Heilige": 8657, "\u0120verbindingen": 8658, "ales": 8659, "\u0120gerechtigd": 8660, "\u0120scala": 8661, "\u0120steekt": 8662, "\u0120Wijk": 8663, "\u0120condoom": 8664, "\u0120smart": 8665, "\u00d1\u012e": 8666, "\u0120bevalling": 8667, "orst": 8668, "\u0120zelfvertrouwen": 8669, "\u0120seconde": 8670, "zit": 8671, "\u0120benaderen": 8672, "\u0120aanleggen": 8673, "itu": 8674, "\u0120aangaan": 8675, "\u0120nagels": 8676, "Oh": 8677, "\u0120preventie": 8678, "\u0120food": 8679, "\u0120experiment": 8680, "\u0120anderhalf": 8681, "\u0120mast": 8682, "\u0120durf": 8683, "\u0120alternatieven": 8684, "\u0120deskundigen": 8685, "\u0120weergave": 8686, "\u0120hoer": 8687, "2012": 8688, "\u0120stijlvol": 8689, "begeleiding": 8690, "\u0120Belg": 8691, "collectie": 8692, "\u0120Louis": 8693, "Vanuit": 8694, "\u0120HBO": 8695, "\u0120Social": 8696, "\u0120generaties": 8697, "\u0120shoppen": 8698, "\u0120geluiden": 8699, "\u0120verdediging": 8700, "\u0120graad": 8701, "\u0120omstreeks": 8702, "\u0120sluiting": 8703, "pand": 8704, "DA": 8705, "\u0120essenti\u00c3\u00able": 8706, "\u0120Mini": 8707, "raden": 8708, "\u0120BMW": 8709, "aver": 8710, "gelopen": 8711, "oplossingen": 8712, "stro": 8713, "West": 8714, "inus": 8715, "\u012004": 8716, "isse": 8717, "\u0120meerwaarde": 8718, "\u0120bewonderen": 8719, "\u0120Hopelijk": 8720, "teken": 8721, "\u0120schapen": 8722, "\u0120kortingen": 8723, "\u0120kritische": 8724, "atisch": 8725, "\u0120poten": 8726, "SE": 8727, "less": 8728, "\u0120360": 8729, "idd": 8730, "!.": 8731, "\u0120nodigen": 8732, "uilen": 8733, "\u0120solo": 8734, "\u0120Milieu": 8735, "\u0120getal": 8736, "\u0120werkplaats": 8737, "\u0120daten": 8738, "\u0120onderste": 8739, "\u0120gelet": 8740, "\u0120elektrisch": 8741, "ggen": 8742, "\u0120trouwen": 8743, "\u0120gebruikelijk": 8744, "\u0120cr\u00c3\u00a8me": 8745, "aya": 8746, "\u0120woordvoerder": 8747, "\u0120beleggings": 8748, "mot": 8749, "\u0120Roo": 8750, "essie": 8751, "\u0120Romeinse": 8752, "BB": 8753, "\u0120ontvanger": 8754, "\u0120It": 8755, "\u0120aanvankelijk": 8756, "dro": 8757, "\u0120aanraden": 8758, "kleuren": 8759, "\u0120congres": 8760, "\u0120AV": 8761, "aud": 8762, "rijs": 8763, "\u0120dynamische": 8764, "\u0120verzorgde": 8765, "\u0120diabetes": 8766, "\u0120import": 8767, "\u0120gemeen": 8768, "\u0120argument": 8769, "\u0120werkende": 8770, "\u0120dro": 8771, "\u0120ruimtelijke": 8772, "\u0120Mogelijk": 8773, "\u0120rondje": 8774, "\u0120Schoon": 8775, "maakt": 8776, "\u0120achteruit": 8777, "\u0120Verk": 8778, "\u0120afst": 8779, "\u0120maandelijks": 8780, "iche": 8781, "\u0120uitgeb": 8782, "\u0120eene": 8783, "\u0120Date": 8784, "\u0120geneesmiddelen": 8785, "\u0120figuren": 8786, "\u0120spits": 8787, "itel": 8788, "\u0120haken": 8789, "\u0120glans": 8790, "\u0120vrees": 8791, "\u0120kasten": 8792, "\u0120contracten": 8793, "\u0120Im": 8794, "\u0120Weg": 8795, "\u0120toegenomen": 8796, "\u0120voorziening": 8797, "\u0120bacteri\u00c3\u00abn": 8798, "\u012072": 8799, "profiel": 8800, "\u0120Hilversum": 8801, "risico": 8802, "\u0120lading": 8803, "px": 8804, "want": 8805, "\u0120ins": 8806, "\u0120gevierd": 8807, "\u0120ij": 8808, "studie": 8809, "leen": 8810, "\u0120Dienst": 8811, "lijsten": 8812, "\u0120ON": 8813, "\u0120Duitsers": 8814, "\u0120ebony": 8815, "gehalte": 8816, "\u0120ochtends": 8817, "\u0120gemotiveerd": 8818, "\u0120plots": 8819, "\u0120zuigen": 8820, "nemers": 8821, "dra": 8822, "\u0120verschilt": 8823, "EU": 8824, "\u0120verhoogde": 8825, "\u0120fonds": 8826, "reekt": 8827, "\u0120raak": 8828, "\u0120typ": 8829, "\u0120Hoorn": 8830, "\u0120Hot": 8831, "\u0120deksel": 8832, "\u0120slap": 8833, "\u0120milie": 8834, "\u0120invoeren": 8835, "\u0120schuldig": 8836, "\u0120alvorens": 8837, "spanning": 8838, "\u0120plak": 8839, "\u0120stempel": 8840, "\u0120room": 8841, "\u0120Kamp": 8842, "\u0120kal": 8843, "\u0120strenge": 8844, "\u00c3\u00a9s": 8845, "eet": 8846, "\u0120hoogleraar": 8847, "\u0120Bur": 8848, "stem": 8849, "\u0120eenvoudiger": 8850, "iam": 8851, "vlucht": 8852, "\u00c2\u00a9": 8853, "\u0120late": 8854, "\u0120Hebben": 8855, "\u0120Niemand": 8856, "\u0120rondleiding": 8857, "bol": 8858, "\u0120heleboel": 8859, "echt": 8860, "terrein": 8861, "ments": 8862, "\u0120biologisch": 8863, "\u0120nette": 8864, "\u0120700": 8865, "\u0120be\u00c3\u00afnvloed": 8866, "\u0120afvoer": 8867, "buiten": 8868, "\u0120Kru": 8869, "ness": 8870, "\u00dc": 8871, "GA": 8872, "\u0120panelen": 8873, "\u0120actueel": 8874, "\u0120firma": 8875, "data": 8876, "300": 8877, "\u0120amsterdam": 8878, "spelers": 8879, "\u0120Daarin": 8880, "elijks": 8881, "\u0120Life": 8882, "izen": 8883, "\u0120gedrukt": 8884, "oepen": 8885, "adviseur": 8886, "\u0120steeg": 8887, "\u0120koff": 8888, "ld": 8889, "slid": 8890, "partner": 8891, "\u0120inrichten": 8892, "\u0120Ra": 8893, "\u0120Benelux": 8894, "\u0120Hoeveel": 8895, "opdracht": 8896, "IO": 8897, "\u0120Waarschijnlijk": 8898, "\u00d0\u00ba": 8899, "zoeken": 8900, "raam": 8901, "bere": 8902, "\u0120imp": 8903, "matische": 8904, "\u0120sloeg": 8905, "\u0120Zon": 8906, "\u0120planeet": 8907, "uurde": 8908, "\u0120State": 8909, "\u0120jan": 8910, "ype": 8911, "itief": 8912, "\u0120cor": 8913, "\u0120stijlen": 8914, "\u0120verderop": 8915, "nest": 8916, "\u0120present": 8917, "\u0120presenteert": 8918, "\u0120salade": 8919, "\u0120strategische": 8920, "\u0120Pink": 8921, "kwam": 8922, "\u0120bewerkt": 8923, "\u0120gewassen": 8924, "\u0120kunstwerk": 8925, "\u0120orgel": 8926, "ika": 8927, "\u0120opgeven": 8928, "VD": 8929, "\u0120\u00ce": 8930, "\u0120beroepen": 8931, "\u0120fraude": 8932, "\u0120portret": 8933, "\u0120services": 8934, "\u0120debuut": 8935, "\u0120adviseert": 8936, "wol": 8937, "\u0120stabiliteit": 8938, "\u0120vandaar": 8939, "Zuid": 8940, "\u0120weigeren": 8941, "\u0120draadloze": 8942, "verg": 8943, "ides": 8944, "\u0120125": 8945, "\u0120slotte": 8946, "geval": 8947, "\u0120Can": 8948, "\u0120transparant": 8949, "adel": 8950, "voorzieningen": 8951, "\u0120magazine": 8952, "\u0120leerde": 8953, "\u0120plank": 8954, "\u0120broers": 8955, "\u0120schatten": 8956, "\u01201992": 8957, "Amerika": 8958, "gemaakte": 8959, "\u0120IC": 8960, "\u0120Day": 8961, "Ter": 8962, "reerde": 8963, "\u0120Marcel": 8964, "\u0120gestolen": 8965, "\u0120leiders": 8966, "arium": 8967, "\u0120Ser": 8968, "EV": 8969, "\u0120Mercedes": 8970, "\u012066": 8971, "\u0120--": 8972, "\u0120Vanwege": 8973, "\u0120hyp": 8974, "\u0120drogen": 8975, "ns": 8976, "\u0120openings": 8977, "\u0120schoonmaken": 8978, "\u0120eiwitten": 8979, "\u0120feitelijk": 8980, "\u0120Wonen": 8981, "\u0120Wellicht": 8982, "\u0120gener": 8983, "\u0120Up": 8984, "\u0120ijzer": 8985, "Super": 8986, "wa": 8987, "\u0120kenteken": 8988, "view": 8989, "\u0120stimuleert": 8990, "iler": 8991, "uigen": 8992, "\u0120plaatsje": 8993, "\u0120haat": 8994, "aalt": 8995, "modellen": 8996, "\u0120behang": 8997, "\u0120fractie": 8998, "ones": 8999, "\u0120betrokkene": 9000, "\u0120juridisch": 9001, "\u0120gevecht": 9002, "pa": 9003, "\u0120soldaten": 9004, "\u0120jegens": 9005, "\u0120paspoort": 9006, "\u0120folder": 9007, "\u0120koppeling": 9008, "isolatie": 9009, "aliteiten": 9010, "staal": 9011, "ido": 9012, "\u0120flessen": 9013, "\u0120divers": 9014, "\u0120Che": 9015, "riet": 9016, "liefhebbers": 9017, "BR": 9018, "\u0120elkaars": 9019, "wijs": 9020, "\u0120samenstellen": 9021, "\u0120schijn": 9022, "Nieuw": 9023, "mal": 9024, "abl": 9025, "\u0120arrest": 9026, "ping": 9027, "\u0120autoriteiten": 9028, "\u0120ge\u00c3\u00afnformeerd": 9029, "\u0120gereed": 9030, "\u0120vechten": 9031, "\u0120opende": 9032, "\u0120aanmaken": 9033, "\u0120vernieuwde": 9034, "\u0120kenbaar": 9035, "\u0120doc": 9036, "ibr": 9037, "\u0120GPS": 9038, "\u0120zonnetje": 9039, "\u0120Belgisch": 9040, "\u0120circuit": 9041, "\u0120verhoging": 9042, "oemd": 9043, "\u0120boog": 9044, "\u0120fenomeen": 9045, "\u0120Aziatische": 9046, "ils": 9047, "medewerker": 9048, "stelde": 9049, "\u0120brochure": 9050, "\u0120mult": 9051, "\u0120trainers": 9052, "\u0120Marketing": 9053, "\u0120batterijen": 9054, "\u0120blind": 9055, "onderdelen": 9056, "\u0120kalender": 9057, "Dankzij": 9058, "\u0120verlagen": 9059, "IF": 9060, "tv": 9061, "\u0120Simon": 9062, "\u0120new": 9063, "heffing": 9064, "meisje": 9065, "\u0120bespaart": 9066, "\u0120eindeloos": 9067, "oda": 9068, "\u0120Plan": 9069, "\u0120aanstaande": 9070, "verse": 9071, "\u0120expositie": 9072, "\u0120bovenkant": 9073, "alist": 9074, "beveiliging": 9075, "\u0120uitmaken": 9076, "\u0120uitst": 9077, "idingen": 9078, "ragen": 9079, "\u0120gevaren": 9080, "\u0120uitgereikt": 9081, "\u0120hoogwaardig": 9082, "\u0120onbeperkt": 9083, "\u012069": 9084, "\u0120thans": 9085, "\u0120vreugde": 9086, "\u0120huishoudens": 9087, "\u0120verbindt": 9088, "\u0120BB": 9089, "\u0120Bakker": 9090, "\u0120350": 9091, "HO": 9092, "\u0120correcte": 9093, "\u0120betalingen": 9094, "\u0120verweerder": 9095, "\u0120servers": 9096, "gebracht": 9097, "\u0120And": 9098, "\u0120tachtig": 9099, "\u0120creditcard": 9100, "\u0120Autom": 9101, "\u0120OV": 9102, "instituut": 9103, "\u0120vervullen": 9104, "laten": 9105, "\u0120gesneden": 9106, "\u0120verdiend": 9107, "\u0120airco": 9108, "ries": 9109, "\u0120vuurwerk": 9110, "wiss": 9111, "\u0120Werken": 9112, "\u0120fabrikanten": 9113, "\u0120beoordelingen": 9114, "\u0120compact": 9115, "$": 9116, "\u0120rolstoel": 9117, "\u0120provincies": 9118, "\u0120iOS": 9119, "belen": 9120, "\u0120Cast": 9121, "\u0120lukte": 9122, "\u0120indrukwekkend": 9123, "\u0120verwennen": 9124, "gat": 9125, "\u0120stoer": 9126, "uma": 9127, "\u0120caravan": 9128, "\u0120Morgen": 9129, "\u0120OM": 9130, "inders": 9131, "......": 9132, "\u0120vorderingen": 9133, "\u0120kostuum": 9134, "\u0120startte": 9135, "\u0120merkte": 9136, "\u0120uitgeschakeld": 9137, "cont": 9138, "\u0120us": 9139, "zz": 9140, "regio": 9141, "fietsen": 9142, "\u0120uitsp": 9143, "\u0120ervaart": 9144, "\",\"": 9145, "\u0120verbod": 9146, "achte": 9147, "derij": 9148, "\u0120geweten": 9149, "\u0120aangevraagd": 9150, "\u0120enerzijds": 9151, "ieuze": 9152, "\u0120potje": 9153, "\u0120AN": 9154, "\u0120Band": 9155, "\u0120onvergetelijke": 9156, "ights": 9157, "\u0120jeans": 9158, "\u0120instanties": 9159, "schoon": 9160, "\u00bd": 9161, "boekje": 9162, "\u0120\u00e2": 9163, "hes": 9164, "start": 9165, "\u0120Cup": 9166, "\u0120regisseur": 9167, "\u0120vaar": 9168, "\u0120poesje": 9169, "\u0120vooruitgang": 9170, "\u0120Nov": 9171, "\u0120Eric": 9172, "werkt": 9173, "\u0120verhuizing": 9174, "\u0120Data": 9175, "\u0120Love": 9176, "\u0120atelier": 9177, "\u0120kabels": 9178, "\u0120chef": 9179, "\u0120overstap": 9180, "\u0120vorming": 9181, "\u0120raads": 9182, "controle": 9183, "\u0120personeels": 9184, "ners": 9185, "rassen": 9186, "\u0120klagen": 9187, "ading": 9188, "\u0120produceert": 9189, "materialen": 9190, "\u0120referentie": 9191, "\u0120westerse": 9192, "\u0120verbouwing": 9193, "wal": 9194, "aagt": 9195, "snelheid": 9196, "\u0120geselecteerde": 9197, "\u0120Der": 9198, "\u0120Volg": 9199, "\u0120gestegen": 9200, "abele": 9201, "\u0120elegante": 9202, "utter": 9203, "\u0120Act": 9204, "\u0120ende": 9205, "\u0120overst": 9206, "\u0120Amb": 9207, "\u00d1\u0123\u00d1\u0124": 9208, "Mooi": 9209, "eil": 9210, "\u0120olijfolie": 9211, "\u0120inbraak": 9212, "\u0120Airport": 9213, "\u0120geslaagde": 9214, "\u0120May": 9215, "\u00e2\u0122\u0140": 9216, "\u0120collectieve": 9217, "blauw": 9218, "\u0120concerten": 9219, "\u0120journalist": 9220, "\u0120uitoefenen": 9221, "ives": 9222, "\u0120exacte": 9223, "\u0120strijk": 9224, "\u0120hoogst": 9225, "\u0120doorlopen": 9226, "\u0120frequentie": 9227, "\u0120tempel": 9228, "\u0120dosis": 9229, "\u0120akte": 9230, "\u0120Hoek": 9231, "\u0120billen": 9232, "\u0120sla": 9233, "\u0120afwijking": 9234, "eigen": 9235, "IB": 9236, "\u0120gedetailleerde": 9237, "\u0120Gi": 9238, "\u0120geserveerd": 9239, "gingen": 9240, "\u0120zeilen": 9241, "design": 9242, "\u0120schuiven": 9243, "\u0120streng": 9244, "\u0120aantallen": 9245, "\u0120Voordat": 9246, "\u0120track": 9247, "\u0120spec": 9248, "\u0120Beheer": 9249, "afval": 9250, "werp": 9251, "\u012059": 9252, "\u0120herhaling": 9253, "erman": 9254, "\u0120makelaar": 9255, "\u0120openingstijden": 9256, "oeid": 9257, "hierna": 9258, "\u0120attracties": 9259, "ienst": 9260, "\u0120continue": 9261, "\u0120Han": 9262, "\u0120handmatig": 9263, "\u0120tumblr": 9264, "\u0120vermoedelijk": 9265, "\u0120SEO": 9266, "\u00c3\u0142": 9267, "\u0120risic": 9268, "\u0120Bus": 9269, "\u0120AP": 9270, "\u0120Gaat": 9271, "ormen": 9272, "\u0120uitgegroeid": 9273, "stelt": 9274, "\u0120opsch": 9275, "\u0120University": 9276, "\u0120medewerking": 9277, "\u0120Meisjes": 9278, "\u0120vielen": 9279, "\u0120traditioneel": 9280, "\u0120bescherm": 9281, "voudig": 9282, "\u012062": 9283, "\u0120breiden": 9284, "\u0120Nij": 9285, "\u0120aanspraak": 9286, "aanvraag": 9287, "\u0120decor": 9288, "Hoi": 9289, "\u0120brein": 9290, "gewoon": 9291, "\u0120heil": 9292, "\u0120neu": 9293, "RI": 9294, "\u0120daling": 9295, "instelling": 9296, "\u0120VR": 9297, "\u0120vakanties": 9298, "\u0120Afrikaanse": 9299, "\u0120glasvezel": 9300, "ues": 9301, "\u0120afgeleid": 9302, "gebouwen": 9303, "\u0120vi": 9304, "\u0120Fort": 9305, "\u0120Steeds": 9306, "dert": 9307, "\u0120160": 9308, "\u0120vernieuwing": 9309, "\u0120tof": 9310, "\u0120architecten": 9311, "rijders": 9312, "ila": 9313, "\u0120eis": 9314, "\u0120Joodse": 9315, "\u0120Royal": 9316, "\u0120gevarieerd": 9317, "spre": 9318, "\u0120rouw": 9319, "\u0120bioscoop": 9320, "\u0120bevindingen": 9321, "\u0120verbeteringen": 9322, "\u0120Award": 9323, "\u0120wiens": 9324, "\u0120container": 9325, "\u0120muzikanten": 9326, "\u0120depressie": 9327, "\u0120verzocht": 9328, "oli": 9329, "\u0120Spelen": 9330, "RT": 9331, "\u0120Houten": 9332, "\u0120Thailand": 9333, "\u0120platte": 9334, "\u0120lekkerste": 9335, "\u0120surf": 9336, "\u0120uitwerking": 9337, "\u0120knoppen": 9338, "\u0120hardcore": 9339, "\u0120aanvaard": 9340, "sterren": 9341, "\u0120diezelfde": 9342, "\u0120OK": 9343, "oplossing": 9344, "\u0120Chris": 9345, "\u0120aandoeningen": 9346, "\u0120vakkundig": 9347, "\u0120Tem": 9348, "\u0120golven": 9349, "\u0120Beek": 9350, "\u0120Ref": 9351, "verbinding": 9352, "dis": 9353, "\u0120elektro": 9354, "\u0120hectare": 9355, "\u0120accent": 9356, "\u0120hor": 9357, "upp": 9358, "\u0120spectaculaire": 9359, "\u00e2\u0122": 9360, "riel": 9361, "\u0120Mult": 9362, "\u0120inspanningen": 9363, "list": 9364, "\u0120klank": 9365, "Kan": 9366, "raagt": 9367, "\u0120bewaar": 9368, "\u0120sec": 9369, "\u0120effici\u00c3\u00abnte": 9370, "\u0120AF": 9371, "raken": 9372, "\u0120Mod": 9373, "\u0120primaire": 9374, "\u0120ontdekte": 9375, "\u0120tele": 9376, "\u0120spontaan": 9377, "li": 9378, "\u0120White": 9379, "\u0120Box": 9380, "verlening": 9381, "\u0120besturen": 9382, "\u0120orgasme": 9383, "\u0120vermelde": 9384, "\u0120volt": 9385, "bv": 9386, "\u0120Fred": 9387, "\u0120uitzien": 9388, "\u0120maandelijkse": 9389, "\u0120kas": 9390, "\u0120geleidelijk": 9391, "\u0120hoeren": 9392, "\u0120dikte": 9393, "beg": 9394, "vergoeding": 9395, "Men": 9396, "\u0120benzine": 9397, "\u0120Sant": 9398, "\u0120platteland": 9399, "\u0120NU": 9400, "\u0120compl": 9401, "vogels": 9402, "menten": 9403, "\u0120virus": 9404, "trek": 9405, "klaar": 9406, "\u0120vervelende": 9407, "index": 9408, "\u0120meters": 9409, "\u0120bijkomende": 9410, "via": 9411, "\u0120Flex": 9412, "\u0120Lie": 9413, "\u0120behuizing": 9414, "\u0120staatssecretaris": 9415, "\u0120ge\u00c3\u00afntegreerd": 9416, "\u0120sparen": 9417, "\u0120berichtje": 9418, "azen": 9419, "\u012067": 9420, "\u0120ol": 9421, "\u0120Fonds": 9422, "\u0120Hallo": 9423, "\u0120Dak": 9424, "\u0120seizoenen": 9425, "\u0120zinnen": 9426, "kussen": 9427, "\u0120nota": 9428, "varen": 9429, "toe": 9430, "hond": 9431, "Zeer": 9432, "ta": 9433, "\u0120lichten": 9434, "betaling": 9435, "\u0120snelweg": 9436, "\u0120deken": 9437, "\u0120vlaggen": 9438, "\u0120Pre": 9439, "\u0120BR": 9440, "\u0120virtuele": 9441, "\u0120terugkeer": 9442, "\u0120Afdeling": 9443, "\u0120ge\u00c3\u00afntegreerde": 9444, "\u0120Wolf": 9445, "\u0120gaar": 9446, "immer": 9447, "\u0120Arabische": 9448, "\u0120vaatwasser": 9449, "\u0120toegewezen": 9450, "\u0120staten": 9451, "\u0120hoeken": 9452, "\u0120tu": 9453, "\u0120adviseurs": 9454, "\u0120sprong": 9455, "\u0120harmonie": 9456, "gebruikers": 9457, "bronnen": 9458, "ville": 9459, "\u0120Verenigd": 9460, "ards": 9461, "Daarom": 9462, "\u0120cat": 9463, "ukt": 9464, "\u0120studeerde": 9465, "\u0120sloop": 9466, "\u0120Colle": 9467, "\u0120Kun": 9468, "\u0120afzonderlijk": 9469, "iki": 9470, "\u0120scheelt": 9471, "verbruik": 9472, "\u0120ultra": 9473, "\u0120ere": 9474, "\u0120More": 9475, "\u0120Arm": 9476, "\u0120lek": 9477, "\u0120Gouden": 9478, "\u0120Egypte": 9479, "hang": 9480, "\u0120\u00c2\u00b0": 9481, "\u0120export": 9482, "\u0120Eerder": 9483, "\u0120belanghebbende": 9484, "\u0120groepje": 9485, "\u0120Inst": 9486, "SV": 9487, "parken": 9488, "ely": 9489, "deuren": 9490, "\u0120Leuke": 9491, "ooien": 9492, "belang": 9493, "\u0120stort": 9494, "\u0120Do": 9495, "\u0120uitgever": 9496, "bels": 9497, "\u0120SM": 9498, "CD": 9499, "\u0120Music": 9500, "\u01201993": 9501, "\u0120Ca": 9502, "Leuk": 9503, "\u0120hoofdrol": 9504, "binnen": 9505, "\u012068": 9506, "\u0120moois": 9507, "\u0120bijwerkingen": 9508, "\u0120Wall": 9509, "\u0120RTL": 9510, "Uiteraard": 9511, "\u0120uitdagende": 9512, "\u0120sat": 9513, "\u0120overwegen": 9514, "\u0120geheime": 9515, ".''": 9516, "\u0120Mail": 9517, "\u0120afdelingen": 9518, "\u0120uitv": 9519, "steden": 9520, "\u0120opzicht": 9521, "\u0120Eg": 9522, "\u0120aftrek": 9523, "\u00e2\u0122\u00a6..": 9524, "\u0120verhuurder": 9525, "stig": 9526, "\u0120lastige": 9527, "\u0120uitstek": 9528, "\u0120nuttige": 9529, "cho": 9530, "\u0120grafische": 9531, "\u0120parcours": 9532, "\u0120seksueel": 9533, "\u0120toeval": 9534, "bat": 9535, "Europa": 9536, "\u0120verdiepen": 9537, "\u0120zeventig": 9538, "\u0120techn": 9539, "bele": 9540, "balk": 9541, "\u0120George": 9542, "\u0120reageerde": 9543, "\u0120parfum": 9544, "\u0120Hogeschool": 9545, "\u0120aud": 9546, "\u0120gedoe": 9547, "\u0120robot": 9548, "\u0120fietsers": 9549, "tel": 9550, "\u0120kwetsbaar": 9551, "\u0120desktop": 9552, "rien": 9553, "onds": 9554, "\u0120mengsel": 9555, "\u0120dode": 9556, "\u0120GB": 9557, "\u0120Michel": 9558, "\u0120verpleeg": 9559, "\u0120;)": 9560, "\u0120Food": 9561, "geest": 9562, "\u0120gerichte": 9563, "\u0120Hierna": 9564, "\u0120zogeheten": 9565, "dent": 9566, "\u0120bleken": 9567, "bureaus": 9568, "verhuur": 9569, "\u0120Comm": 9570, "\u0120mensheid": 9571, "\u0120bloeddruk": 9572, "\u0120PRO": 9573, "\u0120verordening": 9574, "\u0120ritme": 9575, "\u0120Feyenoord": 9576, "OK": 9577, "\u0120cross": 9578, "osten": 9579, "\u0120likken": 9580, "\u0120Merk": 9581, "\u0120avonden": 9582, "\u0120neuk": 9583, "\u0120ID": 9584, "Gisteren": 9585, "\u0120permanente": 9586, "\u0120SD": 9587, "\u0120drankjes": 9588, "\u0120zijden": 9589, "\u0120Bak": 9590, "\u0120UV": 9591, "\u0120kok": 9592, "\u0120Afgelopen": 9593, "ijken": 9594, "\u0120korter": 9595, "\u0120koste": 9596, "patroon": 9597, "\u0120Gold": 9598, "even": 9599, "po": 9600, "\u0120mem": 9601, "\u0120pal": 9602, "\u0120autom": 9603, "lopende": 9604, "\u0120ongewenste": 9605, "\u0120hapje": 9606, "\u0120Ruim": 9607, "voetbal": 9608, "\u0120hyper": 9609, "\u0120bouwt": 9610, "TP": 9611, "Zaterdag": 9612, "unst": 9613, "\u0120genezen": 9614, "\u0120gunstige": 9615, "\u0120Tri": 9616, "\u0120looptijd": 9617, "\u0120bijen": 9618, "\u0120h\u00c3\u00a9t": 9619, "\u0120krachtens": 9620, "\u0120lidstaten": 9621, "\u0120schok": 9622, "itz": 9623, "\u0120Store": 9624, "\u0120bussen": 9625, "ames": 9626, "ump": 9627, "zinnig": 9628, "uiden": 9629, "\u0120facturen": 9630, "\u0120happy": 9631, "\u0120deskundig": 9632, "\u0120terugvinden": 9633, "Den": 9634, "otten": 9635, "\u0120dachten": 9636, "dieren": 9637, "\u0120filters": 9638, "kijk": 9639, "\u0120class": 9640, "\u0120Jullie": 9641, "ident": 9642, "\u0120bedrukken": 9643, "\u0120GE": 9644, "maatregelen": 9645, "\u0120release": 9646, "ior": 9647, "\u0120down": 9648, "\u0120Kosten": 9649, "ows": 9650, "cc": 9651, "\u0120hippe": 9652, "\u0120verdedig": 9653, "\u0120Inc": 9654, "rijf": 9655, "\u0120handicap": 9656, "aansluiting": 9657, "\u0120Miss": 9658, "\u0120voorbije": 9659, "\u0120oorlogs": 9660, "lag": 9661, "\u0120provider": 9662, "\u0120speelden": 9663, "\u0120benutten": 9664, "\u00d0\u00b2": 9665, "\u0120stadion": 9666, "\u0120draa": 9667, "\u0120voegt": 9668, "persoons": 9669, "kort": 9670, "houten": 9671, "\u0120blz": 9672, "\u0120Taal": 9673, "\u0120apotheek": 9674, "\u0120dildo": 9675, "\u0120Rabobank": 9676, "uster": 9677, "acks": 9678, "\u00c3\u00ba": 9679, "oge": 9680, "cur": 9681, "\u0120draaide": 9682, "\u0120vissers": 9683, "\u0120\\": 9684, "\u0120zachtjes": 9685, "boer": 9686, "%,": 9687, "videos": 9688, "max": 9689, "\u0120netto": 9690, "\u0120brachten": 9691, "Gelukkig": 9692, "\u0120Prive": 9693, "ror": 9694, "mag": 9695, "\u0120bevoegdheid": 9696, "deling": 9697, "\u0120soortgelijke": 9698, "\u0120gecon": 9699, "\u0120Italiaans": 9700, "onken": 9701, "\u0120Breng": 9702, "\u0120diesel": 9703, "\u0120have": 9704, "\u0120Momenteel": 9705, "\u0120vult": 9706, "verdeling": 9707, "\u0120sanitair": 9708, "\u0120Pers": 9709, "\u0120rugzak": 9710, "\u0120Azi\u00c3\u00ab": 9711, "\u0120hardlopen": 9712, "\u0120lingerie": 9713, "\u0120ruil": 9714, "\u0120armband": 9715, "aliseerd": 9716, "\u0120ball": 9717, "Bet": 9718, "\u0120Zondag": 9719, ".).": 9720, "\u0120accommodaties": 9721, "\u0120broodjes": 9722, "klimaat": 9723, "\u0120Haagse": 9724, "\u0120Webcam": 9725, "spro": 9726, "gegeven": 9727, "\u0120tevredenheid": 9728, "\u0120stelsel": 9729, "\u012063": 9730, "ota": 9731, "\u0120mil": 9732, ",-.": 9733, "gy": 9734, "\u0120bijgewerkt": 9735, "\u0120schuif": 9736, "\u0120achtertuin": 9737, "standaard": 9738, "\u0120echtgenoot": 9739, "\u0120spraak": 9740, "\u0120toet": 9741, "\u0120mailtje": 9742, "\u0120dvd": 9743, "\u0120onzin": 9744, "\u0120Steen": 9745, "\u0120hek": 9746, "okjes": 9747, "\u0120dam": 9748, "\u0120Theo": 9749, "\u0120Moeder": 9750, "\u00e0": 9751, "gie": 9752, "col": 9753, "\u0120tab": 9754, "\u0120voorgeschreven": 9755, "\u0120schadelijke": 9756, "eler": 9757, "raan": 9758, "verenigingen": 9759, "mode": 9760, "borden": 9761, "\u0120lip": 9762, "\u0120Bedrijf": 9763, "\u0120bestelde": 9764, "\u00c3\u00a9t": 9765, "\u0120argumenten": 9766, "\u0120instructie": 9767, "blauwe": 9768, "\u0120bestemmingen": 9769, "waarts": 9770, "\u0120onth": 9771, "\u0120verplaatst": 9772, "\u0120opgeleid": 9773, "\u0120Thaise": 9774, "\u0120afsluit": 9775, "\u0120monster": 9776, "\u0120Klaas": 9777, "\u0120lim": 9778, "\u0120orkest": 9779, "\u0120Street": 9780, "idings": 9781, "\u0120omlaag": 9782, "\u0120verdedigen": 9783, "\u0120veranderde": 9784, "\u0120massaal": 9785, "\u0120By": 9786, "\u0120Syri\u00c3\u00ab": 9787, "\u0120Hor": 9788, "gevende": 9789, "\u0120aangeduid": 9790, "\u0120kring": 9791, "\u0120vertonen": 9792, "\u0120Spaans": 9793, "\u0120Station": 9794, "ijkt": 9795, "strategie": 9796, "\u0120Rad": 9797, "\u0120keurmerk": 9798, "\u0120klimmen": 9799, "\u0120overtuiging": 9800, "\u0120Vijf": 9801, "\u0120evolutie": 9802, "molen": 9803, "\u0120line": 9804, "\u0120rennen": 9805, "\u0120Huur": 9806, "rijzen": 9807, "lief": 9808, "bestrijding": 9809, "levering": 9810, "IJK": 9811, "\u0120Vergeet": 9812, "vering": 9813, "\u0120Villa": 9814, "\u0120dre": 9815, "\u0120bit": 9816, "\u0120belt": 9817, "\u0120Veld": 9818, "OW": 9819, "\u0120knuffel": 9820, "\u0120wolken": 9821, "\u0120onverwachte": 9822, "branche": 9823, "\u0120jarig": 9824, "\u0120arbeiders": 9825, "\u0120Sa": 9826, "\u0120tijds": 9827, "\u0120Restaurant": 9828, "\u0120halverwege": 9829, "\u0120AL": 9830, "fect": 9831, "\u0120Verh": 9832, "\u0120tussendoor": 9833, "i\u00c3\u00abren": 9834, "\u0120koningin": 9835, "\u0120ui": 9836, "\u0120straal": 9837, "\u0120uitdrukking": 9838, "\u00d1\u012d": 9839, "\u0120Dol": 9840, "probleem": 9841, "\u0120airconditioning": 9842, "aast": 9843, "\u0120tandarts": 9844, "aders": 9845, "\u0120reputatie": 9846, "Alleen": 9847, "ori": 9848, "\u0120uitvoeringen": 9849, "houdende": 9850, "\u0120Soort": 9851, "spot": 9852, "\u0120oogst": 9853, "administratie": 9854, "urf": 9855, "\u0120schilders": 9856, "ografische": 9857, "\u0120onmisbaar": 9858, "\u00c3\u00b4": 9859, "\u0120Bou": 9860, "\u0120Mi": 9861, "\u0120permanent": 9862, "\u0120omliggende": 9863, "\u0120Ru": 9864, "2011": 9865, "\u0120sokken": 9866, "\u0120smartphones": 9867, "\u0120druiven": 9868, "\u0120bevoegde": 9869, "PA": 9870, "Sc": 9871, "\u0120Politie": 9872, "zinnige": 9873, "buis": 9874, "rans": 9875, "\u0120coalitie": 9876, "\u0120Services": 9877, "\u0120werkgroep": 9878, "\u0120accountant": 9879, "kleed": 9880, "dige": 9881, "\u0120suggesties": 9882, "oris": 9883, "\u0120rozen": 9884, "meel": 9885, "\u0120toeslag": 9886, "\u0120huishouden": 9887, "meisjes": 9888, "\u0120Emmen": 9889, "\u0120Allemaal": 9890, "\u0120Gay": 9891, "\u0120Brazili\u00c3\u00ab": 9892, "lig": 9893, "\u0120roll": 9894, "\u0120Tre": 9895, "\u0120ep": 9896, "kinderen": 9897, "aux": 9898, "\u0120Zaterdag": 9899, "aaltjes": 9900, "\u0120Bat": 9901, "\u0120ban": 9902, "enties": 9903, "\u0120drama": 9904, "\u0120blokken": 9905, "\u0120methoden": 9906, "\u0120faillissement": 9907, "\u0120zool": 9908, "\u0120eindigen": 9909, "\u0120commercieel": 9910, "filter": 9911, "\u0120ambtenaar": 9912, "\u0120mega": 9913, "\u0120takken": 9914, "Zoek": 9915, "ani": 9916, "\u0120titels": 9917, "\u0120Friese": 9918, "\u0120combinaties": 9919, "\u0120afmeting": 9920, "oers": 9921, "\u0120stadium": 9922, "\u0120sw": 9923, "omer": 9924, "\u0120verantwoording": 9925, "\u0120ed": 9926, "PR": 9927, "\u0120Rijks": 9928, "\u0120hoeverre": 9929, "\u0120rok": 9930, "ammen": 9931, "\u0120transparante": 9932, "boog": 9933, "Werk": 9934, "erken": 9935, "\u0120MB": 9936, "\u0120schroef": 9937, "\u0120paniek": 9938, "\u0120vecht": 9939, "blokken": 9940, "\u0120Nike": 9941, "agn": 9942, "\u0120opgemaakt": 9943, "ommen": 9944, "\u0120Koophandel": 9945, "banken": 9946, "\u0120verdelen": 9947, "Or": 9948, "\u0120gave": 9949, "keur": 9950, "\u0120vzw": 9951, "\u0120scheiden": 9952, "\u0120vrachtwagen": 9953, "Klik": 9954, "\u0120bijpassende": 9955, "\u0120winkelcentrum": 9956, "\u0120function": 9957, "\u0120problematiek": 9958, "sal": 9959, "praktijk": 9960, "ruis": 9961, "energie": 9962, "\u0120overd": 9963, "\u0120verzekeraars": 9964, "\u0120aardappel": 9965, "\u0120uitziet": 9966, "pijn": 9967, "\u0120prins": 9968, "\u0120mark": 9969, "\u0120roos": 9970, "\u0120Toon": 9971, "\u0120Karel": 9972, "\u0120register": 9973, "comfort": 9974, "\u0120hapjes": 9975, "\u0120Vorig": 9976, "\u0120aannemen": 9977, "\u0120heten": 9978, "spunt": 9979, "\u0120Blauw": 9980, "\u0120ketel": 9981, "tern": 9982, "\u0120treinen": 9983, "\u0120magazijn": 9984, "ng": 9985, "\u0120ING": 9986, "pomp": 9987, "\u0120beloning": 9988, "\u0120sessies": 9989, "sprijs": 9990, "\u0120medicijn": 9991, "spellen": 9992, "\u0120EC": 9993, "\u00c3\u00a9\u00c3\u00a9n": 9994, "ais": 9995, "\u0120breder": 9996, "\u0120Cool": 9997, "kkers": 9998, "\u0120tape": 9999, "\u0120interviews": 10000, "\u00c3\u00a7": 10001, "\u0120saai": 10002, "\u0120gekend": 10003, "\u0120invloeden": 10004, "\u0120voeden": 10005, "\u0120voordelige": 10006, "--": 10007, "\u0120waardevol": 10008, "Want": 10009, "\u0120voornaamste": 10010, "\u0120Tr": 10011, "vangen": 10012, "\u0120winnaars": 10013, "arkt": 10014, "ie\u00c3\u00abn": 10015, "inet": 10016, "http": 10017, "AA": 10018, "\u0120schrik": 10019, "\u0120gal": 10020, "\u0120Israel": 10021, "\u0120producent": 10022, "\u0120regelt": 10023, "schriften": 10024, "\u0120beleggen": 10025, "\u0120kwalitatieve": 10026, "\u0120principes": 10027, "legging": 10028, "\u0120Model": 10029, "\u0120sens": 10030, "\u0120durft": 10031, "\u0120tegenstanders": 10032, "anis": 10033, "\u0120invoer": 10034, "inrichting": 10035, "\u0120belooft": 10036, "card": 10037, "\u0120opgedaan": 10038, "\u0120Dor": 10039, "\u0120motto": 10040, "\u0120familieleden": 10041, "okje": 10042, "\u0120Enkel": 10043, "\u0120avonturen": 10044, "\u0120kalm": 10045, "\u0120wederpartij": 10046, "\u0120vraagstukken": 10047, "\u0120verminderd": 10048, "\u0120wintersport": 10049, "document": 10050, "boy": 10051, "link": 10052, "\u0120opgepakt": 10053, "SA": 10054, "\u0120asbest": 10055, "\u0120wandelingen": 10056, "zelfde": 10057, "\u0120Nacht": 10058, "\u0120effici\u00c3\u00abnter": 10059, "don": 10060, "\u0120kwetsbare": 10061, "\u0120magnetron": 10062, "heel": 10063, "\u0120godsdienst": 10064, "aill": 10065, "\u0120beheerder": 10066, "\u0120bewuste": 10067, "samen": 10068, "ava": 10069, "look": 10070, "sproducten": 10071, "\u0120Vrije": 10072, "outer": 10073, "\u0120Po": 10074, "\u0120trui": 10075, "uring": 10076,
[...]
