{"linie": 15102, "Pharma": 5592, "Zack": 7753, "exploiteren": 11451, "Tina": 6968, "besparen": 9251, "slakkensoort": 18980, "piste": 17453, "simpl": 18932, "verkenners": 21077, "Hak": 3162, "berichtte": 9164, "Gemeenschap": 2861, "graniet": 12846, "P": 43, "Mega": 4758, "##rin": 28177, "kende": 14173, "fait": 11495, "zendt": 22722, "mega": 15495, "effectiviteit": 11182, "Reilly": 5915, "ontdek": 16585, "##zwaluw": 29947, "frisdrank": 11742, "boeiend": 9718, "##BW": 23229, "9": 24, "Minsk": 4890, "heikel": 13142, "Miss": 4900, "Jeruzalem": 3736, "handboeien": 13026, "meerwaarde": 15479, "wakker": 22205, "gebouw": 11896, "middelmatig": 15593, "onderhavig": 16379, "miniatuur": 15646, "##ring": 28180, "Petro": 5584, "Duidelijk": 2272, "geconstrueerd": 11930, "etentje": 11381, "master": 15401, "Zw": 7837, "Rah": 5836, "slapen": 18987, "Fa": 2554, "##ire": 26261, "##ronde": 28238, "Sittard": 6464, "gevat": 12536, "##renner": 28104, "Wetteren": 7614, "Sko": 6474, "god": 12772, "Guatemala": 3095, "Piper": 5635, "kalksteen": 14051, "Pinoch": 5632, "gebeden": 11866, "lossen": 15193, "Kunsten": 4163, "lesgeven": 14962, "achtergrond": 8112, "salon": 18520, "##koek": 26563, "woningen": 22571, "borden": 9795, "##foto": 25327, "keizerin": 14164, "Covenant": 1943, "##idio": 26085, "millimeter": 15634, "##ex": 25218, "##bedrijf": 24204, "##mai": 27019, "getraind": 12504, "toegesta": 20143, "alfabet": 8385, "##lus": 26980, "bijna": 9558, "Modder": 4917, "Gast": 2821, "##gedrukt": 25428, "werkstraf": 22402, "\u00ee": 30062, "rustige": 18493, "frontale": 11750, "##smond": 28550, "Glo": 2979, "##getrokken": 25632, "Sunweb": 6749, "opmerkelijke": 16924, "romans": 18392, "##letsel": 26792, "verslaggeefster": 21340, "genummerd": 12282, "##comp": 24679, "Kuij": 4156, "ondeugd": 16446, "kosmisch": 14575, "Carey": 1633, "Picasso": 5609, "ongelooflijk": 16481, "schraapte": 18763, "Aid": 666, "YORK": 7716, "##IC": 23399, "##achter": 23814, "##ains": 23897, "Verscheidene": 7324, "zakelijke": 22653, "toffe": 20212, "knopen": 14436, "kwartaal": 14746, "simpele": 18931, "##ienne": 26103, "winkeltje": 22507, "##DW": 23279, "Mitch": 4905, "beleven": 9058, "verkoudheid": 21107, "##gehakt": 25449, "##vaardigheid": 29287, "Koeweit": 4066, "##duivel": 24980, "Parma": 5500, "##schaduw": 28329, "##SG": 23639, "##gewist": 25675, "Zomerspele": 7810, "kleur": 14345, "handig": 13043, "liederen": 15042, "valse": 20717, "AFP": 535, "klauterde": 14310, "strekte": 19673, "Ibrahim": 3542, "euvel": 11397, "oppervlak": 16940, "illustratie": 13610, "terreur": 19992, "voice": 21820, "##low": 26966, "Macro": 4556, "grauw": 12858, "voorwaarts": 21987, "##jak": 26351, "aansluiting": 7984, "schoot": 18746, "##hoff": 25958, "breiden": 9881, "vakgebied": 20705, "samengevat": 18526, "knipperen": 14424, "##komedie": 26577, "duw": 11080, "Grens": 3056, "##ernis": 25164, "vestigen": 21614, "##schakeling": 28334, "ongeloofwaardig": 16483, "178": 226, "telg": 19954, "uitstapte": 20600, "##kader": 26401, "klaarmaken": 14282, "ingelijst": 13708, "tirannie": 20119, "geneeskunde": 12245, "Wielsbeke": 7628, "gewijd": 12601, "predikt": 17680, "bedoelt": 8823, "Salv": 6208, "luchtruim": 15208, "zwijgt": 22960, "Randall": 5853, "leer": 14898, "Koninklijke": 4086, "Bijna": 1249, "cameraman": 10050, "seks": 18853, "Aston": 935, "horizontale": 13446, "Ali": 713, "str": 19628, "##bronnen": 24482, "avonds": 8666, "##211": 23041, "ruiters": 18477, "passende": 17315, "Heil": 3269, "werkelijkheid": 22386, "Ar": 859, "koppeling": 14550, "repareren": 18216, "allengs": 8403, "Bruno": 1502, "vergezellen": 21009, "ritueel": 18344, "Russen": 6138, "eronder": 11350, "Cambridge": 1600, "schuld": 18810, "CNV": 1570, "buitenlucht": 9978, "##x": 136, "##sputter": 28651, "april": 8527, "hatelijk": 13093, "M": 40, "kraampje": 14599, "##lekker": 26769, "##gas": 25372, "##ridder": 28152, "Patroon": 5521, "Eef": 2355, "gestrede": 12480, "zomaar": 22815, "interpreteren": 13841, "verzegeld": 21574, "verschiet": 21310, "##bord": 24425, "Kwi": 4175, "metropool": 15570, "##ige": 26136, "V\u00f3\u00f3r": 7481, "doordringend": 10882, "Klerk": 4030, "##kim": 26489, "Herald": 3315, "##logen": 26931, "Buch": 1511, "Tr": 7032, "Drees": 2244, "Jorien": 3804, "benefiet": 9104, "zwoer": 22965, "radioprogramma": 17953, "##SC": 23632, "##ivi": 26324, "ko": 14448, "##jasje": 26358, "karikatuur": 14122, "##psycholoog": 27942, "##cultuur": 24753, "##bie": 24335, "##oria": 27576, "verwrong": 21564, "##omgeving": 27446, "##spruit": 28647, "gillend": 12708, "struik": 19715, "Infrastructuur": 3592, "##afval": 23874, "vedette": 20779, "##233": 23054, "##EU": 23328, "Ju": 3821, "oftewel": 16217, "Hart": 3212, "olijfolie": 16233, "slogan": 19032, "##bestuurder": 24292, "aantrekkelijke": 8004, "gemaskerde": 12205, "##plo": 27825, "achtervolging": 8137, "theatra": 20051, "volstrekt": 21858, "maand": 15258, "doelpunten": 10804, "wemelde": 22352, "##gebleven": 25394, "onderlinge": 16390, "bewoording": 9473, "Rex": 5951, "hagedissen": 13000, "ontvoerders": 16680, "##laten": 26723, "Moe": 4921, "horden": 13441, "dieper": 10688, "heerschappij": 13125, "Globe": 2981, "just": 14012, "Cher": 1737, "Dutroux": 2297, "jukbeen": 13997, "matig": 15410, "bestuurd": 9300, "##7": 82, "dooie": 10868, "bestormd": 9286, "gezinnen": 12642, "Bos": 1376, "achterwege": 8139, "panden": 17233, "kokos": 14482, "Verona": 7315, "gestimuleerd": 12471, "kippenvel": 14270, "##boot": 24423, "huisdier": 13482, "boegbeeld": 9715, "Kir": 4009, "Thunder": 6930, "##comit\u00e9": 24668, "relatief": 18176, "Tuurlijk": 7106, "keuring": 14219, "Week": 7557, "kromme": 14665, "glinsterde": 12748, "oostkant": 16802, "##lijf": 26860, "##rks": 28205, "##HEM": 23381, "topmanager": 20243, "George": 2888, "donor": 10849, "Colomb": 1848, "57": 466, "Podium": 5672, "vriendschap": 22062, "gevel": 12541, "kajuit": 14042, "wild": 22483, "##on": 27456, "Travi": 7043, "Beckham": 1114, "##kade": 26400, "Giacom": 2937, "##ernood": 25166, "zuchtend": 22874, "plukte": 17551, "Enkhuize": 2457, "homme": 13362, "Sever": 6387, "Zwi": 7852, "##club": 24650, "Vin": 7366, "Hulp": 3491, "dertig": 10626, "aanvrager": 8026, "mini": 15645, "elektro": 11245, "##mme": 27159, "September": 6367, "Agassi": 648, "benaderd": 9094, "protesteerde": 17839, "Alexis": 705, "##beheersing": 24228, "Stri": 6714, "##ovitsj": 27649, "Horeca": 3461, "Goe": 2989, "musea": 15856, "Zi": 7789, "##verlies": 29391, "splitsing": 19299, "onbeholpen": 16320, "Doel": 2182, "##ende": 25114, "berecht": 9142, "rozen": 18445, "Excelsior": 2532, "Rh": 5956, "kalmeren": 14054, "Jesper": 3737, "1961": 339, "##oux": 27627, "melodie": 15509, "Masters": 4692, "##CL": 23241, "##hri": 26010, "Match": 4694, "Trouw": 7064, "stoot": 19605, "with": 22535, "##contracten": 24708, "Wageningen": 7507, "Sol": 6537, "mum": 15849, "pocket": 17557, "##per": 27737, "gezicht": 12636, "veroordeeld": 21239, "Gio": 2960, "abonnement": 8066, "1974": 352, "blos": 9697, "bezwering": 9520, "##corporate": 24715, "Boris": 1369, "Joost": 3795, "Halverweg": 3173, "vertelt": 21419, "Sahara": 6193, "Murray": 5021, "vanuit": 20736, "belediging": 9036, "##wervel": 29706, "observeren": 16182, "verzorgde": 21601, "##vijg": 29462, "poging": 17565, "Herben": 3317, "automobilisten": 8650, "neef": 15983, "verteller": 21417, "meebrengen": 15456, "##co\u00f6rdinator": 24723, "##ondoorgrondelijk": 27469, "Doc": 2173, "hoofdpijn": 13393, "##bouillon": 24439, "test": 20033, "mm": 15704, "brokkel": 9913, "Seine": 6353, "merkbaar": 15547, "Halloween": 3170, "anderhalf": 8474, "##bewijs": 24318, "hierdoor": 13281, "1943": 321, "spijbel": 19275, "geopenbaard": 12289, "huilt": 13478, "##gebruik": 25410, "Want": 7529, "visioen": 21696, "##rei": 28076, "X": 30024, "gelofte": 12179, "faculteit": 11491, "Lan": 4214, "kwartfinale": 14748, "Economisch": 2336, "rugleuning": 18455, "Dicran": 2121, "Trump": 7070, "half": 13007, "##cro": 24732, "##voeren": 29532, "bekertoernooi": 8982, "Als": 738, "Duizend": 2287, "scheepsbouw": 18623, "voelbaar": 21792, "district": 10760, "Elias": 2406, "rechtstreeks": 18054, "stoffelijk": 19578, "Verenigd": 7290, "Geometr": 2886, "Rechts": 5889, "uitgeprocedeerd": 20529, "Schr\u00f6der": 6318, "##tallen": 28886, "geland": 12138, "ruiter": 18476, "Arts": 920, "##nota": 27345, "Nieuws": 5182, "##33": 23078, "blauwe": 9632, "verdedigers": 20915, "##gevallen": 25638, "##journalistiek": 26379, "miniem": 15647, "flexibele": 11641, "Biblio": 1239, "balanceer": 8707, "ab": 8061, "Vermeir": 7312, "Onduidelijk": 5336, "demonstreer": 10607, "Ieper": 3552, "Abdel": 575, "genuanceerd": 12281, "leveranciers": 15004, "vaderland": 20693, "1948": 326, "Derek": 2093, "staken": 19401, "Inge": 3593, "geactiveerd": 11843, "Boss": 1381, "##MT": 23499, "##OI": 23548, "##machine": 27009, "April": 856, "onthuld": 16606, "persoonlijkheid": 17402, "stukjes": 19736, "religieus": 18187, "##accommodatie": 23806, "Hiermee": 3357, "Pi": 5606, "Hoi": 3404, "mari": 15370, "samenhangend": 18530, "1980": 358, "verdedig": 20910, "##mazzel": 27068, "##gevaar": 25636, "crucia": 10438, "zestien": 22733, "##eeuw": 25029, "losliet": 15189, "vragen": 22031, "driftig": 10978, "##schrift": 28403, "omdraaide": 16240, "##dag": 24780, "##dreiging": 24942, "mysterieuze": 15876, "##halve": 25851, "autobiografisch": 8643, "##drager": 24935, "##gepikt": 25542, "ca": 10033, "aardbeien": 8044, "blokkeer": 9684, "knorrig": 14440, "Crystal": 1966, "Android": 796, "venture": 20831, "stuit": 19731, "v\u00e9\u00e9l": 22136, "zusje": 22902, "Halle": 3168, "Minister": 4887, "Die": 2123, "arbitrage": 8538, "opmerkte": 16926, "vertrekt": 21438, "meelevend": 15467, "Kooten": 4096, "mompelde": 15762, "promover": 17822, "Venezuela": 7273, "Samen": 6213, "Blijf": 1294, "Telekom": 6856, "Prest": 5735, "hoofdsponsor": 13401, "Hoge": 3401, "Doesburg": 2185, "gevulde": 12571, "gehuisvest": 12079, "indrukwekkende": 13675, "##liet": 26845, "variant": 20742, "##8": 83, "H\u00f6": 3513, "Janssens": 3701, "personenauto": 17397, "##sraad": 28652, "Technisch": 6836, "hoopvol": 13428, "team": 19884, "begeef": 8881, "Ba": 1014, "bio": 9594, "Verzamel": 7336, "Moeilijk": 4923, "graai": 12829, "##meubel": 27122, "##voorschriften": 29560, "##zuur": 29943, "trots": 20388, "##recht": 28044, "ski": 18957, "begrijp": 8901, "verbeelding": 20857, "onduidelijk": 16454, "##leving": 26810, "opgedoken": 16852, "##mogensbeheerder": 27187, "verklaard": 21086, "haalt": 12988, "hakken": 13004, "doeltreffend": 10808, "Hank": 3187, "##feest": 25245, "##auw": 24124, "verg": 20984, "Rosenm\u00f6ller": 6088, "athe\u00efs": 8615, "##klooster": 26542, "herstelde": 13247, "elf": 11253, "overhoop": 17120, "Teddy": 6841, "roept": 18373, "Geschiedenis": 2913, "Megach": 4759, "tand": 19853, "voorspoedig": 21952, "Cel": 1685, "woedend": 22542, "uitgeschakeld": 20536, "##DEN": 23262, "##handschoen": 25861, "schelden": 18634, "1967": 345, "Br": 1410, "Ruiter": 6127, "ethische": 11384, "##gels": 25502, "onderscheiden": 16404, "Gewoon": 2926, "##staal": 28671, "kiezer": 14240, "##essie": 25186, "spelersgroep": 19259, "Russische": 6141, "behoefte": 8948, "dementie": 10598, "Liszt": 4404, "autoriteit": 8657, "dusdanig": 11071, "als": 8421, "IS": 3533, "beschuldigde": 9219, "Football": 2692, "gistermorg": 12716, "boek": 9719, "th": 20046, "telde": 19931, "weggestuurd": 22315, "##iaanse": 26036, "gemeenschap": 12209, "verzette": 21586, "Waasland": 7501, "resident": 18237, "archieven": 8546, "magnetische": 15303, "blijkt": 9649, "Maaike": 4532, "handje": 13044, "##tut": 29153, "herenhui": 13201, "dromen": 10999, "Provincie": 5774, "concurreren": 10307, "cricket": 10425, "stel": 19474, "##UIT": 23698, "##staten": 28701, "##spect": 28593, "verkregen": 21113, "##acris": 23824, "spionnen": 19288, "experimenten": 11440, "bakstenen": 8705, "onzichtbaar": 16764, "Etienne": 2495, "beschutting": 9224, "herdenking": 13197, "beugel": 9357, "kopje": 14545, "onontbeerlijk": 16544, "##vrucht": 29603, "##trouw": 29121, "Financial": 2640, "Stem": 6660, "geschrapt": 12413, "1": 16, "man": 15333, "Tiff": 6946, "Italia": 3649, "##car": 24537, "Cataloni\u00eb": 1670, "##BZ": 23230, "columnist": 10222, "vragend": 22032, "Zaken": 7757, "zelfverdediging": 22714, "betaal": 9308, "Thorn": 6923, "##plaatsen": 27796, "muzikaal": 15868, "draf": 10942, "fameu": 11499, "weinige": 22331, "Camp": 1605, "Dall": 2026, "##bil": 24342, "##cri": 24728, "cluster": 10197, "Leb": 4263, "cast": 10078, "originele": 17040, "beweren": 9445, "Fashion": 2582, "aanvankelijk": 8018, "strelen": 19674, "Wright": 7710, "via": 21627, "##cat": 24541, "liquide": 15118, "##47": 23096, "republikein": 18229, "zwaargewond": 22919, "Sterren": 6672, "Wyn": 7715, "historische": 13312, "Nicc": 5159, "##scriptie": 28429, "Holding": 3406, "Lind": 4386, "##drukte": 24966, "divers": 10764, "dwaling": 11089, "gepantserd": 12300, "##fobie": 25304, "verkies": 21080, "binnenland": 9588, "zonsopgang": 22846, "national": 15948, "asbak": 8590, "Tang": 6822, "hierme": 13282, "##staart": 28676, "verwijst": 21541, "##kaart": 26393, "##zw": 29944, "wereldrecord": 22375, "##skracht": 28506, "doorschijnend": 10894, "gebeld": 11868, "neerwaarts": 16001, "noodzakelijk": 16117, "##concludeerd": 24692, "sac": 18512, "duiken": 11043, "##keken": 26446, "##zienbare": 29892, "747": 489, "##gesleept": 25595, "##ica": 26052, "verhuisde": 21054, "verbiedt": 20866, "##kandidate": 26417, "Bolivia": 1339, "centralis": 10103, "##rock": 28215, "aarts": 8052, "afstandsbedien": 8326, "onthutsend": 16610, "##beveiliging": 24307, "mooiste": 15791, "##egem": 25037, "wervelend": 22415, "Arie": 890, "groen": 12906, "verroeren": 21292, "##kkie": 26504, "##ry": 28294, "vijandige": 21657, "Buur": 1551, "geschreven": 12416, "##54": 23108, "observeer": 16181, "##hals": 25850, "##hang": 25863, "alternatief": 8426, "##ticket": 28991, "##selen": 28447, "##zig": 29895, "partner": 17299, "##mische": 27150, "waarschuwend": 22184, "Boy": 1408, "##achtige": 23819, "noordwest": 16128, "vervanger": 21460, "verdeling": 20921, "Faber": 2555, "Henderson": 3298, "LPF": 4186, "rechtbank": 18037, "hoesten": 13337, "piloot": 17442, "trouwen": 20393, "##jury": 26390, "Stadium": 6623, "donderslag": 10842, "##uter": 29262, "##vrees": 29587, "sproei": 19353, "gelukzalig": 12196, "rottend": 18434, "maanlicht": 15265, "une": 20650, "Richard": 5972, "prut": 17859, "##t": 132, "Hollandsche": 3412, "##dou": 24923, "slimmer": 19024, "Rijkswaterstaat": 5993, "straal": 19629, "ligt": 15075, "Brief": 1456, "##41": 23087, "Wolfsburg": 7686, "barricade": 8751, "kernwapens": 14201, "entree": 11304, "##liefde": 26839, "goede": 12781, "Caribisch": 1634, "muurschildering": 15866, "voorstelde": 21957, "beklaag": 8986, "Militair": 4872, "isoleren": 13908, "dialect": 10652, "doffe": 10814, "##ough": 27620, "##chu": 24607, "later": 14873, "personage": 17390, "gunstige": 12974, "samenwerken": 18536, "lunch": 15238, "wier": 22455, "Dicht": 2118, "ru": 18446, "muzikale": 15869, "tweeling": 20441, "Vogel": 7418, "##horse": 25989, "##zwaard": 29946, "bevoegde": 9400, "academische": 8080, "overval": 17173, "Zin": 7801, "Mika": 4864, "1941": 319, "Spek": 6583, "Culturel": 1972, "volken": 21841, "##elarij": 25065, "spaar": 19202, "Thierry": 6913, "Ouders": 5420, "culturele": 10447, "Kab": 3870, "werkvloer": 22406, "##ificatie": 26127, "##boer": 24401, "r\u00e9": 18502, "Waregem": 7533, "huur": 13526, "herinnerd": 13215, "##WF": 23742, "begrijpend": 8904, "perfecte": 17375, "##caf\u00e9": 24525, "vuurwapen": 22132, "verschilt": 21320, "Bin": 1261, "sparen": 19214, "##Today": 23689, "gezoem": 12645, "semi": 18859, "##advies": 23852, "dieren": 10698, "##acanth": 23804, "##eux": 25209, "overvloedig": 17179, "geknoei": 12111, "##IV": 23436, "Kara": 3903, "decor": 10552, "##ois": 27413, "buien": 9960, "kegel": 14160, "rustig": 18492, "mensenrechten": 15536, "Mallorca": 4598, "vertoef": 21422, "hoogste": 13416, "##arra": 24054, "##luk": 26976, "##drup": 24967, "last": 14865, "##plekken": 27820, "geanalyseerd": 11849, "Gonzalez": 3005, "scheren": 18653, "Merkel": 4804, "Kroes": 4143, "##koeien": 26562, "Ivoorkust": 3659, "Mma": 4909, "Marijnissen": 4645, "wang": 22222, "Gri": 3060, "##schelp": 28349, "##stapel": 28697, "Holland": 3409, "Everton": 2528, "soja": 19160, "school": 18730, "SCH": 6161, "##ado": 23845, "clown": 10194, "schutting": 18820, "Broer": 1482, "evolueer": 11415, "onrustig": 16562, "beboet": 8787, "##wurm": 29801, "##rommel": 28234, "dichters": 10663, "piep": 17421, "Rijksmuseum": 5992, "principe": 17735, "universitair": 20657, "Bonnie": 1356, "kleer": 14323, "hereniging": 13203, "vingertop": 21683, "stelling": 19481, "##ace": 23808, "greppel": 12872, "organiseer": 17031, "slacht": 18969, "telefoneren": 19934, "speelde": 19240, "##teur": 28964, "broze": 9932, "Natuurmonument": 5099, "mos": 15811, "1975": 353, "tevergeefs": 20039, "coureurs": 10403, "glimlachen": 12741, "Prix": 5749, "patroon": 17336, "Liz": 4415, "Cour": 1940, "gealarmeerd": 11846, "za": 22633, "leegte": 14894, "west": 22417, "##dieven": 24854, "overwoekerd": 17190, "verrukkelijk": 21295, "voorover": 21937, "Gu": 3092, "Th": 6896, "wijzer": 22477, "##erhaupt": 25150, "schrikt": 18786, "personal": 17392, "##EER": 23290, "Chrys": 1774, "Ameli": 756, "##sso": 28665, "##evic": 25217, "##bia": 24333, "theoretisch": 20058, "emancipatie": 11269, "sterfelijk": 19503, "##betaald": 24295, "aandoening": 7880, "Mog": 4930, "voorstelling": 21959, "Gister": 2967, "Academisch": 591, "exploderen": 11448, "Thompson": 6919, "glunder": 12766, "ademde": 8178, "gelijke": 12169, "soldaten": 19165, "vleermuizen": 21724, "Luitenant": 4490, "Groningen": 3082, "uiteinde": 20496, "Chris": 1760, "zachtjes": 22645, "regisseren": 18140, "Afdeling": 633, "rede": 18079, "##schoenen": 28379, "landgoed": 14829, "betrekken": 9343, "Frederik": 2745, "Sharif": 6399, "stelde": 19475, "Mogelijk": 4931, "spreid": 19342, "Beatles": 1106, "##klauw": 26519, "Aviv": 980, "spion": 19286, "Green": 3050, "opgroeien": 16891, "##beweging": 24314, "tussendoor": 20424, "verzeild": 21575, "Pakistaans": 5457, "calcium": 10045, "##boog": 24417, "##tau": 28900, "duidelijk": 11037, "extreem": 11468, "##muggen": 27225, "Parool": 5501, "Cop": 1913, "Walter": 7523, "afkeurend": 8276, "##HT": 23394, "pootje": 17603, "##53": 23107, "##erie": 25152, "##kinderen": 26492, "liggen": 15072, "vereis": 20969, "parkeergarage": 17274, "groene": 12907, "dozen": 10926, "restaurant": 18250, "PKK": 5439, "##nut": 27360, "Acc": 593, "hardst": 13072, "verwierp": 21536, "onttrokken": 16668, "werd": 22368, "Peugeot": 5587, "With": 7673, "pessimistisch": 17406, "schatje": 18609, "R\u00e9": 6154, "Ajacied": 672, "onbekend": 16321, "toelaat": 20156, "bedacht": 8793, "voelen": 21794, "snauw": 19104, "Mel": 4770, "taveerne": 19877, "tijdje": 20094, "vossen": 22017, "buitenlands": 9977, "Springer": 6610, "ST": 6169, "ogenblikkelijk": 16221, "commerce": 10241, "Foster": 2707, "Orb": 5386, "Paraguay": 5491, "klagen": 14287, "##fri": 25338, "##6": 81, "apathi": 8511, "arbeider": 8531, "rub": 18447, "strekt": 19672, "geleidelijk": 12160, "Chem": 1734, "stapje": 19427, "##ador": 23846, "knooppunt": 14433, "Helemaal": 3283, "triest": 20356, "balie": 8709, "Rain": 5839, "dicht": 10659, "fiscaal": 11618, "##PD": 23577, "##lichting": 26828, "dankbaarheid": 10520, "Scull": 6335, "elegante": 11239, "##betaling": 24297, "##m": 125, "Brinkman": 1464, "gedempte": 11956, "bedrijf": 8837, "bliksemschicht": 9655, "gestrand": 12479, "##EST": 23325, "contre": 10366, "ontging": 16597, "sinaasappel": 18934, "##armate": 24048, "##hangen": 25864, "Kor": 4101, "inspanning": 13763, "niveau": 16083, "scouts": 18829, "##vinger": 29474, "plaatsvond": 17477, "Molukken": 4943, "##huys": 26031, "neerslag": 15999, "verbieden": 20865, "##atomen": 24102, "Jij": 3749, "expeditie": 11437, "Hoofddorp": 3443, "genoeg": 12269, "Oudenaarde": 5418, "longen": 15157, "deken": 10588, "kreun": 14635, "betreden": 9339, "komkommer": 14502, "Eijk": 2381, "UNI": 7125, "allebei": 8396, "1892": 268, "macro": 15289, "solidair": 19166, "Tsjetsjeens": 7080, "assist": 8604, "au": 8625, "ontslaa": 16648, "top": 20240, "Warner": 7536, "smelt": 19079, "zenuwen": 22726, "##daad": 24771, "denktank": 10614, "##lach": 26681, "##kondigen": 26585, "##96": 23151, "Edwards": 2351, "##kreeg": 26625, "daartoe": 10484, "genezen": 12260, "re\u00efntegratie": 18287, "Bath": 1091, "afstandelijk": 8324, "ATP": 549, "genoegen": 12270, "Lyon": 4515, "##b": 114, "##gegroeid": 25446, "eetzaal": 11167, "Nieuwsgierig": 5184, "trottoir": 20389, "##laaie": 26672, "ballad": 8713, "bisdom": 9604, "sanering": 18547, "rap": 17984, "verstijfd": 21382, "Stout": 6701, "Line": 4391, "verzorg": 21599, "hbo": 13102, "\u00e9": 30057, "Norton": 5246, "Veld": 7262, "##wend": 29687, "feil": 11550, "tegenaan": 19901, "som": 19174, "Goddank": 2986, "Robin": 6018, "##uda": 29175, "##had": 25838, "Edmond": 2347, "8": 23, "Beernem": 1125, "knie": 14409, "##BERG": 23215, "##zza": 29958, "oplost": 16921, "asielzoekers": 8595, "##Z": 111, "1200": 191, "smart": 19068, "Boonstra": 1363, "Stok": 6691, "vulkaan": 22120, "##drijven": 24950, "kastanje": 14134, "wijde": 22461, "logeren": 15141, "onvindbaar": 16736, "psalm": 17861, "##toernooi": 29040, "Lijst": 4371, "Jupiter": 3845, "##ophag": 27540, "Sommige": 6545, "##GC": 23354, "##mbri": 27074, "werf": 22380, "2014": 395, "##beth": 24298, "##cord": 24712, "sneeuwstorm": 19110, "onverwachts": 16733, "##goed": 25749, "daardoor": 10473, "##schrijf": 28405, "Beverl": 1230, "boot": 9791, "##favoriet": 25242, "kuip": 14704, "Cultuur": 1973, "##land": 26702, "verzinne": 21589, "maniak": 15341, "mooie": 15789, "##ula": 29214, "##otter": 27611, "##ipes": 26254, "Kentucky": 3962, "##ouw": 27625, "schub": 18794, "##IL": 23416, "weduwnaar": 22278, "Kristof": 4137, "Arti": 918, "##\u00e9s": 29975, "Pat": 5512, "Singer": 6458, "compagnie": 10260, "Stella": 6659, "roekeloos": 18367, "noten": 16145, "##kken": 26502, "sterkst": 19509, "sukkel": 19770, "Goethe": 2994, "einde": 11212, "dit": 10761, "Lot": 4452, "beeld": 8857, "geselecteerd": 12422, "vermeld": 21177, "verrast": 21279, "EUR": 2317, "snap": 19102, "Jerem": 3730, "degradeerde": 10585, "klachten": 14285, "qu": 17907, "##overschot": 27638, "##hor": 25985, "##stuurde": 28837, "Rover": 6105, "opgelucht": 16861, "Non": 5224, "geopend": 12290, "Daniel": 2037, "##FN": 23346, "##SML": 23648, "stiefmoeder": 19537, "tonijn": 20229, "discotheek": 10747, "Croo": 1958, "uitzondering": 20641, "deel": 10557, "wijst": 22472, "schetst": 18666, "Antonio": 841, "veranderde": 20839, "Carl": 1636, "Ren": 5930, "Rossi": 6092, "onbestemd": 16336, "rivaliserend": 18349, "##arrest": 24055, "bull": 9993, "APPLAUS": 547, "Ierse": 3555, "f": 30028, "smaad": 19058, "fundamentalist": 11769, "##aba": 23789, "ontwikkeling": 16698, "uitbouw": 20478, "basisschool": 8765, "bommen": 9756, "meegebracht": 15462, "Echter": 2329, "elftal": 11256, "levendige": 14990, "##ault": 24116, "##stroming": 28813, "Klaas": 4018, "Ferri": 2619, "gelijkaardig": 12168, "lek": 14937, "onsterfelijk": 16570, "Daarna": 2005, "sympathie": 19799, "##rezen": 28127, "Ab": 571, "Dierckx": 2127, "Wiki": 7634, "Strij": 6715, "stadhuis": 19390, "borrel": 9800, "positieve": 17633, "##prik": 27902, "Luchtvaart": 4476, "aanpalend": 7969, "bedekte": 8803, "Moest": 4928, "Madis": 4564, "Cris": 1955, "Ordening": 5389, "morele": 15804, "personenwagen": 17398, "opheldering": 16896, "zich": 22750, "##spraak": 28627, "vermomming": 21206, "177": 225, "offici\u00eble": 16213, "1869": 251, "doktor": 10818, "tabel": 19823, "Moorsel": 4974, "Egyptena": 2374, "Vandamme": 7228, "waarborgen": 22152, "##SO": 23650, "##kins": 26494, "##vlucht": 29517, "sanctie": 18543, "parkeerterrein": 17276, "##enbach": 25109, "##SE": 23637, "Sta": 6616, "diepste": 10691, "cavalerie": 10086, "fysiotherapeut": 11786, "##kast": 26437, "glanzend": 12727, "Ted": 6840, "verplicht": 21267, "afgewisseld": 8263, "uitgenodigd": 20527, "noteer": 16143, "prae": 17665, "##anda": 23973, "parlementaire": 17281, "Hot": 3467, "##ema": 25099, "hagel": 13001, "verscherpt": 21308, "Mao": 4620, "##cey": 24569, "##zocht": 29911, "hoorzitting": 13434, "schuw": 18822, "zeker": 22698, "argwa": 8556, "Bo": 1312, "Ze": 7769, "schilder": 18693, "##SKA": 23645, "hydro": 13540, "##dacht": 24777, "##tijdperk": 29005, "##vat": 29313, "uitstraalde": 20608, "##inia": 26219, "##oyer": 27663, "Camb": 1598, "erg": 11330, "vergoeding": 21017, "##ellida": 25087, "##slaan": 28511, "##vergoeding": 29366, "Helder": 3281, "kenmerkend": 14177, "##koerier": 26566, "uitsluiting": 20593, "acute": 8171, "geluids": 12191, "##amon": 23963, "##handvol": 25862, "##voeder": 29523, "##uff": 29181, "mythische": 15879, "##BE": 23212, "##langs": 26710, "##uele": 29179, "overwegen": 17181, "maker": 15318, "minnares": 15658, "parfum": 17269, "Dilbeek": 2142, "Bernadette": 1198, "Soedan": 6531, "TMF": 6794, "heerlijk": 13122, "##lin": 26875, "figuurlijk": 11580, "Reid": 5913, "bewijs": 9452, "fusie": 11781, "witte": 22536, "Home": 3424, "Deinze": 2070, "Gabri\u00ebl": 2794, "##Visie": 23737, "Hope": 3458, "rij": 18304, "Chinezen": 1751, "civiel": 10178, "47": 450, "Liberia": 4343, "smaken": 19063, "ransel": 17982, "voorlopig": 21927, "betovering": 9335, "gekocht": 12112, "##weeg": 29666, "geboekt": 11886, "fundamentele": 11771, "technologisch": 19894, "##cornis": 24713, "hoger": 13347, "gra": 12824, "duurder": 11075, "BAM": 997, "dichtstbijzijn": 10665, "afliep": 8289, "afwezig": 8346, "##geschoten": 25586, "Hallo": 3169, "driepunter": 10972, "Janet": 3694, "##erend": 25147, "Tosca": 7018, "onrechtvaardig": 16557, "##ghel": 25712, "Real": 5878, "kwartet": 14747, "voedsel": 21786, "Val": 7211, "schittering": 18713, "1937": 315, "toenemen": 20165, "##guard": 25811, "beproefd": 9138, "kolomme": 14486, "Catalaans": 1669, "willekeurig": 22489, "achterover": 8127, "Rapid": 5861, "##51": 23104, "Plots": 5665, "verhitte": 21042, "##elt": 25097, "Herman": 3326, "##achtereenvolgend": 23815, "##stemming": 28730, "deelnemende": 10565, "Trots": 7063, "beet": 8874, "behang": 8931, "buffer": 9957, "nerveuze": 16026, "draafde": 10931, "Hauspie": 3221, "geslaagde": 12428, "par": 17250, "##EV": 23330, "stimulering": 19565, "##schappelijke": 28340, "##wa": 29613, "bakkerij": 8703, "##down": 24924, "Idols": 3548, "##klimmen": 26536, "##vluchten": 29518, "onvermogen": 16724, "beledigend": 9035, "Kolonel": 4074, "Halic": 3166, "Nederlands": 5112, "Meeuwen": 4756, "Ya": 7717, "motiveer": 15825, "Zweed": 7847, "Entertainment": 2462, "volgend": 21833, "Eeckhout": 2353, "kompa": 14503, "parttime": 17301, "ruk": 18478, "weddenschap": 22270, "corruptie": 10393, "pijnlijk": 17431, "limonade": 15097, "reden": 18082, "##scha": 28321, "Cramb": 1947, "verpleegkundige": 21262, "Marilyn": 4646, "breuk": 9888, "My": 5034, "Scheidsrechter": 6274, "ander": 8471, "feestelijk": 11546, "##bun": 24504, "##geprijsd": 25551, "zinderend": 22782, "Fuchs": 2772, "gebombardeerd": 11888, "##rre": 28263, "groep": 12910, "zachte": 22643, "cannabis": 10057, "schipbreuk": 18707, "edele": 11124, "##bril": 24474, "sfeer": 18890, "anekdote": 8477, "scheep": 18621, "tussentijds": 20428, "hamstring": 13023, "vakantieganger": 20699, "baseer": 8758, "imam": 13615, "##binnen": 24347, "##gemiddelde": 25516, "##voetbalbond": 29538, "Margot": 4635, "##injectie": 26221, "33": 429, "geleend": 12151, "van": 20722, "behalve": 8924, "velletje": 20821, "uitdrukt": 20491, "breien": 9882, "neus": 16043, "vervatte": 21463, "Glas": 2973, "Hoogenband": 3446, "Electrabel": 2396, "valk": 20710, "##gevuld": 25659, "##houwer": 26004, "full": 11756, "angel": 8478, "Agenten": 652, "werkplaats": 22400, "Steenbergen": 6649, "paren": 17268, "Capital": 1622, "Kind": 4003, "gil": 12705, "Am": 746, "##ug": 29184, "helikopter": 13170, "apparatuur": 8520, "plagen": 17481, "Vree": 7459, "antenne": 8497, "opeenvolgend": 16816, "wijkagent": 22466, "##zijn": 29899, "kwetsbaarheid": 14760, "Castili\u00eb": 1664, "Saint": 6196, "house": 13462, "wissen": 22531, "hen": 13185, "Vis": 7378, "Religie": 5924, "beruchte": 9182, "Cecilia": 1683, "angstvallig": 8483, "##voordeel": 29556, "##GL": 23365, "grap": 12847, "boerderijen": 9733, "stomverbaasd": 19595, "pittoresk": 17457, "##gedeelte": 25417, "christendom": 10150, "hertrouw": 13253, "Heaven": 3243, "uiterste": 20500, "Mexico": 4825, "##nemers": 27286, "Gedurende": 2835, "##emb": 25100, "##oda": 27375, "bezitten": 9498, "massief": 15398, "##parlement": 27697, "verried": 21287, "verplaatsing": 21258, "##ondanks": 27458, "Vak": 7208, "kies": 14235, "herrie": 13240, "Vilvoorde": 7365, "Walk": 7515, "longi": 15158, "bereik": 9146, "##kor": 26597, "raket": 17960, "marginale": 15369, "Gis": 2965, "##onium": 27484, "##ANS": 23186, "##SCHE": 23634, "Just": 3849, "##athleen": 24090, "gezondheid": 12648, "Pia": 5607, "eigenschap": 11202, "2000": 381, "verdubbeld": 20952, "53": 460, "Ra": 5819, "Georgi": 2890, "boosaardig": 9789, "bekogeld": 8997, "##slaag": 28509, "##SK": 23644, "##rgi": 28129, "Paulo": 5526, "Hermans": 3327, "elite": 11258, "functioneerde": 11765, "release": 18183, "menig": 15521, "special": 19222, "##dja": 24883, "bedenken": 8808, "Communication": 1871, "km2": 14390, "commissaris": 10245, "maten": 15405, "Harper": 3207, "Maur": 4711, "Cypriot": 1983, "future": 11782, "onopgemerkt": 16547, "nogal": 16099, "##enveertig": 25131, "Zeist": 7776, "gelijkspel": 12175, "##stelling": 28724, "Ibrahimovic": 3543, "dronken": 11004, "wolk": 22556, "Slee": 6486, "ok\u00e9": 16225, "wenkte": 22359, "Cocu": 1834, "Groen": 3074, "overhandigd": 17108, "##geschenk": 25580, "##schrikken": 28412, "##KA": 23440, "officieren": 16211, "##ch\u00e9": 24612, "Bourgondi\u00eb": 1396, "reken": 18165, "##llah": 26904, "formaliteit": 11683, "pit": 17455, "aanzienlijk": 8038, "plotseling": 17544, "##arius": 24045, "Doll": 2193, "##ette": 25201, "asfalt": 8592, "verslagen": 21339, "##verstrekker": 29421, "McG": 4732, "omvatten": 16290, "dwing": 11100, "terugvind": 20028, "##geneeskunde": 25524, "##undai": 29231, "Special": 6579, "Mad": 4558, "goeie": 12791, "staal": 19371, "vaardigheden": 20680, "Siberi\u00eb": 6423, "somme": 19177, "gehuil": 12078, "nederig": 15977, "bos": 9807, "schrijver": 18783, "meewerkt": 15494, "paspoort": 17305, "menu": 15541, "rouw": 18440, "plateau": 17503, "schijfje": 18680, "##klampen": 26509, "Fransen": 2734, "puin": 17888, "Jonge": 3787, "Smart": 6503, "blijven": 9650, "sierlijk": 18914, "##model": 27172, "gemoeder": 12230, "Fransman": 2735, "acteer": 8150, "eetlust": 11166, "grootmeester": 12940, "##palm": 27684, "France": 2716, "##wagen": 29630, "Jersey": 3735, "heimwee": 13149, "verkrijgbaar": 21114, "deinsde": 10586, "con": 10287, "Field": 2628, "Spinoza": 6597, "toetreding": 20192, "gepasseerd": 12302, "##gebouwde": 25403, "deelnemer": 10566, "uitzag": 20631, "##bl": 24354, "kader": 14040, "procedure": 17762, "##rekken": 28087, "##grijzen": 25793, "Jan": 3691, "Katie": 3925, "geweldig": 12589, "##UWE": 23709, "##kies": 26477, "Super": 6750, "kap": 14101, "##omzet": 27455, "wolken": 22557, "status": 19447, "Sluiter": 6500, "betreur": 9345, "opzichtig": 17011, "##uwen": 29275, "afschuw": 8307, "kurk": 14722, "nuttige": 16165, "##bezoek": 24328, "##gie": 25716, "natrium": 15953, "opstandige": 16972, "vegen": 20800, "##gek": 25460, "Master": 4691, "planeto\u00efde": 17488, "bezoekje": 9505, "##pati\u00ebnten": 27712, "blies": 9642, "tact": 19828, "kantoor": 14096, "Nevel": 5148, "bank": 8732, "religie": 18186, "##LM": 23475, "##omme": 27449, "06": 164, "Calais": 1587, "##maal": 26997, "vindt": 21677, "##OM": 23551, "##eenheden": 25017, "pa": 17198, "zwaailicht": 22910, "##party": 27705, "verstrooid": 21401, "overstromingen": 17161, "solist": 19169, "staan": 19373, "Bianc": 1238, "illustreren": 13613, "oester": 16199, "omschreef": 16273, "vleugels": 21733, "quadri": 17909, "wijsheid": 22471, "aandacht": 7871, "##tim": 29010, "opliep": 16916, "Medisch": 4750, "Stal": 6627, "afwas": 8339, "fysio": 11785, "##bis": 24351, "##uze": 29281, "Coalitie": 1828, "magie": 15297, "missionaris": 15693, "##trakteerd": 29080, "zegt": 22692, "Rabb": 5824, "Granad": 3038, "##vloer": 29514, "terugkeren": 20019, "VVV": 7198, "boks": 9742, "gepleegd": 12314, "Ple": 5659, "groter": 12955, "Linnaeus": 4395, "Veneti": 7270, "##hoorn": 25984, "##schepper": 28356, "roedel": 18364, "Pr\u00e9": 5779, "Veendam": 7249, "paarse": 17205, "val": 20709, "redacteur": 18071, "weigeren": 22326, "wetsvoorstel": 22434, "testament": 20034, "pendel": 17357, "geeuw": 12014, "vrijblijvend": 22066, "Low": 4466, "##DH": 23266, "erna": 11343, "comfortabel": 10232, "cello": 10092, "juli": 13998, "mentaliteit": 15539, "##way": 29657, "NEC": 5048, "Schilder": 6289, "nachtmerrie": 15906, "wegliep": 22318, "Goes": 2993, "Ott": 5411, "##instelling": 26237, "fondsen": 11670, "Mechelen": 4741, "speel": 19238, "Nero": 5136, "##stuurt": 28839, "Vito": 7383, "117": 187, "Sander": 6223, "focusse": 11661, "Gebruik": 2832, "##buren": 24509, "noir": 16101, "Chr": 1759, "Twaalf": 7108, "bordeel": 9794, "tout": 20264, "##slagen": 28516, "Luik": 4486, "groepering": 12912, "Olaf": 5300, "##oppervlakte": 27552, "waardoor": 22164, "Monica": 4954, "hot": 13453, "aftreden": 8329, "games": 11804, "Shop": 6416, "Dagblad": 2016, "Tamil": 6819, "zat": 22669, "Mir": 4893, "weerzin": 22302, "Adriaanse": 621, "Dallas": 2027, "##rtigjarige": 28267, "Alles": 726, "schokkend": 18720, "##nummers": 27358, "Toe": 6987, "##gast": 25373, "Hollanders": 3411, "dinosaurus": 10728, "uitzenden": 20634, "vruchtbaar": 22105, "Geraardsbergen": 2895, "Point": 5676, "terzijde": 20032, "verveeld": 21464, "##laan": 26673, "##tatie": 28899, "voltooide": 21862, "Turkse": 7101, "betrokken": 9349, "##elle": 25084, "##regel": 28064, "kater": 14142, "##ontstan": 27501, "Casper": 1658, "fabel": 11477, "pilaren": 17440, "Belgian": 1153, "##iah": 26037, "verslag": 21338, "##ri": 28133, "morgens": 15808, "Landen": 4221, "fok": 11663, "hoedje": 13328, "kaap": 14023, "##1860": 23021, "Cup": 1974, "Ellis": 2420, "Federer": 2595, "Polo": 5690, "genezing": 12261, "voortreffelijk": 21972, "##gevoerd": 25653, "##pora": 27859, "##rijtuig": 28172, "omgevormd": 16253, "opgeruimd": 16870, "1838": 238, "##deling": 24818, "##wold": 29769, "prostituee": 17832, "context": 10355, "high": 13289, "Frankrijk": 2730, "Kunt": 4165, "Flash": 2659, "##gus": 25820, "Zouden": 7822, "Zulk": 7832, "incest": 13655, "kraai": 14595, "wilden": 22486, "moedeloos": 15725, "uitnodigen": 20576, "troonopvolger": 20381, "Tekst": 6848, "romance": 18391, "onder": 16348, "Tolo": 6997, "klampte": 14290, "gebeeldhouwd": 11867, "vredes": 22035, "##igheden": 26139, "Buckingham": 1513, "call": 10046, "rennen": 18205, "Tegenstander": 6845, "televisiezender": 19953, "##geef": 25432, "##aren": 24037, "##ona": 27457, "nietsvermoedend": 16060, "##ato": 24101, "##raat": 27984, "klaargemaakt": 14280, "##moet": 27182, "##old": 27426, "nigro": 16076, "##ksel": 26643, "laatstgenoemde": 14781, "Lucia": 4477, "Vlimme": 7404, "erfpacht": 11329, "hersen": 13241, "zekerheid": 22700, "tevredenheid": 20041, "##chem": 24582, "##pjes": 27790, "##lio": 26887, "##ugel": 29186, "hartstocht": 13090, "##rug": 28272, "1930": 308, "Jenkins": 3726, "slimme": 19023, "inboorlingen": 13646, "bediend": 8814, "luisteren": 15230, "pizza": 17458, "stijging": 19545, "geassocieerd": 11854, "##park": 27696, "willen": 22491, "##rach": 27988, "ooggetuige": 16772, "prullenbak": 17858, "##neut": 27300, "ontving": 16676, "Veurne": 7343, "schoorvoetend": 18745, "verslaggever": 21341, "##SV": 23661, "##figuren": 25272, "jagers": 13923, "elektronische": 11249, "Groene": 3076, "paleizen": 17225, "Kill": 3999, "subjectie": 19749, "vergeet": 20995, "negentig": 16014, "noemen": 16094, "Giel": 2945, "Egypte": 2373, "remake": 18195, "aaneenge": 7884, "##45": 23094, "Ley": 4334, "##alle": 23937, "##gram": 25776, "Blank": 1285, "schadelijk": 18586, "##juk": 26386, "650": 477, "##ther": 28977, "200": 380, "haring": 13077, "##ava": 24126, "Technische": 6837, "NOC": 5055, "Vluchtelingen": 7408, "trut": 20399, "bedrieglijk": 8836, "advies": 8201, "ge\u00ebrfd": 12662, "rot": 18428, "##where": 29721, "schatkist": 18610, "bekken": 8985, "##anus": 24013, "##schilder": 28373, "##lard": 26716, "110": 182, "##jouw": 26380, "Wayne": 7552, "fun": 11758, "felicite": 11558, "Distri": 2159, "##tube": 29137, "Wolfgang": 7685, "##uleerd": 29219, "Well": 7574, "beledigd": 9033, "##rennen": 28103, "##republiek": 28109, "ontdekken": 16586, "scheidsrechter": 18631, "Kooi": 4089, "##rook": 28243, "##arno": 24051, "different": 10707, "pruik": 17855, "taalkundige": 19818, "##ruf": 28271, "##elijke": 25077, "werkgroep": 22392, "musket": 15861, "middenklasse": 15597, "rotzak": 18435, "welkom": 22345, "##promoot": 27931, "##kleding": 26522, "vitaliteit": 21709, "##wijl": 29737, "##ets": 25198, "CDA": 1566, "##kant": 26423, "depressie": 10617, "Partners": 5505, "kw": 14730, "manipulatie": 15347, "creatie": 10415, "lichamelijk": 15024, "##ph": 27754, "trok": 20373, "Nantes": 5079, "##reiziger": 28081, "West": 7601, "##rant": 28020, "##uctie": 29174, "verwezen": 21533, "staakt": 19370, "tropische": 20387, "Form": 2699, "liquiditeit": 15119, "Schei": 6273, "##li": 26816, "##hof": 25957, "besturen": 9297, "##endael": 25113, "How": 3478, "Deze": 2109, "Gran": 3037, "oefeninterland": 16196, "Limburger": 4381, "overlijden": 17140, "##otes": 27603, "##aji": 23903, "afvallige": 8332, "##opvang": 27559, "Ben": 1165, "regerend": 18126, "##pijn": 27771, "organiseerde": 17032, "Christus": 1773, "linksaf": 15109, "##mico": 27126, "overleed": 17129, "Brasschaat": 1430, "broodje": 9925, "##knappen": 26548, "auteurs": 8635, "beschikt": 9204, "##anes": 23983, "##cilinder": 24620, "gezorgd": 12652, "must": 15862, "##uld": 29217, "##stone": 28771, "notitieboekje": 16149, "Market": 4659, "Twitter": 7115, "##ure": 29246, "voorlaatste": 21922, "Album": 692, "Sea": 6337, "Blond": 1305, "##orgaan": 27567, "oost": 16797, "ijverig": 13598, "uitgerekend": 20532, "onbeschermd": 16334, "##nieuws": 27317, "##owitz": 27656, "##makelij": 27024, "controleur": 10372, "genadeloos": 12238, "vochtig": 21778, "verlost": 21168, "##schrik": 28411, "##FI": 23342, "manipuleren": 15348, "##loopt": 26949, "##altaar": 23947, "geknield": 12109, "rimpel": 18329, "aangeven": 7924, "huilend": 13477, "crucial": 10439, "Light": 4366, "##5000": 23102, "##ice": 26054, "##NL": 23519, "boodschappen": 9778, "##freak": 25336, "##gasten": 25374, "denkbeeldig": 10611, "gevorderd": 12566, "Ok\u00e9": 5298, "Kett": 3974, "klassen": 14305, "Koop": 4092, "archeologie": 8542, "##plicatie": 27823, "##verontreiniging": 29400, "be\u00efnvloeden": 9527, "##rees": 28062, "##DM": 23270, "##wijck": 29732, "Slavisch": 6483, "gewaa": 12573, "Traditione": 7036, "If": 3557, "rammel": 17968, "##leund": 26798, "##wee\u00ebn": 29674, "##Australaziatisch": 23207, "gewaardeerd": 12576, "doorbraak": 10873, "ongewapend": 16510, "bekerfinale": 8981, "knikt": 14418, "weduwe": 22277, "Mahler": 4578, "moesten": 15741, "BR": 1009, "Sky": 6475, "Hero": 3330, "bestuder": 9295, "getooid": 12501, "voorwaarden": 21986, "##arbeid": 24027, "geaccepteerd": 11841, "klassement": 14304, "RIVM": 5812, "erkennen": 11339, "glasvezel": 12730, "##geboren": 25400, "lijm": 15084, "Sex": 6389, "Mei": 4762, "migranten": 15605, "overeenkomstig": 17091, "##box": 24448, "Lotharingen": 4454, "smeken": 19077, "Brussel": 1503, "Zottegem": 7820, "feestdagen": 11545, "massa": 15392, "landbouwproduct": 14821, "vries": 22064, "##grootvader": 25805, "##wennen": 29690, "ongeduld": 16469, "##grafische": 25775, "Gor": 3012, "1979": 357, "belandde": 9016, "terrein": 19989, "komisch": 14500, "41": 443, "Gew": 2921, "ruige": 18458, "voltooien": 21863, "zesde": 22729, "##\u00efsche": 29987, "Verbaasd": 7280, "##hoon": 25981, "##gil": 25722, "besmet": 9243, "amulet": 8458, "atoom": 8621, "##ify": 26133, "Ursula": 7164, "##bruin": 24491, "Feitelijk": 2599, "Hawaii": 3229, "Lex": 4333, "plaatjes": 17465, "tape": 19863, "straks": 19648, "joh": 13960, "conform": 10316, "##huizen": 26020, "imiteren": 13617, "##clav": 24646, "##beeck": 24207, "oppermachtig": 16939, "gek": 12092, "Timmer": 6962, "Russisch": 6140, "Jansen": 3699, "smaakt": 19060, "Africa": 640, "aandringen": 7882, "##code": 24658, "doorgevoerd": 10888, "geschapen": 12391, "##lis": 26891, "pool": 17597, "kamelen": 14059, "coulissen": 10395, "treiter": 20342, "Than": 6900, "##omheen": 27447, "##serv": 28453, "evaluatie": 11400, "Porto": 5706, "##duid": 24974, "oproep": 16957, "woedde": 22540, "##draait": 24932, "Brinkhorst": 1463, "##TER": 23671, "raam": 17930, "##druppel": 24968, "moordzaak": 15797, "##gezelschappen": 25690, "##ler": 26781, "##odi": 27377, "Hitler": 3384, "##vangst": 29305, "Ellen": 2417, "kasteel": 14136, "schrille": 18788, "weleer": 22341, "beklemmend": 8991, "Rag": 5835, "uitgeven": 20548, "instrumenten": 13795, "onderdrukte": 16365, "vooruit": 21979, "##oei": 27386, "zond": 22821, "##gewijs": 25673, "Karel": 3905, "##pneu": 27830, "##\u00ec": 30013, "januari": 13930, "##ingenieur": 26211, "Dis": 2155, "Dokter": 2189, "pleitte": 17521, "##vervuiling": 29431, "##haren": 25871, "Congres": 1887, "afwachtend": 8337, "Vreemdelingen": 7461, "deksel": 10592, "klompen": 14371, "ingewikkelder": 13726, "geportretteerd": 12318, "waardering": 22159, "zonnig": 22843, "Opera": 5377, "##ennegentig": 25121, "snikt": 19124, "menschen": 15531, "##ifi": 26125, "##nius": 27325, "##ieel": 26094, "##commando": 24671, "verwijt": 21542, "klokkenluider": 14369, "Gerhard": 2904, "Schippers": 6293, "##shot": 28471, "##tegenwoordigers": 28921, "Eg": 2370, "Europees": 2510, "mate": 15404, "Sarkozy": 6242, "Renault": 5933, "mijmer": 15611, "superheld": 19775, "Melkweg": 4779, "##GS": 23370, "##uitgaven": 29201, "radioactieve": 17952, "Zwitser": 7856, "Village": 7362, "##maker": 27026, "vervuld": 21489, "nood": 16108, "##zelf": 29866, "Di": 2111, "chaotisch": 10116, "Nicholas": 5161, "fundamenteel": 11770, "Maxima": 4718, "menselijke": 15533, "Ferry": 2621, "Swi": 6770, "Goossens": 3011, "groothertog": 12938, "Lust": 4499, "uitvoer": 20619, "##ept": 25137, "##zoet": 29916, "Evelyn": 2522, "##bourne": 24442, "##rain": 28001, "normen": 16136, "adjunct": 8186, "##CO": 23244, "##levert": 26809, "##elen": 25070, "fijne": 11583, "print": 17740, "Bestuur": 1215, "kopi\u00ebr": 14544, "riskeer": 18337, "Friezen": 2760, "productie": 17779, "##AV": 23203, "drietal": 10973, "dubbel": 11029, "##waardering": 29623, "bedwang": 8852, "gedraag": 11983, "drukken": 11019, "South": 6560, "##gno": 25746, "staats": 19378, "##atieve": 24095, "harder": 13068, "overweging": 17183, "##ASH": 23197, "span": 19207, "Rijnland": 5995, "##HEID": 23380, "##sturingssysteem": 28836, "ommeke": 16268, "##defensie": 24811, "groette": 12919, "mp3": 15837, "Volvo": 7435, "levensloop": 14996, "fataal": 11527, "fontein": 11674, "Christiaan": 1764, "schreeuwen": 18772, "##ines": 26204, "workshop": 22594, "echtgenote": 11112, "##child": 24591, "Flex": 2665, "Nedersaks": 5116, "werkt": 22403, "##bond": 24413, "##belang": 24241, "##gevonden": 25655, "afgebeeld": 8229, "kwam": 14744, "opgeven": 16880, "Freud": 2752, "##ers": 25169, "Ruben": 6114, "geuit": 12517, "##1851": 23014, "Chan": 1718, "por": 17617, "vergrijzing": 21019, "##schip": 28377, "1910": 288, "opent": 16837, "vrachtwagens": 22030, "noemenswaardig": 16095, "##buik": 24496, "Yorkshire": 7735, "beide": 8962, "Bennett": 1174, "##aanbieder": 23765, "##vergroting": 29367, "Paus": 5528, "Presley": 5733, "K\u00f6ln": 4181, "dynastie": 11105, "Straat": 6704, "mei": 15496, "Urban": 7162, "Dra": 2233, "fin": 11604, "Haz": 3233, "##lige": 26852, "consistent": 10330, "##coin": 24659, "bijeen": 9551, "##drogen": 24958, "##ving": 29472, "##2": 77, "Lorenzo": 4449, "verwijdering": 21540, "Porsche": 5704, "Dolicho": 2192, "kleinzoon": 14335, "vraagtekens": 22025, "Melo": 4781, "fortuin": 11698, "programma": 17804, "professional": 17788, "##RS": 23625, "Fort": 2702, "overlaten": 17127, "varkensvlees": 20750, "##lichaam": 26824, "veulen": 21624, "##hul": 26021, "geslaagd": 12427, "bewoond": 9471, "verkrampt": 21111, "##plechtigheid": 27814, "boekhoud": 9723, "pompoen": 17591, "##bour": 24440, "Sinds": 6455, "##kelder": 26448, "##soep": 28568, "voorbestemd": 21896, "verhaaltje": 21029, "bekwaam": 9007, "achtbaan": 8097, "##gesneden": 25600, "##cula": 24749, "##ijksuniversiteit": 26154, "##lob": 26917, "\u00ab": 58, "verandering": 20841, "teruggaan": 20008, "kleine": 14328, "luidde": 15215, "vandaan": 20727, "Savo": 6254, "afspraken": 8320, "##muzikant": 27243, "##97": 23152, "##LN": 23476, "bestseller": 9291, "##lidae": 26832, "centra": 10100, "lengte": 14949, "Instituut": 3601, "waterleiding": 22255, "##tif": 29000, "reduceren": 18087, "Astro": 937, "springt": 19350, "Steun": 6673, "Nelson": 5127, "thriller": 20067, "Symphon": 6782, "35": 431, "##cke": 24636, "gebreid": 11901, "verschuiving": 21329, "centraal": 10101, "##ijl": 26155, "##A": 88, "doofpot": 10867, "sijpelde": 18926, "##binden": 24346, "##ius": 26321, "Hitchcock": 3383, "##plein": 27817, "locomotieven": 15133, "Auto": 971, "brandende": 9861, "idee": 13569, "bovenste": 9844, "##251": 23063, "tropen": 20385, "schijnt": 18685, "bevro": 9422, "Joann": 3757, "Legio": 4285, "bekleed": 8989, "mijnheer": 15613, "Blind": 1296, "breekbaar": 9877, "design": 10628, "##eters": 25193, "##innen": 26228, "beaamde": 8779, "besturing": 9298, "dij": 10712, "overnemen": 17148, "##bood": 24415, "Wandel": 7526, "Glasgow": 2974, "Beloof": 1163, "##modellen": 27173, "degradatie": 10584, "##hinnik": 25943, "##que": 27965, "kroonprins": 14676, "##scene": 28317, "East": 2323, "##EG": 23293, "##toren": 29061, "geraadpleegd": 12331, "##letjes": 26791, "voetpad": 21815, "Exc": 2531, "Cap": 1620, "zwaarst": 22920, "Anderhalf": 785, "elektrisch": 11243, "Germaans": 2905, "Bali": 1042, "bemoei": 9088, "##glijden": 25736, "##gebrand": 25406, "##celli": 24553, "occ": 16185, "bedenkelijk": 8807, "blokken": 9686, "oostkust": 16803, "ontvangst": 16673, "operatione": 16841, "begon": 8895, "inkomsten": 13746, "excuses": 11427, "doodstraf": 10862, "koord": 14533, "bestudeerde": 9294, "uitputting": 20582, "neig": 16017, "##dwalen": 24994, "##leverancier": 26807, "Ka": 3866, "Jesus": 3742, "Lucien": 4479, "kwetsen": 14762, "##W": 109, "fabrieks": 11481, "klaagt": 14277, "Litouws": 4409, "potten": 17648, "normalite": 16135, "##81": 23136, "##biljetten": 24344, "pal": 17223, "##trui": 29125, "##droog": 24961, "##maakt": 26995, "\u00f4": 30067, "CPB": 1574, "hevig": 13270, "Alfons": 707, "##ILL": 23417, "Lelystad": 4296, "herten": 13249, "##cephal": 24559, "##mans": 27042, "Jonas": 3783, "huisarts": 13480, "rooms": 18422, "Elke": 2414, "mono": 15775, "Carrefour": 1647, "gewoonlijk": 12612, "schade": 18584, "uitgeleend": 20522, "botten": 9823, "vaatziekten": 20685, "##ba": 24146, "21": 404, "##DEL": 23261, "Flynn": 2682, "##magne": 27018, "bewinds": 9456, "Peters": 5579, "rugby": 18452, "##gehalte": 25450, "##G": 94, "##beer": 24212, "##stijging": 28748, "voldaan": 21824, "gebruikte": 11915, "##delige": 24817, "first": 11617, "grondgebied": 12926, "volgers": 21836, "##redacteur": 28054, "IJ": 3519, "Ibiza": 3541, "##pid": 27767, "vernederend": 21212, "##hulp": 26022, "miljardair": 15628, "Duitsers": 2282, "enthousiast": 11302, "##staand": 28673, "stapeltje": 19426, "exotisch": 11434, "##ouder": 27617, "wereldranglijst": 22374, "voorbereiden": 21894, "Collectie": 1843, "Argentini\u00eb": 887, "Bronckhorst": 1485, "ProRa": 5751, "Wilrijk": 7650, "inhoudelijke": 13737, "stromen": 19695, "verschenen": 21307, "hormonen": 13448, "##ELD": 23301, "lichtvoetig": 15036, "##filosofie": 25280, "genageld": 12240, "##liep": 26843, "##play": 27812, "Friesland": 2759, "##tanden": 28889, "alias": 8390, "kok": 14478, "Gert": 2911, "Schmidt": 6297, "beste": 9269, "##ACHT": 23165, "lineair": 15100, "tankstation": 19860, "##boord": 24422, "kaak": 14021, "stopt": 19613, "Tegenwoordig": 6846, "bestrijding": 9290, "divisie": 10768, "Seattle": 6340, "Kad": 3874, "claxon": 10186, "onderlip": 16391, "naadlo": 15886, "vaak": 20675, "terstond": 20001, "Fergus": 2612, "1868": 250, "Rwande": 6150, "##illa": 26175, "##yan": 29810, "specialisatie": 19224, "weer": 22290, "medicatie": 15445, "plantaardig": 17494, "gerekend": 12357, "Ur": 7161, "##kol": 26572, "Daar": 2003, "Travel": 7042, "Paul": 5523, "alvast": 8431, "voortzetten": 21977, "##cabine": 24522, "##DG": 23265, "##last": 26719, "Griffin": 3068, "remmen": 18198, "behuizing": 8959, "beschrijving": 9216, "Renaissance": 5931, "Annemarie": 824, "##elementen": 25069, "omslag": 16278, "##bezit": 24325, "hermetisch": 13230, "riva": 18348, "laatste": 14780, "familiale": 11501, "middeleeuws": 15590, "punct": 17891, "waakzaam": 22144, "Chang": 1719, "ingeburgerd": 13699, "##sco": 28423, "Hagenaar": 3157, "Bogaert": 1332, "Loc": 4420, "Verder": 7284, "Wevelgem": 7615, "Kroati\u00eb": 4142, "energiek": 11286, "nylon": 16166, "##exit": 25220, "gerichte": 12366, "behoor": 8951, "Carr": 1646, "##leef": 26742, "Platform": 5652, "Lachend": 4198, "Wervik": 7598, "plek": 17522, "Overigens": 5427, "verwarrend": 21513, "ingestort": 13717, "tweehonderd": 20439, "praat": 17657, "##klop": 26543, "vloeide": 21750, "Mos": 4988, "bewoning": 9469, "Chinese": 1750, "tusschen": 20421, "Ullrich": 7141, "##HR": 23392, "bovennatuurlijk": 9841, "Deventer": 2105, "Ang\u00e9lique": 809, "penis": 17359, "behandel": 8925, "Silicon": 6441, "Zweedse": 7849, "bacteri\u00ebn": 8689, "hees": 13131, "all": 8394, "uitstekende": 20604, "BEL": 1001, "Ol": 5299, "##iseren": 26276, "karton": 14127, "##vriezen": 29595, "be\u00ebindig": 9523, "##rec": 28041, "Galatasaray": 2798, "09": 167, "Atl\u00e9tic": 951, "##VV": 23733, "##boten": 24437, "##ontplooiing": 27499, "symbool": 19795, "##indicat": 26201, "voorbijganger": 21899, "##puis": 27953, "##tas": 28898, "opgesloten": 16872, "Meli": 4776, "eeuwenlang": 11170, "beheerd": 8934, "Kroatisch": 4141, "huiskamer": 13491, "dilemma": 10721, "eeuwenoude": 11171, "keep": 14155, "schrok": 18791, "Lanotte": 4230, "toilette": 20214, "Hoor": 3455, "pijnstiller": 17433, "##figuur": 25273, "##ruiter": 28280, "##vend": 29334, "publiceren": 17881, "Phoenix": 5603, "IJzer": 3525, "duurt": 11076, "biljoen": 9572, "rechtse": 18051, "uitgestorven": 20544, "##onge\u00efnteresseerd": 27476, "bewaker": 9429, "ideale": 13566, "Sam": 6211, "bekende": 8972, "##gereisd": 25562, "Nevada": 5147, "stoornis": 19604, "##tru": 29122, "turbulent": 20417, "geiten": 12088, "##prestatie": 27896, "fascistisch": 11524, "##voetbal": 29537, "##uar": 29164, "##cun": 24756, "##uillet": 29195, "Campbell": 1606, "goden": 12775, "degelijk": 10582, "Kitty": 4015, "roofdier": 18414, "opwekt": 17002, "regeren": 18125, "vermoord": 21207, "Gud": 3098, "verzwakt": 21609, "VRT": 7191, "Arabieren": 862, "Fur": 2779, "##ight": 26141, "strandde": 19655, "##llen": 26908, "Maleisisch": 4592, "archeologisch": 8543, "aanduiding": 7883, "woonruimte": 22581, "uitsluiten": 20591, "Nintendo": 5208, "vervuild": 21486, "Bradley": 1418, "lijfwacht": 15079, "nieuwszender": 16073, "##detective": 24835, "##lokaal": 26935, "abstracte": 8073, "AG": 536, "Vital": 7381, "aanbod": 7869, "rilde": 18326, "ontwor": 16702, "##kel": 26447, "160": 215, "h\u00f3": 13557, "##keer": 26445, "##smith": 28547, "##l\u00e9": 26991, "Curtis": 1977, "ontvang": 16670, "verduistering": 20957, "##systeem": 28864, "tart": 19867, "vernederen": 21211, "Wagner": 7508, "Ziekenhuis": 7793, "Havik": 3228, "wielrenner": 22454, "diplomaten": 10734, "sauna": 18558, "brood": 9924, "##iale": 26038, "terughoudend": 20015, "intellectueel": 13805, "##jon": 26372, "toezichthouder": 20210, "Socialistisch": 6527, "##liegt": 26842, "betrouwbaar": 9351, "vulde": 22118, "Orleans": 5399, "Staten": 6639, "motoren": 15828, "afgestemd": 8253, "binnenste": 9592, "##orzaak": 27586, "intimideren": 13848, "prevelde": 17709, "DEN": 1993, "Lib": 4338, "ge\u00ebindigd": 12658, "Onver": 5349, "Wallander": 7519, "prikkel": 17724, "verveling": 21468, "Oostende": 5363, "Natash": 5087, "##maar": 27002, "##kunst": 26652, "Ardennen": 879, "neerslachtig": 15998, "lijf": 15078, "mensch": 15529, "militair": 15622, "choreografie": 10145, "Galax": 2799, "verrekijker": 21283, "##getekend": 25626, "telefonie": 19935, "Schre": 6313, "##volle": 29549, "##IF": 23408, "Var": 7238, "afspeelt": 8315, "##media": 27083, "\u00e2": 30054, "kanon": 14083, "gespeeld": 12447, "handeling": 13033, "Britten": 1475, "verschillen": 21317, "graden": 12836, "##pap": 27690, "Macron": 4557, "kinderlijk": 14262, "Libi\u00eb": 4347, "avond": 8663, "zielig": 22768, "vrijwillig": 22082, "training": 20297, "Doelpunten": 2184, "vrezen": 22052, "##kop": 26592, "flauw": 11633, "politiewagen": 17585, "your": 22632, "##snoer": 28561, "Rijd": 5988, "Standard": 6633, "resoluut": 18241, "Schm": 6296, "Veldhoven": 7264, "toekijken": 20153, "Logisch": 4427, "Kasteel": 3917, "Jabbeke": 3670, "aanvaring": 8019, "alinea": 8393, "geb": 11857, "evenveel": 11410, "Eleanor": 2395, "Handelsblad": 3185, "Vind": 7371, "duld": 11057, "rek": 18164, "slok": 19033, "zakenman": 22656, "##administratie": 23844, "Talpa": 6816, "##twintig": 29157, "citroensap": 10176, "##pla": 27792, "Saudi": 6250, "opgericht": 16867, "Tsi": 7073, "onafhankelijke": 16311, "uitzendbureau": 20633, "Cemetery": 1692, "Yang": 7721, "Dal": 2024, "voer": 21796, "klarinet": 14300, "Iraaks": 3621, "Chantal": 1721, "##VI": 23723, "wederzijds": 22273, "hindernissen": 13299, "Sabi": 6178, "knock": 14426, "ijzersterk": 13601, "538": 461, "beurs": 9361, "koerier": 14460, "gestopt": 12475, "zeuren": 22742, "magi\u00ebr": 15301, "Madonna": 4565, "aangesloten": 7914, "Jim": 3751, "Rochus": 6022, "cd": 10088, "##gue": 25812, "##ole": 27427, "mammie": 15331, "##oxide": 27661, "##heden": 25889, "Janssen": 3700, "##App": 23206, "##blokken": 24387, "gooi": 12804, "kalkoen": 14050, "##protesteerd": 27934, "vervloekt": 21470, "##ades": 23841, "parallelle": 17259, "##plank": 27802, "socialism": 19143, "een": 11130, "Duck": 2269, "obligaties": 16178, "verdrinken": 20948, "duikers": 11044, "##carri\u00e8re": 24539, "corner": 10381, "neergelegd": 15990, "##rus": 28288, "##schok": 28380, "##zit": 29905, "##gedacht": 25414, "##naalden": 27248, "kans": 14085, "belastingvrij": 9031, "glaasje": 12721, "Town": 7029, "Ambtenaren": 755, "dikke": 10717, "##lassen": 26718, "reconstructie": 18065, "beneden": 9103, "rolde": 18385, "##amine": 23960, "projecten": 17812, "gewer": 12594, "Fen": 2608, "patriottis": 17333, "veteranen": 21619, "betaam": 9313, "##unk": 29238, "Animal": 811, "uitspraak": 20594, "rokers": 18382, "marionet": 15375, "Goeie": 2992, "##rat": 28027, "Sme": 6504, "sterrenstelsel": 19514, "effectieve": 11181, "belemmerd": 9055, "gonsde": 12800, "branche": 9856, "##klep": 26527, "##ras": 28024, "zoontje": 22855, "geproefd": 12327, "##dium": 24880, "Gooi": 3008, "bonden": 9760, "zenden": 22718, "Carla": 1637, "omtrek": 16284, "Gina": 2955, "##stem": 28727, "change": 10112, "Opvallend": 5382, "uitgave": 20505, "##dood": 24911, "##uridae": 29251, "Greg": 3054, "beklemtoon": 8992, "##woed": 29767, "Sho": 6415, "70": 482, "magere": 15296, "verticale": 21421, "Voer": 7415, "##blaadje": 24356, "begeleiden": 8886, "lift": 15070, "##ych": 29813, "Koen": 4060, "##alistische": 23934, "Troost": 7060, "eerbiedig": 11153, "Er": 2466, "actief": 8155, "ditmaal": 10762, "veroorzaken": 21246, "##cus": 24761, "opgeheven": 16855, "##stadion": 28681, "##gemetseld": 25515, "grootschalige": 12944, "Prue": 5776, "Tibetaans": 6938, "##medewerker": 27080, "onderhand": 16374, "grif": 12878, "troostend": 20384, "takje": 19840, "namiddag": 15938, "Genesis": 2873, "Martin": 4678, "Nico": 5164, "baarmoeder": 8680, "stofwolk": 19582, "tussenbeide": 20423, "Och": 5276, "##wald": 29635, "##zwepen": 29954, "##tro": 29110, "Broek": 1481, "verpakking": 21254, "mogelijkheid": 15749, "Kwaad": 4172, "veel": 20783, "##netje": 27292, "Eugene": 2497, "voortgezet": 21968, "##akkers": 23913, "Tyler": 7118, "##ect": 25009, "emotie": 11276, "fragment": 11723, "strafschop": 19644, "Company": 1875, "vakblad": 20701, "eruitzag": 11358, "##peper": 27736, "praktische": 17671, "Pok\u00e9mon": 5678, "Spelen": 6585, "BO": 1008, "##rino": 28184, "Sicili\u00eb": 6424, "flauwekul": 11635, "bis": 9603, "##idius": 26087, "Kontich": 4088, "toetsenbord": 20195, "##IE": 23402, "mannetje": 15354, "redacteuren": 18072, "Ghost": 2935, "hek": 13150, "hervormen": 13258, "Cyprian": 1982, "##AE": 23167, "Niets": 5173, "schudden": 18799, "zuidelijk": 22877, "Kalf": 3881, "Jamie": 3689, "##vordering": 29568, "Gewon": 2925, "halfgeleider": 13009, "##elaere": 25062, "25": 413, "Permanent": 5564, "officieu": 16212, "ogen": 16219, "stroef": 19694, "##ssamenwerking": 28656, "guerrilla": 12964, "##inspecteur": 26234, "vermoed": 21195, "##initiatie": 26220, "leiderstrui": 14933, "gelovig": 12188, "toepast": 20173, "Feld": 2601, "noodtoestand": 16114, "bravoure": 9870, "borg": 9799, "wissel": 22525, "##doek": 24892, "drive": 10991, "##maak": 26994, "##shaw": 28463, "##poliep": 27845, "chimpansee": 10135, "afspiegeling": 8316, "225": 408, "82": 500, "Oost": 5360, "intense": 13811, "nijdig": 16078, "##LL": 23474, "Apache": 848, "goudkleurig": 12817, "##gebeuren": 25390, "lamp": 14812, "meedogenloos": 15458, "##bon": 24412, "ongelofelijk": 16479, "grootte": 12949, "gesp": 12442, "doods": 10854, "Voorbeelden": 7443, "speeltijd": 19247, "gewaarschuwd": 12577, "Schouw": 6310, "rijdt": 18309, "geestig": 12012, "grimas": 12891, "paprika": 17249, "Hilar": 3364, "behoeve": 8950, "##avo": 24132, "nationale": 15949, "##voerster": 29534, "##bibliotheek": 24334, "##voorraad": 29557, "delegatie": 10593, "linksback": 15110, "loom": 15169, "Annelies": 823, "genegenheid": 12249, "noch": 16087, "presentatrice": 17692, "Ulrich": 7142, "zal": 22663, "noordwaarts": 16127, "kwartje": 14751, "stokken": 19586, "##reclame": 28050, "opmerkelijk": 16923, "comeback": 10229, "nazi": 15972, "##hari": 25872, "authentic": 8637, "Vee": 7246, "Mem": 4783, "galerij": 11801, "Lokale": 4430, "Gaan": 2790, "geniet": 12265, "##contact": 24703, "Sieg": 6428, "kijk": 14242, "soelaas": 19150, "opheffing": 16895, "kinderbijslag": 14260, "halfbroer": 13008, "##ngelooflijk": 27305, "Drink": 2251, "bevriezen": 9418, "spottend": 19332, "service": 18883, "##ZEN": 23751, "Char": 1723, "waarnemer": 22174, "##trein": 29095, "Algerije": 711, "misselijk": 15690, "terugtrok": 20026, "sketch": 18956, "Nederlanden": 5109, "Ree": 5894, "verwachtingen": 21501, "lichtelijk": 15029, "Graaf": 3030, "LA": 4183, "hoofdpersonage": 13391, "vervulling": 21492, "afgrond": 8268, "verwissel": 21548, "Cooper": 1912, "ingewand": 13722, "ba": 8672, "hip": 13304, "Main": 4582, "Para": 5486, "##ippo": 26255, "##IR": 23431, "dossier": 10919, "##mini": 27142, "Toy": 7030, "##side": 28474, "##tour": 29067, "preventiev": 17712, "ANP": 542, "E": 32, "Kop": 4097, "EU": 2316, "Vit": 7380, "neusgat": 16044, "hard": 13066, "##nster": 27352, "voorraden": 21941, "gekreun": 12123, "pagina": 17213, "Math": 4696, "monsters": 15781, "bezetter": 9486, "Bjorn": 1274, "##dekker": 24813, "##gestel": 25613, "##uc": 29167, "Willems": 7645, "griste": 12899, "moordenaars": 15796, "Sharp": 6401, "ritzege": 18347, "Country": 1938, "ernstig": 11347, "nodig": 16090, "Griek": 3061, "##verspill": 29419, "leunstoel": 14983, "##hal": 25846, "arena": 8552, "Sur": 6752, "beuken": 9358, "Was": 7540, "Mid": 4847, "filosofische": 11601, "grabbel": 12832, "immigranten": 13623, "braken": 9854, "pupil": 17896, "slingerde": 19026, "Per": 5557, "uiteenzetting": 20495, "vakbond": 20702, "##fonie": 25309, "##kzij": 26669, "heropend": 13236, "verdwenen": 20962, "werkzaam": 22409, "bezoeker": 9503, "##zoek": 29912, "##stro": 28809, "hielen": 13275, "aanvang": 8017, "##anth": 24007, "Schoen": 6300, "gepubliceerd": 12330, "kerncentrale": 14199, "verwoord": 21560, "##zoeksrechter": 29915, "##fragment": 25332, "Roddick": 6026, "##trekt": 29102, "Linux": 4396, "##wierp": 29729, "na": 15885, "inkomens": 13745, "misdadiger": 15675, "##bby": 24194, "Seng": 6362, "voorstander": 21954, "toeleverancier": 20160, "aangewezen": 7930, "gleuf": 12734, "pijlers": 17429, "nummers": 16161, "##bepalingen": 24255, "schoonheid": 18738, "Dr": 2232, "vogelgriep": 21817, "Hebreeuws": 3246, "Anis": 812, "##poging": 27839, "biolog": 9596, "ontzetting": 16708, "Neerpelt": 5120, "hij": 13291, "ge\u00efsoleerd": 12687, "kostte": 14584, "American": 758, "Birgit": 1268, "cl": 10180, "Carmen": 1641, "aangedaan": 7889, "fabrikant": 11482, "##titel": 29026, "verlengstuk": 21142, "##kende": 26453, "zuivel": 22891, "droger": 10998, "##pad": 27674, "communism": 10254, "stonk": 19598, "##motto": 27215, "Aartsen": 570, "##negen": 27281, "Meulen": 4819, "##NO": 23524, "verstrengeld": 21398, "Jacobs": 3676, "Giorgio": 2961, "bloosde": 9692, "##kok": 26570, "##class": 24644, "##loph": 26959, "furieu": 11777, "dekking": 10590, "ornament": 17044, "marktleider": 15383, "overhemd": 17119, "Dijksma": 2134, "teleporte": 19946, "kerstboom": 14204, "##tio": 29017, "lippen": 15115, "Eigen": 2378, "Solo": 6540, "Fabio": 2558, "verhoord": 21049, "wa": 22138, "##ohn": 27407, "beschouw": 9208, "festiviteit": 11567, "##stall": 28688, "wrevel": 22613, "##fase": 25241, "Fowler": 2711, "primaire": 17731, "Nergens": 5135, "Donovan": 2210, "Glen": 2975, "##56": 23110, "##treffen": 29092, "Bree": 1442, "Dessel": 2100, "voerde": 21797, "grootmacht": 12939, "westkust": 22423, "Londen": 4437, "uitvoeren": 20621, "verbrek": 20902, "orkaan": 17042, "Picture": 5611, "Versaille": 7322, "terugkeer": 20016, "kelner": 14170, "Christelijk": 1762, "toevallig": 20199, "##art": 24059, "betrof": 9347, "Rolling": 6053, "schakelde": 18590, "1985": 363, "Gem": 2860, "schikken": 18688, "##bot": 24436, "Damien": 2031, "##ootje": 27532, "Veel": 7247, "##linde": 26877, "architecten": 8549, "talkshow": 19847, "bewaakt": 9424, "tegenover": 19907, "##otheek": 27605, "Hongarije": 3437, "Poolse": 5698, "accordeon": 8089, "##lang": 26709, "kolf": 14485, "verdwijnt": 20965, "kleinkinderen": 14331, "activiteiten": 8166, "meteorolog": 15562, "blind": 9657, "##america": 23957, "##DO": 23272, "##podium": 27834, "voorbode": 21900, "##alniet": 23941, "##cent": 24554, "tikte": 20106, "##schouw": 28397, "concurrentie": 10306, "Fail": 2563, "Genoeg": 2877, "Mul": 5009, "##gordel": 25759, "##lopende": 26956, "Commun": 1869, "40": 440, "eeuwse": 11175, "1841": 241, "beginnen": 8891, "tapijt": 19864, "C": 30, "Vreemd": 7460, "Ladies": 4200, "Nick": 5162, "Ronde": 6069, "Vivian": 7387, "##ynck": 29819, "##lij": 26857, "Playboy": 5657, "series": 18875, "##can": 24533, "tuitte": 20409, "tuin": 20406, "Year": 7728, "Houthalen": 3476, "woonde": 22577, "fanfare": 11508, "stuurde": 19743, "Gord": 3014, "Lambert": 4210, "baten": 8774, "##pu": 27948, "typen": 20461, "ethisch": 11383, "##helm": 25910, "gier": 12692, "gesneuveld": 12441, "Belastingdienst": 1147, "motorfietsen": 15830, "##gelopen": 25500, "Algemene": 710, "##takel": 28879, "proost": 17826, "profiteren": 17801, "##gekamd": 25461, "##euse": 25208, "Tal": 6811, "Brod": 1478, "1837": 237, "boeven": 9738, "Donald": 2201, "Ke": 3936, "mijlpa": 15610, "mechanische": 15425, "federale": 11540, "##werpen": 29705, "Ruby": 6116, "jager": 13922, "##ief": 26095, "##vid": 29452, "##atrice": 24104, "Australi\u00ebr": 970, "biertje": 9543, "##instrumenten": 26242, "afkomst": 8280, "kenners": 14181, "boezem": 9739, "roddel": 18361, "##arrow": 24057, "Hoogeveen": 3447, "rijzen": 18325, "wangedrag": 22223, "gedegen": 11951, "gedrag": 11985, "glijden": 12738, "##gaan": 25354, "Huys": 3504, "##bewaarder": 24312, "UPC": 7126, "browser": 9931, "##fort": 25324, "kaal": 14022, "##air": 23898, "vissensoort": 21700, "dwangsom": 11092, "hing": 13301, "##but": 24517, "##concert": 24691, "##dankbare": 24793, "kruising": 14686, "wetten": 22436, "##organen": 27569, "prompt": 17823, "Spencer": 6587, "##dekkingsreiziger": 24814, "controle": 10367, "onthulling": 16609, "##lappen": 26714, "##29": 23069, "adviesbureau": 8202, "middenvelder": 15601, "Captain": 1625, "kunststof": 14718, "gevangen": 12527, "ski\u00ebn": 18958, "Go": 2984, "twintig": 20455, "moorden": 15794, "schooltijd": 18734, "Goh": 2996, "People": 5552, "vermelden": 21178, "##aties": 24094, "woede": 22541, "fonkelde": 11672, "gehaast": 12044, "magazine": 15294, "aanzienlijke": 8039, "##HN": 23387, "Bruyn": 1507, "gehuurd": 12083, "ter": 19978, "taboe": 19826, "##IJ": 23413, "bijpassend": 9560, "##heem": 25892, "##vaart": 29288, "grijpt": 12885, "##ord": 27562, "m": 30035, "rev": 18277, "##n\u00e9e": 27361, "Head": 3238, "Romeins": 6061, "continent": 10356, "postkantoor": 17638, "reageert": 18010, "kreet": 14630, "vermaak": 21171, "imponeren": 13635, "Schip": 6290, "Serena": 6370, "Wak": 7510, "overzien": 17196, "##vo": 29519, "vliegtuigen": 21741, "Book": 1359, "echter": 11110, "spijt": 19278, "##spoot": 28621, "Boven": 1401, "##anke": 23994, "##236": 23055, "Vu": 7476, "list": 15120, "koek": 14452, "huisvrouw": 13494, "legale": 14914, "fronste": 11748, "Nell": 5126, "Dijssel": 2137, "##ERE": 23318, "##velden": 29331, "Baby": 1022, "werkgelegenheid": 22389, "Frits": 2762, "bevrijd": 9419, "schaatser": 18582, "##sesteenweg": 28456, "gezonde": 12647, "Volkskrant": 7430, "##mogendheden": 27186, "ontkende": 16613, "Morris": 4984, "onvruchtbaar": 16747, "nettowinst": 16034, "1895": 271, "getracht": 12503, "Daarover": 2009, "koloni\u00ebn": 14491, "Burger": 1538, "verdubbeling": 20954, "schoenen": 18716, "wreken": 22612, "minimaal": 15649, "1955": 333, "gewonnen": 12610, "partijbestuur": 17294, "Magnus": 4575, "##idkap": 26088, "Helle": 3288, "hersenbloeding": 13242, "##westerse": 29710, "##P": 103, "alle": 8395, "uitgezet": 20554, "visser": 21701, "avonturen": 8667, "##piloot": 27777, "afzonderlijk": 8359, "blozend": 9700, "##VS": 23730, "##amantha": 23950, "Opsporing": 5381, "Glimlachend": 2978, "Morga": 4979, "bolle": 9747, "##adelijk": 23837, "gebroeder": 11905, "coffeeshop": 10207, "beweerd": 9440, "nauwelijks": 15966, "##her": 25917, "##FA": 23337, "bloedvaten": 9670, "Coll": 1842, "Rus": 6135, "Alpha": 735, "muis": 15842, "##verloop": 29393, "autobiografie": 8642, "mist": 15695, "Sti": 6681, "##president": 27894, "1981": 359, "Voorzitter": 7449, "Zeebrugge": 7772, "gevaarlijk": 12521, "##lith": 26897, "gedetineerde": 11963, "##anhopig": 23988, "Marty": 4680, "beleggers": 9047, "bejegen": 8966, "forum": 11699, "burgerlijke": 10010, "McN": 4737, "Terneuzen": 6873, "Aziatisch": 991, "vestigde": 21613, "zekere": 22699, "##doening": 24898, "ma": 15246, "uitgehongerd": 20517, "aangetast": 7919, "automatisch": 8646, "nuance": 16156, "teleurstelling": 19950, "pakhuis": 17215, "belegger": 9046, "Munt": 5016, "antwoord": 8505, "deze": 10646, "Brabantse": 1415, "Kamerlid": 3887, "Warren": 7537, "##blazer": 24366, "hand": 13024, "Bie": 1241, "##generator": 25527, "##aga": 23878, "prachtige": 17663, "nauwe": 15965, "luitenant": 15232, "##website": 29660, "prinses": 17739, "versnelling": 21354, "interessanter": 13823, "verre": 21281, "schoft": 18717, "beurswaarde": 9366, "componeerde": 10276, "##vaagd": 29283, "verruilde": 21294, "Honduras": 3431, "leid": 14927, "argument": 8554, "##bac": 24153, "Compagnie": 1874, "granaat": 12842, "2500": 415, "afgeleverd": 8242, "rijtje": 18323, "##maatregel": 27005, "opgevolgd": 16883, "Heij": 3265, "rundvlees": 18485, "Allah": 720, "schept": 18652, "lokken": 15152, "##bedient": 24202, "Mobile": 4913, "vuurgevecht": 22128, "Gemenebest": 2866, "Gross": 3086, "Little": 4410, "geven": 12543, "Schwarz": 6327, "ernaar": 11344, "punk": 17892, "##verkiezingen": 29377, "Telken": 6859, "##cap": 24535, "Rai": 5837, "Cassandra": 1659, "dichtbij": 10660, "##ijzen": 26162, "gewoonweg": 12614, "Vanavond": 7224, "proza": 17854, "Engelstalige": 2452, "indringer": 13672, "eist": 11227, "##gepoetst": 25547, "##wolven": 29772, "junioren": 14003, "beleggen": 9045, "willekeur": 22488, "##pper": 27879, "voorstel": 21956, "opbouwen": 16806, "licht": 15025, "stadion": 19391, "##wis": 29760, "behouden": 8958, "fluister": 11650, "##beur": 24303, "gelaatstrek": 12134, "ploeggenote": 17534, "pooier": 17596, "Mah": 4576, "herinnering": 13218, "tover": 20269, "decoratie": 10553, "dezelfde": 10647, "holocaust": 13359, "venijnig": 20822, "opengaan": 16826, "Mueller": 5007, "onderschept": 16407, "bevestiging": 9393, "Division": 2165, "overblijfsel": 17075, "##stelt": 28726, "blink": 9660, "##ontsteking": 27502, "Nere": 5134, "stranden": 19656, "##moes": 27181, "Druk": 2260, "essentieel": 11369, "Nol": 5222, "Seanchan": 6339, "##ora": 27561, "Free": 2747, "1954": 332, "Ami": 765, "Secretaris": 6346, "dienstverlening": 10684, "##OC": 23538, "vleiend": 21727, "##ky": 26668, "##registratie": 28073, "##gerukt": 25575, "Ahmed": 662, "zeilen": 22697, "ritmisch": 18342, "##iri": 26262, "frons": 11746, "Libisch": 4346, "bassist": 8770, "Pf": 5589, "doodsbang": 10856, "##ENT": 23314, "eigenaars": 11196, "wrong": 22618, "emigreerde": 11273, "visie": 21695, "##tafel": 28871, "behorend": 8956, "##UC": 23691, "##nning": 27331, "Rom": 6054, "raken": 17959, "sproet": 19354, "##pik": 27773, "seculiere": 18844, "liggende": 15073, "komende": 14498, "##IST": 23434, "trailer": 20291, "##KK": 23447, "benijd": 9107, "grotendeels": 12954, "korter": 14569, "onvoldoende": 16737, "##isschien": 26284, "Steed": 6646, "bewoner": 9467, "voldoe": 21825, "Westerse": 7607, "beschikking": 9203, "##uil": 29194, "tilde": 20107, "Malm\u00f6": 4600, "gepraa": 12319, "Toscane": 7019, "##beurs": 24304, "getuig": 12512, "sil": 18928, "luidruchtig": 15219, "##icida": 26060, "##hamed": 25853, "ambitieuze": 8446, "##slecht": 28520, "gereedschap": 12351, "mandaat": 15339, "##fabrikant": 25231, "Eerste": 2364, "Holly": 3415, "Speel": 6581, "Madrid": 4566, "Tijger": 6952, "wandelstok": 22221, "##seigneur": 28439, "##ddy": 24803, "iPod": 13560, "Betty": 1223, "Sardini\u00eb": 6241, "##deuren": 24838, "concludeer": 10299, "Tol": 6995, "rusteloos": 18489, "herindeling": 13213, "##ynaeve": 29818, "Lom": 4432, "Rijswijk": 5998, "Kansa": 3895, "Wilhelm": 7640, "beschaving": 9191, "Had": 3152, "archeolo": 8540, "gered": 12347, "opnam": 16927, "##OORD": 23560, "bezorgd": 9508, "stekker": 19473, "##ornith": 27580, "verblijfplaats": 20878, "fantasie": 11511, "uitbraak": 20479, "po\u00ebzie": 17654, "vroegere": 22090, "##dig": 24855, "benoemen": 9111, "Clay": 1807, "##zia": 29882, "##lip": 26889, "slalom": 18981, "verhandeling": 21032, "Wit": 7672, "##eder": 25012, "##wie": 29726, "##rente": 28105, "##remmer": 28098, "mededogen": 15433, "Iraans": 3622, "ongeluk": 16485, "schalde": 18594, "ferr": 11564, "futuristisch": 11783, "shot": 18906, "Call": 1592, "##lta": 26968, "begrotings": 8916, "verkondigde": 21099, "More": 4977, "sentimenteel": 18867, "verlaagd": 21116, "schop": 18747, "Casca": 1654, "Fuji": 2774, "bezetting": 9487, "Ap": 847, "bevoegdheden": 9401, "life": 15068, "patriarch": 17332, "Bush": 1545, "versuft": 21404, "##roede": 28219, "broed": 9900, "roep": 18370, "marihuana": 15371, "Cad": 1581, "gastvrijheid": 11831, "##zaai": 29831, "shirt": 18897, "##gna": 25743, "keur": 14215, "##pta": 27943, "Sleutel": 6487, "akelige": 8373, "straat": 19634, "##\u00c7": 30002, "Girl": 2963, "Waarschijnlijk": 7499, "176": 224, "##stoten": 28779, "Tess": 6883, "wachtlijst": 22196, "Laurent": 4251, "muil": 15840, "verkaveling": 21067, "Vlissingen": 7406, "wanhopig": 22225, "Ton": 7002, "libellen": 15017, "##jongeren": 26376, "vlammen": 21721, "afname": 8295, "caf\u00e9": 10042, "##presentatie": 27892, "pyjama": 17906, "partners": 17300, "reusachtig": 18273, "afgelost": 8244, "Rol": 6049, "badkamer": 8692, "ge\u00ebxploiteerd": 12668, "##suitdrukking": 28847, "poot": 17602, "genoot": 12276, "ArenA": 880, "23": 409, "##rell": 28093, "##ellini": 25088, "koe": 14450, "dobbel": 10770, "amateurs": 8435, "##kleuren": 26531, "blunder": 9703, "middenveld": 15600, "weifelend": 22324, "##presentator": 27893, "Melle": 4780, "Apo": 851, "gelukkige": 12194, "##knecht": 26550, "Ouwe": 5423, "sultan": 19772, "##rantsoen": 28021, "Gucci": 3096, "begonnen": 8896, "briljante": 9898, "Spanje": 6572, "Marianne": 4640, "##spor": 28622, "Py": 5800, "Iran": 3624, "roos": 18423, "Historisch": 3380, "##racon": 27989, "##hu": 26011, "KRO": 3863, "##ometer": 27445, "Hopkins": 3459, "getal": 12489, "Adriaan": 620, "huiverend": 13499, "schuifelde": 18802, "Ternat": 6872, "oppervlakkig": 16941, "##schroeven": 28413, "kronen": 14667, "Aal": 553, "##literatuur": 26896, "##uiz": 29208, "##commissie": 24677, "##portefeuille": 27862, "vliegt": 21738, "Leopoldsburg": 4312, "nauwlettend": 15969, "Holleeder": 3414, "tulpen": 20411, "##IA": 23397, "Brothers": 1489, "##kostuum": 26604, "##clausule": 24645, "Peru": 5572, "plakje": 17483, "keus": 14222, "gedragscode": 11987, "##ell": 25082, "filiaal": 11589, "##paneel": 27687, "##dic": 24842, "Cla": 1794, "##tractie": 29074, "Jones": 3785, "geloof": 12181, "##actie": 23827, "##EGEM": 23294, "eenvoudige": 11144, "ongeregeld": 16497, "dividend": 10767, "koningen": 14513, "deprimerend": 10619, "lakens": 14810, "buffel": 9956, "openbaring": 16822, "oudheid": 17061, "uitge": 20507, "losgelaten": 15185, "Broeck": 1479, "Jouw": 3817, "Chevrolet": 1740, "diensten": 10679, "Eeuwig": 2367, "Werkelijk": 7592, "Halt": 3171, "boekte": 9728, "regenbui": 18118, "scheelde": 18619, "precisie": 17678, "reisde": 18159, "voetbalbond": 21804, "##VH": 23722, "##golven": 25754, "beschrijft": 9214, "resultaat": 18257, "Je": 3716, "##nier": 27313, "##\u00f6": 146, "bacterie": 8688, "verweren": 21524, "tolerant": 20216, "vierkant": 21647, "##zingen": 29902, "hoofdverdachte": 13405, "Dil": 2141, "overgehe": 17100, "##meel": 27085, "##vallen": 29300, "##zomer": 29919, "leugens": 14975, "1850": 245, "misdadig": 15674, "paden": 17211, "Goed": 2990, "onderneming": 16398, "prikken": 17727, "##HO": 23388, "hechtte": 13111, "63": 474, "alibi": 8391, "##idea": 26075, "ondernemen": 16395, "zuiver": 22892, "Wind": 7656, "Vorm": 7452, "lanceerde": 14816, "koerswinst": 14465, "Buma": 1529, "gepast": 12304, "Soest": 6533, "territoriale": 19995, "##lam": 26696, "vlag": 21713, "omvatte": 16289, "##mers": 27112, "afgelopen": 8243, "##lippen": 26890, "Japanners": 3704, "##var": 29306, "##geslapen": 25594, "##slachtoffers": 28514, "Roubaix": 6100, "##1866": 23025, "integraal": 13799, "##pin": 27778, "Schalke": 6268, "Citadel": 1789, "Dui": 2271, "picknick": 17418, "daden": 10491, "afkomstig": 8281, "kolonie": 14489, "##face": 25232, "Geheel": 2842, "bemiddelaar": 9083, "##gende": 25522, "Elisabeth": 2409, "ban": 8722, "Ahmad": 661, "##atine": 24096, "##irwar": 26266, "tegenwoordig": 19916, "verhuur": 21060, "167": 218, "##engevolge": 25118, "##93": 23148, "uitstak": 20598, "huurmoordenaar": 13531, "uiteenlopende": 20493, "begaan": 8878, "ego\u00efstisch": 11189, "gestemd": 12468, "##zy": 29957, "##arab": 24025, "Studenten": 6722, "opgeblazen": 16848, "oorspronkelijke": 16792, "##garantie": 25370, "Camera": 1602, "Napoleon": 5081, "pater": 17328, "##locatie": 26920, "##waardig": 29624, "##wonder": 29776, "Doch": 2174, "Rowan": 6107, "Holst": 3420, "##oogst": 27518, "lopen": 15179, "Wan": 7524, "##leb": 26733, "Zie": 7792, "##waarts": 29625, "onderhield": 16381, "naakt": 15888, "Freddie": 2742, "bulk": 9992, "slap": 18986, "dwaze": 11095, "horizon": 13444, "Khalil": 3985, "stront": 19700, "verrichtte": 21286, "uiterst": 20499, "oproepen": 16958, "vel": 20812, "Andre": 789, "Leerlingen": 4275, "Marx": 4683, "bezetten": 9485, "conf": 10312, "##meid": 27091, "Verwacht": 7334, "##dochter": 24888, "##i\u00eble": 26335, "accountants": 8092, "ziekenfonds": 22759, "vijandig": 21656, "meer": 15473, "##TPG": 23682, "beklom": 8995, "waken": 22204, "##oliemaatschappij": 27431, "dreigde": 10953, "##splan": 28614, "##zzi": 29959, "tegenvaller": 19915, "Cul": 1970, "loonkosten": 15171, "meldde": 15504, "verlengen": 21140, "bevorderd": 9411, "elektr": 11240, "leuke": 14977, "traditie": 20283, "OCMW": 5263, "opklaring": 16901, "bruusk": 9950, "kunstschilder": 14717, "zeggenschap": 22691, "Over": 5424, "broeders": 9902, "Guil": 3103, "oppassen": 16935, "##groep": 25799, "uitgesteld": 20542, "democratie": 10600, "Taxi": 6832, "Ou": 5415, "##1100": 22991, "##zie": 29885, "##aanduiding": 23771, "pil": 17439, "##UY": 23711, "document": 10781, "Tongeren": 7005, "##pit": 27787, "Macedoni\u00eb": 4550, "Falco": 2567, "dienblad": 10673, "##sonderhoud": 28575, "liedjes": 15044, "stedelijke": 19452, "bedreven": 8834, "Scha": 6263, "##personen": 27744, "##trix": 29109, "Epi": 2465, "Juliana": 3832, "Lissabon": 4403, "bruut": 9951, "Klik": 4033, "homo": 13364, "##EVEN": 23331, "scoren": 18828, "Verhulst": 7302, "olympisch": 16235, "##zorgsmaatregel": 29928, "functionele": 11766, "Rangers": 5857, "been": 8866, "introduceerde": 13856, "rund": 18483, "Tro": 7057, "Akkoord": 677, "zonnestral": 22841, "##vergiftiging": 29365, "##meren": 27109, "reus": 18272, "Theri": 6909, "muts": 15864, "Mi": 4828, "stemt": 19495, "1958": 336, "##oit": 27415, "chronologisch": 10154, "##effecten": 25033, "##denken": 24823, "dodelijke": 10787, "hoek": 13332, "ontbond": 16579, "Wilfried": 7639, "##droeve": 24957, "download": 10925, "vaten": 20771, "##be": 24195, "##klaar": 26507, "winstmarge": 22515, "##business": 24515, "##record": 28051, "##roer": 28224, "veilige": 20806, "jaarverslag": 13916, "1890": 266, "bussen": 10019, "zondebok": 22827, "fruit": 11751, "belang": 9017, "dochters": 10778, "bestelle": 9276, "stopcontact": 19608, "luidkeels": 15218, "overboord": 17078, "##nor": 27341, "##steden": 28708, "bouwvakker": 9831, "terugval": 20027, "1972": 350, "noodig": 16109, "##owicz": 27655, "##ff": 25257, "Ouder": 5419, "Restaurant": 5943, "Julius": 3835, "gooide": 12805, "jaloezie": 13925, "leek": 14895, "##juist": 26385, "emmer": 11275, "Donker": 2207, "Rosie": 6089, "stem": 19486, "adolescent": 8191, "entreprise": 11305, "stichten": 19531, "##add": 23834, "TOP": 6797, "##be\u00ebindigen": 24331, "##storm": 28776, "ganzen": 11812, "gravel": 12860, "precieze": 17677, "journaal": 13981, "terugkomen": 20021, "Olympische": 5313, "beek": 8856, "73": 487, "winnende": 22512, "##wetenschapper": 29715, "Zoo": 7815, "achterdeur": 8106, "allround": 8417, "Sneek": 6514, "afwisselend": 8351, "documenten": 10784, "##bergen": 24261, "Filip": 2633, "lezingen": 15014, "motorkap": 15831, "wrak": 22607, "Code": 1835, "vreemd": 22042, "##overeenkomst": 27634, "Aero": 629, "gladde": 12723, "compagnon": 10261, "oppositie": 16946, "##mate": 27059, "beladen": 9013, "Dro": 2253, "achtervolgd": 8134, "immens": 13619, "schepping": 18650, "##ssus": 28668, "##koud": 26606, "grinnikt": 12896, "regisseerde": 18139, "##gepast": 25540, "business": 10017, "##anne": 23996, "##koop": 26589, "Fons": 2688, "Apollo": 852, "##zelfmoordaanslag": 29868, "charme": 10120, "##oom": 27522, "gemoeid": 12232, "shirts": 18898, "randje": 17976, "Toegang": 6988, "pour": 17650, "##ient": 26105, "##osa": 27587, "vlaggen": 21714, "Acro": 603, "##ban": 24168, "Myrm": 5037, "Sa": 6173, "Albani\u00eb": 688, "Bird": 1267, "vluchtelingen": 21768, "Werkgevers": 7595, "##uble": 29166, "##osaurus": 27589, "##une": 29232, "Korte": 4107, "##odont": 27379, "##urg": 29249, "##sko": 28504, "fastfood": 11526, "##opdracht": 27536, "beleving": 9059, "verleidelijk": 21134, "vluchtige": 21771, "##stromen": 28812, "slaperig": 18989, "weerzinwekkend": 22303, "Casablanca": 1653, "kenbaar": 14172, "laden": 14797, "biografie": 9595, "##hin": 25941, "rechter": 18040, "##ELLE": 23305, "wenste": 22365, "Bureau": 1535, "draait": 10939, "bedwingen": 8853, "##issen": 26286, "overtollig": 17164, "##besef": 24275, "Rechercheur": 5886, "militaire": 15623, "Ambacht": 752, "sc\u00e8ne": 18834, "Syl": 6776, "volgt": 21838, "##straffen": 28786, "ronden": 18401, "Scheffer": 6272, "California": 1589, "1990": 368, "Chicago": 1742, "bepaald": 9128, "ondernemers": 16397, "uitnodiging": 20578, "##pakketten": 27679, "Lancelot": 4217, "beheren": 8942, "mossel": 15816, "summier": 19773, "##gekek": 25463, "bombarderen": 9754, "opendoe": 16824, "1947": 325, "berove": 9179, "bezoekt": 9506, "##vlochten": 29510, "Zan": 7761, "onderhouden": 16383, "##ington": 26217, "##anni": 23997, "Iron": 3629, "##worm": 29792, "afscheids": 8305, "gestraft": 12478, "Bach": 1025, "koptelefoon": 14555, "pastorie": 17324, "##PM": 23590, "##drukken": 24964, "##cyclop": 24765, "Eye": 2544, "weglopen": 22319, "diagram": 10651, "voorbehoud": 21892, "Ruiz": 6128, "kardinalen": 14121, "Bouch": 1388, "norm": 16132, "spiraal": 19289, "##week": 29667, "Lor": 4447, "##gend": 25521, "Evergem": 2525, "info": 13684, "Vietnam": 7354, "##thans": 28971, "Atletiek": 950, "Cy": 1979, "##aux": 24125, "Milosevic": 4880, "verbaal": 20845, "##EK": 23298, "##asse": 24073, "##ohl": 27406, "Tara": 6828, "gehanteerd": 12053, "effecten": 11178, "##RV": 23628, "Dominicaans": 2198, "vreemde": 22043, "1922": 300, "Voedsel": 7412, "Metro": 4816, "##market": 27048, "Norbert": 5239, "vakken": 20706, "person": 17389, "##docent": 24887, "Continental": 1907, "toneelstuk": 20225, "Aan": 558, "proviand": 17845, "zending": 22721, "Bild": 1254, "renner": 18206, "Breuk": 1452, "Donderdag": 2204, "marcheerde": 15363, "Full": 2776, "Greenspan": 3052, "##transacties": 29083, "##kap": 26426, "verrassend": 21275, "douche": 10922, "Hans": 3193, "Lou": 4457, "regelgeving": 18108, "##tevoren": 28966, "onderzoek": 16439, "dat": 10532, "Notre": 5249, "verwerp": 21528, "hoeren": 13336, "aug": 8630, "bastion": 8772, "##borg": 24427, "spreekt": 19340, "gewenst": 12593, "openheid": 16831, "september": 18871, "westerling": 22421, "etalage": 11377, "BA": 996, "onderbreken": 16354, "Baptist": 1059, "compliment": 10274, "loonsverhoging": 15172, "##pijp": 27772, "immer": 13621, "##stijf": 28746, "Hudson": 3483, "Marokkaans": 4668, "strepen": 19678, "Gele": 2850, "ICT": 3515, "cre\u00eber": 10422, "gehandicapte": 12050, "doctor": 10780, "opnamen": 16929, "##SN": 23649, "Grove": 3089, "##nce": 27264, "geschud": 12418, "marmer": 15385, "onderzoekt": 16445, "Sonny": 6551, "zeil": 22696, "intu\u00eftie": 13858, "omschrijven": 16274, "##eke": 25053, "begrijpt": 8905, "Sir": 6463, "##VT": 23732, "##smokkel": 28548, "aristocra": 8558, "manifestatie": 15345, "loodrecht": 15164, "##kou": 26605, "##schijven": 28369, "partijgenoot": 17296, "meters": 15564, "tv": 20430, "zijn": 22777, "official": 16208, "Gezi": 2928, "Nashville": 5084, "bureaucratisch": 10004, "sec": 18835, "vierde": 21641, "grondstof": 12931, "trad": 20282, "reageer": 18008, "mol": 15754, "arrange": 8567, "naderen": 15918, "langwerpig": 14852, "##kruid": 26639, "##stil": 28753, "Lukas": 4492, "##socialistische": 28566, "omkoping": 16265, "progressie": 17809, "wachtpost": 22197, "sabelsprinkha": 18510, "resolutie": 18240, "##tolereerd": 29050, "beweeg": 9436, "details": 10637, "Columb": 1853, "onregelmatig": 16559, "##artikelen": 24063, "wapenstilstand": 22238, "##berry": 24268, "Emile": 2428, "plussers": 17555, "##recordhouder": 28052, "joods": 13978, "inzet": 13888, "##RP": 23623, "gedichten": 11966, "lezen": 15010, "veiliger": 20807, "Ori\u00ebntaals": 5396, "##tri": 29105, "##kans": 26421, "camper": 10053, "Sim": 6445, "voorlezen": 21923, "Omega": 5318, "##voet": 29536, "overwonnen": 17192, "ambacht": 8438, "nijpend": 16079, "wagon": 22203, "cyclo": 10457, "##oce": 27367, "Vanaf": 7223, "omhulsel": 16263, "achterin": 8117, "omringend": 16270, "lopende": 15181, "geobsedeerd": 12283, "##9": 84, "zelfrijdend": 22709, "##regime": 28069, "Wolff": 7684, "##zinnig": 29903, "investeringen": 13873, "Association": 933, "verstevigd": 21381, "erkende": 11338, "bijgewoond": 9555, "gemanipuleerd": 12202, "meditatie": 15451, "Commer": 1864, "bek": 8968, "Caval": 1679, "aangesproken": 7916, "Gutenberg": 3118, "Mein": 4765, "lord": 15182, "##schi": 28363, "135": 201, "Rio": 6002, "dag": 10494, "gesmokkeld": 12437, "##kooi": 26587, "##nietigingswapen": 27315, "National": 5092, "ONDER": 5265, "dwerg": 11098, "keversoort": 14226, "verontwaardigd": 21237, "Fell": 2606, "Phyllo": 5605, "##chten": 24604, "verzameld": 21569, "Yvonn": 7746, "gemaakt": 12198, "bewustzijn": 9477, "ongeval": 16505, "opgevoerd": 16882, "Gisteren": 2968, "Renat": 5932, "behandelt": 8930, "##1856": 23018, "Tribun": 7050, "Elfen": 2403, "Montenegro": 4963, "Clint": 1819, "griep": 12875, "Leonard": 4307, "georganiseerd": 12294, "Kabila": 3871, "ingaan": 13696, "persoonlijke": 17401, "huldig": 13504, "versturen": 21402, "Polak": 5680, "optima": 16981, "bedel": 8804, "##editie": 25013, "##NMI": 23521, "euroland": 11394, "plofte": 17538, "reorganisatie": 18213, "uithalen": 20559, "##tisch": 29024, "##TC": 23668, "##e": 117, "besneeuwd": 9248, "Reinier": 5917, "verdwaasd": 20960, "Kur": 4166, "zichzelf": 22753, "PSV": 5443, "##ticus": 28992, "##perikelen": 27739, "locomotief": 15132, "pik": 17437, "##mund": 27230, "etnisch": 11387, "Hongaars": 3434, "volwassen": 21868, "koor": 14532, "Avi": 979, "echt": 11108, "stroomde": 19705, "Johanna": 3771, "Russin": 6139, "Vast": 7241, "Luna": 4497, "Kaapstad": 3868, "dollar": 10823, "Kelly": 3946, "##turbine": 29148, "Plaats": 5644, "redt": 18086, "Benfica": 1170, "Schwarzenegger": 6328, "bomen": 9755, "Eleonor": 2401, "Palace": 5461, "gedronken": 11991, "stal": 19403, "##sstrijd": 28667, "Tilburgse": 6956, "##wen": 29686, "concurrent": 10305, "bevestig": 9389, "\u00ed": 30061, "textiel": 20044, "Tower": 7028, "kust": 14726, "##boon": 24421, "##czy": 24768, "##petto": 27752, "Ontvang": 5347, "Ruyter": 6148, "technologie\u00ebn": 19893, "stilgelegd": 19553, "##oplossing": 27546, "pluis": 17548, "##boe": 24396, "scherm": 18654, "regeert": 18104, "##afspraken": 23871, "recepten": 18030, "Moeskroen": 4927, "##40": 23085, "rauwe": 17999, "drempel": 10960, "close": 10193, "Geest": 2841, "valt": 20719, "Portuges": 5710, "gesch": 12388, "scheepswerf": 18624, "fantastisch": 11513, "beperken": 9132, "dirigent": 10743, "natuurkundige": 15961, "Australisch": 968, "beveiligings": 9383, "Bocholt": 1316, "Cornelia": 1922, "##tegenwoordiging": 28922, "oefen": 16191, "lange": 14842, "Pietje": 5620, "lasten": 14866, "##omstandigheden": 27451, "##ratie": 28030, "erger": 11332, "muur": 15865, "bezwaren": 9517, "##ED": 23285, "##toets": 29045, "schapen": 18604, "dwang": 11090, "aanmoedigen": 7961, "Leefbaar": 4270, "getuigenis": 12516, "terugbetaald": 20003, "uitziend": 20639, "ontvoer": 16678, "politicolo": 17573, "prognose": 17803, "pletter": 17526, "praatte": 17660, "Raoul": 5859, "regelde": 18106, "fluisterde": 11651, "Kos": 4110, "##llicht": 26913, "erfgoed": 11328, "##tina": 29013, "##oos": 27530, "Hadden": 3153, "spiegelbeeld": 19272, "heftig": 13138, "dunne": 11061, "Stur": 6726, "hulde": 13503, "tint": 20114, "Wolf": 7683, "EN": 2314, "Farrell": 2581, "halsband": 13015, "worstelen": 22599, "##ctus": 24746, "bewindvoerder": 9458, "##aantal": 23774, "lacht": 14791, "westen": 22420, "Vittori": 7384, "poll": 17586, "succesvolle": 19760, "agenda": 8361, "Rey": 5952, "Fatima": 2587, "investeren": 13871, "koopkracht": 14527, "ongelooflijke": 16482, "##rio": 28185, "Berlin": 1195, "antisemitisme": 8503, "stichter": 19532, "cadeau": 10039, "loodsen": 15166, "aquarium": 8529, "Nietzsche": 5174, "Regisseur": 5911, "gele": 12147, "stip": 19568, "Street": 6713, "Janneke": 3696, "gescoord": 12420, "tandvlinders": 19857, "zuilen": 22889, "verzekering": 21581, "bevoegd": 9399, "veroorzaakt": 21244, "Dj": 2167, "klanken": 14292, "Peter": 5578, "##ity": 26317, "hoewel": 13342, "##geeft": 25433, "Sul": 6741, "##stop": 28774, "Talent": 6813, "##keuring": 26472, "computerspel": 10286, "Waaro": 7498, "overgang": 17095, "800": 497, "##gelegd": 25490, "##pie": 27768, "##lan": 26699, "##grens": 25787, "##GD": 23355, "##lain": 26692, "##tier": 28998, "Blake": 1282, "##hei": 25899, "##slaat": 28513, "leger": 14920, "##CW": 23253, "##iek": 26096, "Holsbee": 3419, "##ife": 26121, "professor": 17791, "##podia": 27833, "negentienjarig": 16013, "sonde": 19181, "gehucht": 12077, "ambitieu": 8445, "geboren": 11894, "abt": 8075, "toezien": 20211, "##ort": 27583, "Suzuki": 6763, "herenigd": 13202, "wo": 22538, "##lor": 26960, "##apparaten": 24020, "ongrijpbaar": 16520, "##voor": 29555, "ochtends": 16189, "Miles": 4869, "bezocht": 9500, "exacte": 11421, "##krant": 26622, "Adam": 610, "##ulus": 29223, "fractie": 11720, "##adze": 23856, "##grepen": 25789, "geklasseerd": 12100, "##meldt": 27099, "figuur": 11579, "Mol": 4936, "geroepen": 12374, "Q": 30023, "Positie": 5712, "grinnikend": 12895, "##chy": 24611, "Anna": 818, "Baal": 1015, "Duisenberg": 2276, "vermeden": 21175, "opgerold": 16869, "superieur": 19776, "##stunt": 28833, "Psycholog": 5784, "bijgevolg": 9554, "Rusland": 6136, "Fonds": 2687, "modernisering": 15721, "knuppel": 14446, "veeteelt": 20798, "Shan": 6395, "bemoeien": 9089, "tempel": 19958, "bereidwillig": 9145, "vroom": 22097, "klip": 14365, "overtuiging": 17172, "##ulisch": 29221, "stokoud": 19587, "Life": 4363, "captain": 10065, "riool": 18334, "Nazareth": 5103, "Rudolf": 6119, "dominant": 10828, "crematie": 10420, "bord": 9793, "##ecker": 25006, "##koning": 26586, "heerste": 13130, "samen": 18523, "Piet": 5617, "Roeselare": 6041, "majestueu": 15312, "ontploffen": 16635, "Borre": 1373, "Werken": 7593, "overvallen": 17174, "##kruis": 26642, "carnaval": 10070, "##versiering": 29414, "lieverd": 15067, "Kool": 4091, "ongerust": 16498, "kwijt": 14764, "##joeg": 26370, "##lie": 26833, "##schakel": 28332, "micro": 15579, "##kijken": 26482, "Place": 5645, "buitenwijk": 9985, "##draai": 24929, "suizen": 19769, "emotionele": 11279, "Andries": 795, "Kroat": 4140, "gelukkig": 12193, "Wiener": 7629, "lenig": 14950, "Vander": 7233, "clich\u00e9": 10188, "vicepremier": 21631, "##itter": 26315, "violist": 21688, "Middeleeuwen": 4851, "beviel": 9394, "##cher": 24586, "Spot": 6605, "verborgen": 20891, "TT": 6798, "hersenen": 13243, "opper": 16936, "Don": 2200, "stewardess": 19530, "##sport": 28624, "Rolf": 6051, "##ac": 23801, "trauma": 20327, "wijzigen": 22478, "##liswaar": 26894, "##rickx": 28148, "100": 170, "dominantie": 10830, "##besproken": 24281, "Waarme": 7497, "krachten": 14607, "weegschaal": 22280, "##transport": 29085, "Burn": 1541, "Alonso": 732, "gemengd": 12219, "fauteuil": 11533, "voorzien": 21995, "Ess": 2485, "##coureur": 24719, "gelaten": 12140, "Messi": 4813, "liefde": 15047, "Achter": 598, "##aanval": 23776, "##alisatie": 23929, "Investment": 3616, "##wene": 29688, "Ankara": 816, "geluid": 12189, "##kking": 26505, "Massachusett": 4690, "1891": 267, "kerst": 14203, "Justitie": 3852, "Perez": 5560, "zelfdoding": 22706, "astronaut": 8611, "international": 13834, "filter": 11603, "woonhui": 22578, "woord": 22585, "##91": 23146, "##bom": 24409, "##sgraad": 28461, "routine": 18438, "Medvedev": 4751, "leest": 14908, "gedetineerden": 11964, "omgekeerde": 16248, "beleef": 9037, "Esther": 2488, "vals": 20716, "omsingeld": 16276, "##geheim": 25453, "##deed": 24808, "##meerderheid": 27088, "Young": 7739, "intentie": 13816, "dochtertje": 10779, "smet": 19085, "Westerbork": 7605, "herdenkings": 13198, "##gehele": 25454, "##punt": 27955, "INSE": 3531, "Mam": 4603, "bebloed": 8786, "kostbar": 14578, "redde": 18074, "vermorzel": 21208, "promotie": 17820, "##ish": 26278, "rubber": 18448, "Indianen": 3576, "weerbarstig": 22291, "Robben": 6013, "##NIS": 23517, "1973": 351, "##eloze": 25094, "sediment": 18847, "##stort": 28778, "broodnodig": 9927, "##variant": 29310, "RTV": 5816, "##win": 29750, "damp": 10514, "##staard": 28675, "##vlees": 29494, "##ical": 26053, "koffie": 14475, "mor": 15800, "schoonzus": 18743, "vuurtoren": 22131, "edel": 11123, "Welkom": 7573, "krakend": 14612, "films": 11596, "home": 13360, "onrechte": 16555, "koel": 14455, "herkennen": 13225, "sab": 18507, "##anovic": 24000, "##gy": 25823, "uitgevaardigd": 20547, "Hydrop": 3507, "huwelijks": 13536, "Heidi": 3264, "onverstaanbaar": 16727, "3D": 439, "ID": 3516, "feestelijke": 11547, "hal": 13005, "##scholen": 28382, "##system": 28865, "instituten": 13785, "vermoeide": 21200, "##ures": 29248, "Ban": 1052, "scheiden": 18629, "inburgering": 13652, "achterwaarts": 8138, "afwijzing": 8349, "imperialis": 13630, "leiden": 14929, "##AG": 23169, "Lambrecht": 4211, "##heten": 25927, "##kke": 26500, "theorie": 20060, "##pathie": 27710, "Stil": 6684, "vent": 20827, "##igen": 26137, "Foto": 2708, "##reta": 28118, "tralies": 20304, "Wim": 7653, "flap": 11629, "Aureli": 961, "ontmaskeren": 16625, "behoren": 8955, "knap": 14399, "##gehoord": 25457, "##blaas": 24358, "autopsie": 8655, "Honey": 3432, "##leon": 26777, "##zwart": 29950, "ruimte": 18467, "Probleem": 5753, "punten": 17894, "##gelezen": 25495, "machtige": 15284, "gesuggereerd": 12488, "m\u00f3et": 15883, "##besluit": 24277, "Meester": 4755, "Oorspronkelijk": 5359, "##bo": 24391, "Onmogelijk": 5343, "verbrak": 20895, "##WIN": 23745, "Lotte": 4455, "draai": 10936, "grondslag": 12930, "doordat": 10878, "kwestie": 14758, "Waren": 7534, "annex": 8488, "Oosten": 5362, "audit": 8627, "Palma": 5471, "verliep": 21149, "fles": 11637, "##ho": 25948, "Stork": 6698, "dank": 10518, "vlammetje": 21722, "City": 1792, "wetgeving": 22430, "giftig": 12698, "##US": 23704, "##gene": 25523, "beloven": 9075, "dalen": 10507, "Gro": 3073, "Chileens": 1746, "For": 2693, "##talig": 28884, "Tranen": 7039, "glorie": 12764, "##DK": 23268, "##uur": 29270, "car": 10067, "Robb": 6012, "##iola": 26249, "##\u00ebr": 29983, "##bok": 24406, "Drog": 2254, "instelling": 13779, "##1867": 23026, "duwt": 11083, "##pend": 27732, "##tulp": 29142, "fraai": 11718, "##adulf": 23850, "Gulden": 3109, "##verkiezing": 29376, "onopvallend": 16549, "wal": 22206, "##strook": 28815, "##croix": 24734, "aardappel": 8042, "Dresden": 2247, "raak": 17927, "##GG": 23362, "zorgen": 22861, "juichen": 13993, "##ambt": 23953, "goddelijk": 12773, "Werknemers": 7596, "Barak": 1063, "Natuur": 5097, "pont": 17593, "\u00e9en": 22974, "Postma": 5714, "reis": 18157, "roepen": 18371, "Bra": 1411, "Germain": 2906, "acquisitie": 8148, "eeuw": 11168, "industrie": 13676, "A1": 521, "Mess": 4812, "dodental": 10789, "solide": 19168, "gedoemd": 11976, "##bat": 24184, "##ga": 25353, "borduur": 9797, "aankondigde": 7949, "profiel": 17794, "mooier": 15790, "Schi": 6285, "##financiering": 25284, "ontdekte": 16589, "##ORT": 23563, "waas": 22191, "aarzeling": 8060, "##laarzen": 26674, "##wo": 29766, "##sens": 28451, "##geschoold": 25585, "PRI": 5440, "logica": 15143, "personeelsleden": 17395, "hamburger": 13021, "coup": 10399, "gastheer": 11827, "zachter": 22644, "verslaafd": 21336, "##Vandaag": 23736, "##pluim": 27828, "Lummen": 4496, "standaard": 19416, "typische": 20465, "export": 11458, "Totaal": 7021, "Vakantie": 7209, "verzorgen": 21602, "kostbaar": 14577, "##ALITEIT": 23175, "ruig": 18457, "##aldo": 23922, "##demonstratie": 24820, "##gestoken": 25616, "##unie": 29235, "versloeg": 21349, "zwijgen": 22958, "##versterker": 29420, "zo": 22795, "##apparatuur": 24021, "##eestal": 25028, "King": 4006, "laconiek": 14795, "stijve": 19548, "Sidney": 6426, "230": 410, "gevleugelde": 12550, "verschrikking": 21323, "##vermindering": 29395, "mezelf": 15577, "##IEN": 23404, "tentakels": 19972, "THE": 6793, "Organ": 5392, "luidt": 15221, "acteurs": 8153, "ge\u00efnstalleerd": 12678, "##M": 100, "dreigend": 10956, "Dichter": 2119, "kolonisten": 14490, "onzin": 16766, "paviljoen": 17341, "computer": 10284, "trechter": 20330, "##ggs": 25709, "##knuppel": 26558, "Adidas": 615, "geoordeeld": 12287, "klik": 14353, "tegenkwam": 19906, "##reeks": 28060, "gegeven": 12033, "##zag": 29837, "##str": 28780, "1911": 289, "##LAN": 23459, "steel": 19463, "beproeving": 9139, "lieflijk": 15055, "opgezet": 16887, "hielden": 13274, "Boekarest": 1326, "Otter": 5412, "lekken": 14940, "imm": 13618, "Grijze": 3070, "sober": 19138, "eeuwen": 11169, "spreuk": 19347, "##itu": 26316, "Yan": 7720, "krijgshe": 14647, "stille": 19554, "vrijdag": 22067, "Libert": 4344, "##\u2019": 149, "erover": 11354, "Khardan": 3987, "aankijken": 7942, "christen": 10148, "staande": 19374, "kruispunt": 14687, "macho": 15279, "##technologie": 28911, "##muur": 27241, "Beveren": 1229, "##histori": 25945, "28": 420, "##iciteit": 26062, "recente": 18027, "Minute": 4892, "##zua": 29931, "Zalm": 7759, "##vorst": 29575, "hittegol": 13317, "schaak": 18570, "##klassement": 26516, "cons": 10322, "Gut": 3117, "schenken": 18644, "stokte": 19588, "derby": 10620, "##afdrukken": 23864, "Zwitserland": 7857, "dame": 10511, "verwanten": 21505, "televisieserie": 19952, "Lauwers": 4256, "daarboven": 10471, "koopt": 14530, "honderden": 13372, "Dur": 2293, "##EC": 23283, "tegenvallend": 19914, "Eco": 2331, "##mes": 27113, "Woods": 7695, "Londens": 4438, "dagblad": 10495, "fiets": 11572, "Lin": 4384, "gaat": 11793, "Musk": 5027, "walvis": 22210, "Rail": 5838, "1864": 249, "##bazen": 24189, "pro": 17752, "07": 165, "Vaart": 7203, "Stol": 6692, "havik": 13099, "handelaar": 13029, "kunt": 14721, "opzicht": 17008, "Oct": 5278, "##bases": 24181, "pupillen": 17897, "veterinair": 21620, "malen": 15326, "marge": 15367, "nagedacht": 15923, "riolering": 18333, "Igor": 3558, "Copp": 1915, "interview": 13843, "Prima": 5739, "Felipe": 2604, "Valley": 7220, "CAO": 1563, "christelijk": 10146, "economische": 11122, "hefboom": 13134, "indien": 13665, "##street": 28800, "ontgaa": 16596, "Brakel": 1421, "opbouw": 16805, "##dorven": 24920, "rechterhand": 18042, "Knack": 4043, "##huwelijk": 26030, "speculeren": 19234, "Jura": 3847, "##FO": 23347, "Bern": 1197, "Samsung": 6217, "Joop": 3794, "edelsten": 11126, "krijste": 14651, "onvoorspelbaar": 16740, "streelde": 19666, "Dieter": 2130, "linkerhand": 15106, "notulen": 16150, "heldhaftig": 13165, "##ffel": 25259, "wijngaard": 22469, "defensieve": 10576, "alternatieven": 8428, "klap": 14295, "supermarktketen": 19780, "aanvaller": 8015, "tot": 20255, "Duffel": 2270, "Tsu": 7084, "##gaard": 25356, "Sylvia": 6778, "ding": 10724, "horizontaal": 13445, "Buffalo": 1517, "koninklijk": 14517, "muren": 15854, "samenvoeging": 18535, "##kov": 26607, "##regisseur": 28071, "toenmalig": 20167, "Filipijnen": 2634, "beveiligd": 9379, "pantser": 17240, "deelstaten": 10571, "aflever": 8286, "##verschijnselen": 29410, "ingevoerd": 13720, "Problem": 5754, "woestijn": 22552, "##strand": 28791, "psycholoog": 17871, "10": 169, "Venne": 7275, "##construct": 24699, "perkament": 17381, "gebruikmaken": 11913, "kier": 14234, "Leef": 4269, "Sym": 6780, "bezat": 9479, "landstitel": 14838, "##minuten": 27146, "verwarmd": 21509, "Victoriaans": 7350, "##kam": 26405, "Byrne": 1555, "applaus": 8524, "##daar": 24776, "belegd": 9042, "##afgebroken": 23866, "ambtelijke": 8448, "gewraakt": 12618, "Rem": 5925, "Roemeen": 6034, "##voorraden": 29558, "Anderson": 788, "Philip": 5596, "Om": 5314, "Surinaams": 6753, "62": 473, "Willie": 7648, "berekening": 9155, "##beest": 24213, "vijfjarig": 21664, "Dorp": 2222, "geleverd": 12162, "stom": 19590, "Berlijns": 1194, "anoniem": 8493, "uit": 20471, "Tineke": 6969, "regionale": 18138, "##prille": 27903, "uitrusten": 20584, "Internet": 3611, "allereerst": 8406, "Teun": 6890, "verblijven": 20880, "##ilis": 26173, "symboliseer": 19794, "blaas": 9616, "Elektro": 2399, "interessant": 13821, "toonbeeld": 20235, "lava": 14876, "sneller": 19114, "68": 480, "Snel": 6517, "Bois": 1336, "##gem": 25506, "Petegem": 5577, "Berkeley": 1190, "flits": 11648, "Keller": 3945, "waarna": 22170, "arresteren": 8573, "pony": 17594, "tekenen": 19921, "##stick": 28741, "minimale": 15650, "peins": 17352, "hero\u00efsch": 13239, "Sij": 6437, "cockpit": 10204, "##NET": 23513, "##SL": 23646, "##straler": 28789, "item": 13909, "overdosis": 17083, "bak": 8698, "olympische": 16236, "##1857": 23019, "winkelketen": 22505, "##centrum": 24557, "##ul": 29213, "##ith": 26302, "shoot": 18902, "##nkbaar": 27327, "flat": 11631, "##mer": 27108, "Todd": 6986, "Brun": 1501, "afpersing": 8297, "hervormd": 13257, "50": 455, "Westelijke": 7602, "lachwekkend": 14794, "refereer": 18094, "Volle": 7433, "Lob": 4419, "luxe": 15242, "fouten": 11714, "badplaats": 8695, "##geval": 25637, "##DT": 23276, "##nippertje": 27323, "Sancho": 6221, "##oon": 27523, "verzekeraars": 21578, "strafbaar": 19638, "Allen": 725, "houtje": 13465, "##haantjes": 25833, "Amerikaans": 761, "Tadzji": 6804, "portemonnee": 17622, "Balkan": 1044, "##video": 29453, "zwaard": 22915, "##80": 23134, "afreken": 8298, "##oneens": 27471, "hypotheek": 13546, "schoof": 18729, "instellingen": 13780, "olifant": 16230, "figuurtje": 11581, "##schuur": 28421, "gruwel": 12959, "##sterkt": 28734, "afgeschaft": 8248, "Algerijn": 712, "Stevaert": 6675, "apartheid": 8510, "##ECT": 23284, "##formaat": 25318, "mogelijkheden": 15748, "##schreven": 28402, "Volendam": 7422, "##alomtegenwoordig": 23942, "excuus": 11428, "commun": 10248, "speelse": 19244, "eindigde": 11218, "##eerden": 25024, "reinigen": 18156, "China": 1748, "Aurora": 962, "onwerkelijk": 16754, "misbruik": 15670, "overtuigend": 17171, "##jarige": 26356, "##leeg": 26745, "##wijzing": 29745, "##work": 29790, "voorjaar": 21916, "Arnhem": 908, "##entachtig": 25127, "feit": 11551, "stotter": 19625, "##zano": 29852, "Joods": 3792, "zenuwstelsel": 22727, "zilveren": 22779, "bilateral": 9570, "Neu": 5143, "afspraakje": 8319, "mooi": 15788, "trom": 20376, "hulpdiensten": 13506, "Gang": 2809, "verrassingen": 21278, "Lille": 4375, "##PRO": 23596, "##stein": 28718, "gehoord": 12071, "dynamisch": 11104, "progressieve": 17810, "Gi": 2936, "nicht": 16052, "Ralph": 5843, "planeet": 17486, "##gut": 25821, "##erre": 25168, "uitschakelen": 20586, "##ryn": 28296, "bewakings": 9431, "aangeschaft": 7912, "grandslam": 12845, "##brouck": 24485, "detail": 10635, "vi": 21626, "begrijpelijk": 8902, "plasma": 17498, "beantwoord": 8781, "##hok": 25960, "gefluister": 12021, "31": 426, "##kerke": 26462, "solliciteren": 19172, "\u2013": 60, "postuur": 17640, "glippen": 12750, "Dy": 2302, "onstuimig": 16571, "weelderig": 22287, "stationsgebouw": 19442, "afgedrukt": 8233, "Sabena": 6177, "vertegenwoordig": 21412, "Zedelgem": 7771, "##100": 22987, "reclame": 18061, "synthesizer": 19808, "Su": 6732, "schiep": 18673, "komische": 14501, "Proto": 5768, "toppen": 20244, "Kirk": 4011, "klauwen": 14312, "standplaats": 19418, "17u": 228, "##dzj": 24996, "bataljon": 8773, "wandelgang": 22218, "Bijzonder": 1251, "sprakeloos": 19336, "Com": 1856, "Bremen": 1444, "##klachten": 26508, "##worst": 29795, "38": 437, "opwarming": 17000, "tolk": 20219, "ongevraagd": 16509, "arrogant": 8577, "##mur": 27232, "ontwaakt": 16684, "S\u00e9": 6789, "leuk": 14976, "Modern": 4920, "diplomatiek": 10736, "bewapening": 9433, "##ulatie": 29216, "universeel": 20655, "Woning": 7693, "stop": 19607, "##trop": 29118, "##1849": 23013, "##ivu": 26327, "overleefd": 17131, "spannen": 19210, "Burg": 1536, "##KI": 23445, "heersend": 13127, "bv": 10030, "drijf": 10979, "vooruitstrevend": 21981, "##pur": 27957, "##RF": 23609, "112": 184, "Shit": 6414, "vastbesloten": 20753, "verdwijning": 20964, "samengesteld": 18525, "Romeinse": 6062, "##ania": 23990, "bekent": 8978, "##pui": 27952, "sprake": 19335, "##software": 28569, "communie": 10253, "beschuldig": 9217, "Stadion": 6622, "steen": 19464, "gluren": 12767, "page": 17212, "naderde": 15916, "gegroeid": 12039, "gezondheidszorg": 12650, "misschien": 15689, "Vara": 7239, "dwaalde": 11086, "165": 217, "Sjo": 6468, "ergerde": 11333, "ontroerd": 16642, "opgepakt": 16865, "##comm": 24669, "omgeven": 16251, "Latijn": 4243, "Bi": 1237, "schets": 18665, "##rollen": 28230, "pappa": 17248, "Gol": 2997, "G\u00f6teborg": 3128, "opvatting": 16993, "Oostkamp": 5369, "Sylvain": 6777, "command": 10234, "##ons": 27492, "bibliotheken": 9533, "Brussels": 1504, "##wereld": 29694, "##hokje": 25961, "aanstaande": 7989, "Dortmund": 2223, "##GESTELD": 23361, "##geleden": 25487, "Kyoto": 4178, "Heemskerk": 3255, "belga": 9060, "reuk": 18270, "afhaken": 8270, "##rmate": 28208, "zestig": 22736, "Dehaene": 2069, "klote": 14380, "##gerekt": 25564, "busje": 10018, "##BEKE": 23214, "operaties": 16840, "Koophandel": 4093, "zoo": 22847, "nieuwe": 16064, "duurzaam": 11077, "##honderd": 25972, "Eva": 2516, "arriveer": 8574, "##atha": 24089, "mislukt": 15686, "omstreeks": 16283, "kerel": 14190, "Arkonid": 898, "streef": 19663, "verbijsterend": 20869, "hel": 13156, "schilderde": 18695, "Baz": 1100, "verjaardag": 21065, "sleur": 19007, "vernederd": 21210, "cinema": 10162, "Maas": 4539, "jongen": 13968, "schakelen": 18591, "##dino": 24867, "Keyser": 3981, "raketten": 17961, "Beeld": 1122, "paus": 17338, "Vervolg": 7332, "rees": 18092, "Atlantis": 946, "Tokio": 6994, "geprivatiseerd": 12324, "Zwaan": 7838, "Tai": 6807, "provincie": 17848, "ambtenaar": 8449, "collage": 10214, "woon": 22575, "hoofdstad": 13402, "##TRE": 23684, "##jov": 26381, "##machi": 27008, "kletsnat": 14342, "##rel": 28088, "##staande": 28674, "collectie": 10216, "onderschatte": 16402, "##\u00da": 30005, "rauw": 17998, "##aap": 23779, "##rage": 27997, "##lli": 26912, "##brengen": 24467, "ervoor": 11363, "##groeve": 25802, "##museum": 27236, "##eid": 25041, "Emilie": 2429, "Metropolitan": 4817, "##kassen": 26436, "papegaai": 17243, "Heu": 3344, "begroet": 8911, "##veronderstelling": 29399, "landschap": 14835, "ACV": 529, "sociologie": 19148, "##spelen": 28602, "##komt": 26583, "##ald": 23921, "diplomatie": 10735, "initial": 13739, "##persoonlijk": 27746, "buurtschap": 10028, "##scepsi": 28319, "gerinkel": 12371, "benoemde": 9110, "##kijkend": 26483, "buik": 9964, "\u00f3f": 22977, "##bro": 24476, "Lieb": 4350, "Ultra": 7143, "rechten": 18039, "##rag": 27996, "betekenis": 9321, "##geboorte": 25399, "##neus": 27299, "##prijzen": 27901, "##\u00f3m": 29990, "gevoed": 12553, "diens": 10677, "gestaakt": 12459, "IN": 3528, "homoseksuele": 13367, "hoopte": 13427, "moralis": 15802, "##stress": 28805, "ontzet": 16706, "##ung": 29233, "parti": 17289, "##LIJK": 23470, "##geboet": 25396, "wel": 22339, "Breng": 1447, "meester": 15487, "tragedie": 20287, "waarnemen": 22172, "##second": 28435, "Joep": 3766, "Amerikaan": 760, "Columbia": 1854, "Melkert": 4778, "bracht": 9852, "klussen": 14387, "##ident": 26077, "##mara": 27045, "Hoofdpunten": 3444, "Vervolgens": 7333, "##auto": 24120, "Terwij": 6881, "beschouwing": 9212, "Salomon": 6205, "kalender": 14046, "mensenleven": 15535, "tour": 20261, "Da": 2001, "misdadigers": 15676, "##brouwen": 24486, "misbruikt": 15671, "onderkaak": 16385, "ge\u00efdentificeerd": 12670, "##lik": 26869, "##igne": 26142, "kassei": 14132, "##gun": 25816, "behield": 8943, "Jammer": 3690, "emoties": 11277, "explosief": 11453, "lage": 14804, "roei": 18365, "neushoorn": 16045, "schaats": 18580, "terrassen": 19988, "##toe": 29036, "onbewogen": 16342, "zoals": 22796, "q": 30039, "Isabella": 3635, "sabbat": 18508, "Sandy": 6226, "sir": 18940, "verwoest": 21552, "gepaard": 12298, "rooster": 18425, "##schacht": 28326, "va": 20673, "##doc": 24886, "##v\u00e9": 29612, "CBS": 1564, "vrienden": 22056, "Hove": 3477, "onbeperkt": 16330, "wekte": 22338, "##evergeefs": 25216, "spinne": 19283, "commentaar": 10238, "Pin": 5628, "trendy": 20349, "vos": 22016, "##mas": 27052, "##tische": 29025, "duren": 11065, "meldpunt": 15507, "Cadillac": 1583, "verdachten": 20908, "A2": 522, "uitwerpsel": 20627, "##meester": 27089, "wegvallen": 22320, "oppakken": 16934, "braaf": 9851, "Museeuw": 5023, "Constantinopel": 1902, "lijk": 15080, "stort": 19620, "technologie": 19892, "Politici": 5686, "Bombay": 1345, "voorganger": 21908, "Vergadering": 7292, "##DS": 23275, "zwierig": 22956, "Pel": 5542, "doelbewust": 10795, "##stemmig": 28729, "Alpen": 733, "vak": 20697, "verschuldigd": 21330, "liberaal": 15018, "##brook": 24484, "DC": 1990, "##OED": 23542, "##idd": 26074, "ge\u00ebvacueerd": 12664, "Boot": 1364, "Roland": 6050, "arrestanten": 8569, "reporter": 18223, "##wit": 29763, "Hardy": 3201, "##tino": 29016, "Waver": 7550, "radiozender": 17955, "Boek": 1325, "Colin": 1841, "taakstraf": 19815, "##vaarder": 29285, "Zelfs": 7782, "Bedrijf": 1119, "blond": 9688, "vriendinnetje": 22059, "##gen": 25519, "##vrienden": 29594, "beoordeeld": 9124, "Beers": 1126, "gepakt": 12299, "probleem": 17757, "personages": 17391, "sappig": 18550, "vredesmissie": 22038, "gehalveerd": 12047, "fuck": 11755, "126": 195, "brok": 9912, "Baarle": 1018, "##artikel": 24062, "Cre": 1950, "gerapporteerd": 12338, "##snelle": 28556, "Fal": 2566, "symp": 19798, "Financieel": 2641, "emplo": 11280, "##snurk": 28564, "beseffen": 9226, "vrolijkheid": 22094, "##er": 25138, "manschappen": 15357, "##nchen": 27265, "gematigde": 12207, "proef": 17782, "scherpe": 18659, "wateroverlast": 22257, "faciliteiten": 11486, "kl": 14275, "oude": 17051, "veiling": 20810, "analyse": 8465, "overheersing": 17114, "slavin": 18993, "##te": 28902, "ze": 22674, "kleermaker": 14324, "Hockey": 3390, "begroette": 8914, "bovenverdieping": 9845, "glim": 12739, "vergisse": 21013, "existent": 11433, "##asco": 24068, "eeuwige": 11173, "##koorts": 26591, "Rembrandt": 5926, "investering": 13872, "spinnensoort": 19285, "Belang": 1144, "Canarisch": 1615, "organisatorisch": 17029, "##concern": 24690, "aap": 8040, "vertroebel": 21439, "##TP": 23681, "Gou": 3021, "onhandig": 16522, "broekzak": 9909, "##pas": 27706, "organiseren": 17033, "##stigma": 28744, "##tempel": 28939, "Dolly": 2194, "##culaire": 24750, "kwaadaardig": 14733, "vezel": 21625, "Arthur": 917, "schandelijk": 18603, "huishoudster": 13488, "herhaalde": 13208, "##scharrel": 28342, "\u00fb": 30071, "Parti": 5503, "Science": 6331, "patronen": 17335, "##OR": 23562, "Arjan": 895, "Voil": 7420, "##ions": 26252, "##nummer": 27357, "##hoest": 25954, "Beker": 1141, "Palestijnen": 5466, "##ajoor": 23905, "pat": 17325, "De": 2058, "Winst": 7662, "Dmitri": 2169, "##vertrek": 29426, "sokken": 19162, "herzien": 13260, "zoge": 22810, "Tienduizend": 6943, "motie": 15821, "truc": 20394, "##or": 27560, "begane": 8880, "sorr": 19190, "Bertrand": 1208, "Nijmeegse": 5191, "sieraad": 18912, "Hollywood": 3416, "Octavi": 5279, "pla": 17461, "supporter": 19781, "##EREN": 23319, "pompen": 17590, "platenlabel": 17505, "Kaap": 3867, "geteld": 12493, "rekende": 18166, "aangekleed": 7894, "komiek": 14499, "Fle": 2660, "ondiep": 16448, "##sman": 28542, "##installatie": 26236, "McK": 4734, "donker": 10843, "verbannen": 20851, "Dic": 2117, "ac": 8076, "horen": 13443, "rept": 18227, "orthodoxe": 17047, "Kasom": 3913, "veertig": 20797, "doorzettings": 10901, "stropdas": 19710, "##gever": 25645, "##teau": 28905, "gevangenis": 12530, "##ingsceremonie": 26215, "##vlak": 29489, "vacature": 20686, "schaamteloos": 18575, "ontleend": 16621, "##xx": 29807, "gehad": 12045, "schemering": 18641, "Saryon": 6243, "##straten": 28795, "Bey": 1234, "Hil": 3363, "Ul": 7140, "bereikte": 9150, "vrijlating": 22079, "cash": 10075, "ginds": 12709, "Nederland": 5108, "1900": 278, "Namen": 5076, "oosters": 16801, "pk": 17459, "76": 492, "##zzp": 29961, "deeltijd": 10573, "Wetenschap": 7610, "doodschiet": 10857, "Ay": 987, "heksen": 13155, "kauwgom": 14151, "gepresenteerd": 12320, "hobbel": 13321, "tiran": 20118, "ziekenhuizen": 22761, "Denemarken": 2085, "##erij": 25155, "CDU": 1567, "Anne": 821, "##sc\u00e8ne": 28431, "##hoek": 25953, "Pomp": 5693, "Zulte": 7833, "subsidi\u00ebr": 19753, "##tram": 29081, "eindelijk": 11214, "##vervolging": 29430, "##gedrag": 25423, "##building": 24497, "##zicht": 29884, "woordenboek": 22587, "kade": 14039, "Lowlands": 4467, "ondervond": 16427, "bedrijfsvoering": 8842, "##okken": 27422, "neem": 15985, "leed": 14886, "Carolina": 1643, "##list": 26893, "##dat": 24797, "veranda": 20836, "##ken": 26451, "Shakespeare": 6394, "nee": 15982, "beoogde": 9122, "gekozen": 12119, "portiek": 17624, "Zuid": 7826, "enzovoort": 11308, "overviel": 17177, "gilde": 12706, "##ow": 27653, "bedienen": 8817, "Kaspar": 3914, "stroming": 19697, "##lever": 26806, "beroering": 9174, "biblio": 9530, "republiek": 18228, "##ologen": 27435, "##tournee": 29068, "##meijer": 27092, "##spieren": 28608, "Dode": 2179, "Norman": 5243, "internaat": 13832, "##FK": 23343, "##onthoud": 27498, "bereikten": 9151, "##amba": 23951, "1926": 304, "Slag": 6480, "s": 30041, "aanvaardbaar": 8009, "##eloos": 25093, "##einde": 25049, "limousine": 15098, "Linde": 4388, "##83": 23137, "bewusteloos": 9476, "doorzoeken": 10904, "adres": 8195, "kruik": 14681, "bedrag": 8827, "historie": 13310, "catwalk": 10085, "##EB": 23282, "Tottenham": 7023, "koelkast": 14458, "stevig": 19526, "280": 421, "##oef": 27384, "##roep": 28222, "##psa": 27938, "dringend": 10985, "##woordenwisseling": 29786, "Jelle": 3723, "plaats": 17466, "landelijke": 14824, "smelten": 19080, "zuinig": 22890, "gekenmerkt": 12098, "kloppen": 14377, "oefenduel": 16193, "steil": 19468, "##wond": 29774, "behoud": 8957, "lampje": 14814, "##klampt": 26510, "Rotterdammer": 6097, "##quist": 27973, "Glenn": 2976, "afrekening": 8299, "helle": 13172, "uitsluitend": 20592, "Tj": 6977, "opkomst": 16905, "Grenzen": 3057, "##stikke": 28752, "denkt": 10613, "Droom": 2257, "geschoten": 12411, "koffers": 14473, "Siem": 6430, "hun": 13517, "90": 509, "Ptero": 5785, "bonk": 9767, "##beginsel": 24219, "unieke": 20653, "##i\u00ebr": 26338, "slijm": 19015, "Schitterend": 6294, "1949": 327, "##gelegen": 25491, "noodsituatie": 16113, "##ongyang": 27477, "invallen": 13861, "ongelijk": 16477, "beest": 8871, "##fin": 25282, "MO": 4527, "Bernie": 1201, "afbeeldingen": 8215, "##vriendelijke": 29593, "Marina": 4648, "viaduct": 21628, "gevechts": 12539, "correcte": 10384, "maak": 15251, "merkt": 15550, "moreel": 15803, "Kerstmis": 3970, "##nders": 27269, "Kapel": 3899, "##jagen": 26347, "Syri\u00ebrs": 6786, "h\u00e9\u00e9": 13556, "chroom": 10155, "tweevleugelige": 20445, "gemeenteraad": 12216, "veertiende": 20796, "Schelle": 6277, "belangrijkste": 9023, "kale": 14045, "Belgacom": 1151, "deuk": 10640, "##geld": 25484, "staten": 19439, "belasting": 9028, "Wood": 7694, "##verklaard": 29378, "hiv": 13318, "hooi": 13422, "riant": 18289, "erotiek": 11352, "Suzan": 6761, "komt": 14505, "##gul": 25815, "blozen": 9699, "spit": 19294, "zouden": 22868, "##cks": 24640, "rally": 17962, "danseres": 10524, "vredesmacht": 22037, "DE": 1992, "bladzijde": 9624, "Angelo": 804, "Moon": 4970, "storm": 19617, "L\u00e9": 4516, "onderfamilie": 16366, "functies": 11760, "Sw": 6765, "inventarisatie": 13866, "helse": 13181, "##straf": 28785, "vangrail": 20730, "betaald": 9310, "##trekker": 29099, "Rav": 5867, "Dalton": 2028, "Pepsi": 5556, "##program": 27927, "Est": 2487, "gordijn": 12811, "Wijzen": 7633, "daarop": 10480, "ontkent": 16616, "Jay": 3714, "##gebruikers": 25411, "Carel": 1632, "Slecht": 6484, "geraakt": 12332, "Know": 4051, "bereden": 9143, "gerechtsgebouw": 12344, "##BO": 23221, "##graat": 25769, "armoedig": 8564, "interactieve": 13819, "verte": 21410, "affiches": 8225, "Liesbeth": 4360, "nieuwkomers": 16068, "klassieker": 14308, "##vehikel": 29325, "##ang": 23984, "straaljager": 19631, "##V": 108, "Cant": 1618, "overschre": 17153, "Beth": 1219, "grondige": 12928, "Kasparov": 3915, "Morgen": 4981, "konijnen": 14511, "##sie": 28475, "weggebruiker": 22312, "hangmat": 13055, "antropo": 8504, "##werkers": 29699, "gal": 11798, "kalm": 14052, "ellebogen": 11263, "toekenning": 20152, "Network": 5142, "sterretje": 19515, "##seksueel": 28443, "##gespannen": 25604, "meesterlijk": 15488, "Beenh": 1123, "22": 406, "nastreef": 15943, "octrooi": 16190, "bushalte": 10016, "goedgekeurd": 12783, "leidinggevende": 14935, "voortduren": 21963, "bekijk": 8983, "medewerkers": 15441, "##gelicht": 25496, "Antonia": 840, "paarden": 17203, "Draken": 2240, "VWS": 7200, "Paige": 5454, "opzichten": 17010, "##idium": 26086, "winstwaarschuw": 22516, "onaanvaardbaar": 16307, "##moeilijk": 27180, "##iq": 26258, "##gezien": 25694, "##ggy": 25710, "vreemdeling": 22044, "geheime": 12059, "rotonde": 18429, "vijftig": 21668, "Gelderland": 2848, "groepen": 12911, "winkel": 22500, "##paar": 27669, "islam": 13904, "renden": 18203, "##ri\u00eble": 28201, "gedwongen": 12001, "twist": 20458, "arriveerde": 8575, "##\u00f3w": 29994, "Protest": 5767, "kneed": 14404, "##compartiment": 24680, "13": 198, "mosdiertjes": 15812, "##vision": 29481, "openbaar": 16819, "Pot": 5715, "leuker": 14978, "oprichter": 16951, "afwachten": 8336, "##stukje": 28831, "bevend": 9388, "sirene": 18941, "omgezet": 16254, "onderdeel": 16360, "potentieel": 17645, "stoof": 19599, "inspireer": 13770, "Guido": 3102, "Hassan": 3216, "song": 19182, "sterk": 19506, "arresteerde": 8572, "Bis": 1271, "Interpol": 3612, "financi\u00ebn": 11613, "Daarop": 2008, "hopeloos": 13437, "Dubbel": 2265, "##stok": 28766, "afleveringen": 8288, "planning": 17492, "dode": 10785, "Loop": 4444, "pedagogisch": 17346, "Houtem": 3475, "knikte": 14419, "gebracht": 11899, "74": 488, "##geplaatst": 25543, "##uti": 29264, "##ting": 29014, "Verbruggen": 7282, "stilstaan": 19556, "##RON": 23621, "parkeerde": 17273, "vervolging": 21481, "##kapitein": 26431, "##key": 26475, "Nieuwe": 5176, "belangrijke": 9021, "Finn": 2644, "Schouwburg": 6311, "kleverig": 14351, "170": 221, "Revolutie": 5948, "liet": 15062, "vlakbij": 21717, "Hill": 3366, "steegje": 19457, "##enti": 25129, "##ienke": 26102, "1963": 341, "benadrukken": 9097, "Landkreis": 4223, "aansteker": 7992, "Vodafone": 7411, "NRC": 5058, "Christ": 1761, "knieblessure": 14410, "alledaagse": 8398, "kanonnen": 14084, "t\u00e9": 20466, "regenjas": 18121, "vanwege": 20737, "##soorten": 28579, "##AAT": 23161, "danser": 10523, "Cons": 1895, "bevond": 9407, "doorkruist": 10890, "invloedrijke": 13876, "belangstellend": 9024, "misstand": 15694, "waargenomen": 22165, "##EE": 23287, "##SSEN": 23654, "##eniveau": 25119, "##brood": 24483, "Erg": 2473, "Golden": 2999, "betrad": 9336, "##Mobil": 23507, "##bos": 24433, "##space": 28584, "500": 456, "aanraakte": 7972, "kondigde": 14508, "knecht": 14403, "ertussen": 11356, "##dank": 24792, "Utrechtse": 7168, "Saph": 6237, "grappige": 12851, "Moszk": 4992, "##oli": 27429, "##televisie": 28932, "opgestart": 16876, "oprit": 16956, "ultra": 20646, "gaten": 11835, "##roei": 28221, "abortus": 8067, "klinkende": 14363, "##commissaris": 24675, "##gesloten": 25598, "Gistel": 2966, "##udi": 29176, "beseft": 9227, "Champagne": 1715, "##RA": 23601, "Cos": 1931, "Berger": 1183, "##rank": 28017, "iedere": 13584, "art": 8580, "Bobby": 1315, "##sloeg": 28529, "##gids": 25715, "##baat": 24152, "tiebreak": 20078, "##gelokt": 25498, "Guinea": 3105, "vervolg": 21476, "lichte": 15028, "inspireren": 13771, "##ard": 24034, "oppositiepartij": 16948, "verbluft": 20884, "zeide": 22694, "doorgang": 10886, "Hospital": 3465, "Rue": 6121, "##kte": 26644, "slavernij": 18992, "Onkelinx": 5339, "Tolsto": 6998, "Gids": 2944, "bont": 9771, "##drift": 24948, "verwonderlijk": 21558, "fatale": 11528, "##kerk": 26461, "Ros": 6083, "reclamecampagne": 18063, "Osama": 5405, "Interview": 3613, "nutteloze": 16163, "lappen": 14861, "sloeg": 19029, "wijzend": 22476, "Francis": 2721, "Baet": 1029, "Hunter": 3497, "##toon": 29057, "verfilmd": 20978, "hor": 13439, "gemak": 12199, "puntje": 17895, "##nesi": 27288, "##behandeling": 24225, "##tella": 28934, "geamuseerd": 11848, "kraan": 14600, "ruw": 18496, "attent": 8623, "sculptuur": 18833, "verontschuldig": 21236, "Gli": 2977, "regenen": 18120, "rivaliteit": 18350, "aparte": 8509, "dure": 11064, "transitie": 20316, "Lars": 4235, "volksmon": 21847, "cabrio": 10037, "jongeling": 13965, "betoverend": 9334, "##melk": 27100, "##osus": 27601, "##kwamen": 26661, "gi": 12688, "Roosendaal": 6079, "Leontien": 4310, "atlete": 8617, "redactie": 18073, "openlijk": 16834, "##sponsor": 28618, "Bri": 1453, "##web": 29659, "##bediende": 24201, "##ano": 23999, "LEUVEN": 4184, "##spreken": 28634, "verkort": 21106, "##ugabe": 29185, "Lanaken": 4215, "Geel": 2837, "Os": 5403, "Drongen": 2255, "Trip": 7055, "interpreteer": 13840, "vervolgde": 21478, "##aagd": 23758, "Jazz": 3715, "schoon": 18735, "An": 776, "richtingen": 18295, "##hemd": 25914, "koper": 14540, "##schuiven": 28417, "##ovo": 27650, "pensionering": 17367, "Koek": 4056, "##ouders": 27618, "onnodig": 16541, "veroorloven": 21243, "varen": 20740, "stonden": 19597, "prikkeldraad": 17725, "gefocust": 12022, "gestalte": 12460, "##fonds": 25307, "Angst": 808, "koers": 14461, "gemeenten": 12215, "##acht": 23813, "dashboard": 10531, "vrijetijds": 22071, "rijkelijk": 18314, "but": 10020, "relax": 18182, "Century": 1701, "wodka": 22539, "hospita": 13451, "theater": 20050, "Jerry": 3734, "staren": 19432, "sneuvel": 19117, "Emirate": 2432, "gerecht": 12341, "##De": 23280, "geschokt": 12405, "primair": 17730, "H": 35, "bevoorrading": 9408, "dierbare": 10697, "Koel": 4058, "##flat": 25293, "##tong": 29056, "oever": 16201, "##fir": 25286, "##rill": 28175, "afgeschermd": 8250, "logeerkamer": 15140, "Flam": 2657, "NIET": 5051, "kopie": 14543, "##sdag": 28432, "##gelovig": 25501, "##i\u00ebn": 26336, "Kho": 3988, "neuro": 16042, "Mekka": 4769, "vecht": 20776, "fu": 11754, "gans": 11811, "gesticht": 12470, "percelen": 17372, "##AP": 23189, "Benelux": 1169, "gedwee": 12000, "chaos": 10115, "##kracht": 26617, "angst": 8479, "loyaliteit": 15201, "McCain": 4726, "kristalle": 14657, "##haven": 25881, "Limburgse": 4382, "##nette": 27294, "##barometer": 24178, "##\u00efst": 29989, "korting": 14570, "##dil": 24858, "nestelde": 16029, "kruistocht": 14689, "verzucht": 21605, "Nacional": 5069, "##spray": 28629, "Cin": 1783, "bewaring": 9435, "betoog": 9331, "plannen": 17491, "##ckaert": 24635, "##b\u00e9": 24520, "##pelde": 27727, "onvolkomenhe": 16738, "beluisteren": 9078, "##kolom": 26574, "##schillen": 28376, "Industrie": 3587, "Of": 5289, "Mededinging": 4746, "Five": 2653, "grinniken": 12894, "Annabel": 819, "Trollok": 7058, "Mamma": 4605, "##gund": 25817, "Eck": 2330, "achternaam": 8124, "adembenemend": 8177, "falen": 11498, "schuilplaats": 18805, "Like": 4372, "comit\u00e9": 10233, "handhaving": 13041, "oogen": 16770, "vervullen": 21491, "##rende": 28102, "##schade": 28327, "vierduizend": 21642, "##view": 29457, "[PAD]": 3, "spelling": 19263, "Klop": 4040, "onthul": 16605, "zonsondergang": 22845, "bloedverwant": 9672, "Zeg": 7775, "geestdrift": 12007, "onverstandig": 16728, "stembus": 19487, "Bloom": 1307, "Grond": 3080, "##VP": 23728, "Tricho": 7052, "scooter": 18826, "##erde": 25142, "instituut": 13788, "vereenzelvig": 20966, "##INT": 23425, "armband": 8560, "Forum": 2706, "Verhe": 7298, "##pogon": 27840, "Vlad": 7392, "diner": 10723, "##gefluisterd": 25438, "Vermeer": 7310, "##day": 24799, "kleren": 14339, "##pakken": 27677, "emotioneel": 11278, "flink": 11644, "liberale": 15019, "verzeker": 21576, "kreeftachtigen": 14628, "##oever": 27392, "Schenk": 6279, "nieuwelingen": 16065, "Crest": 1953, "medici": 15446, "Card": 1629, "verklaarde": 21087, "geraas": 12335, "##blond": 24388, "verslechterd": 21346, "uitslag": 20589, "onvoorstelbaar": 16742, "Politiek": 5688, "##gebed": 25386, "Microsoft": 4846, "financieel": 11609, "noodlijdende": 16110, "##DE": 23260, "Trophy": 7062, "tamelijk": 19852, "##ologisch": 27437, "mits": 15702, "##heet": 25896, "vertrekken": 21437, "e": 30027, "verzwegen": 21610, "agressie": 8365, "##VR": 23729, "Kern": 3967, "##planeet": 27801, "Gevolg": 2920, "vergaderzaal": 20990, "Jeanne": 3718, "Katwijk": 3929, "minzaam": 15667, "##functie": 25346, "overbelast": 17074, "noteren": 16146, "sinister": 18938, "gediscrimineerd": 11971, "schijf": 18679, "buiging": 9962, "##zoon": 29926, "zuurstof": 22906, "have": 13095, "proefschrift": 17784, "Laag": 4188, "kas": 14130, "##avond": 24133, "Spec": 6577, "bouwde": 9828, "Gemeenschappen": 2862, "83": 501, "commissie": 10246, "Gorbatsjov": 3013, "Helena": 3285, "zoenen": 22807, "airconditioning": 8371, "korfbal": 14560, "Millennium": 4876, "stoffen": 19579, "hackers": 12997, "benauwd": 9101, "B\u00e9": 1557, "heilige": 13146, "kenden": 14174, "##forfait": 25316, "##geduwd": 25430, "sporen": 19322, "Winterspelen": 7665, "lelijk": 14945, "##groet": 25801, "##otti": 27612, "bamboe": 8721, "verwier": 21535, "opgelegd": 16857, "Nigeriaans": 5187, "kunstwerken": 14720, "multiculture": 15846, "Galerie": 2800, "##ANNE": 23185, "##immer": 26188, "uitkeringen": 20562, "meewerken": 15493, "betwijfelde": 9355, "##omyia": 27452, "Mickey": 4844, "##ach": 23810, "zonder": 22828, "consequent": 10324, "teloor": 19956, "##opteryx": 27556, "##medi": 27082, "##stichting": 28740, "dappere": 10528, "ru\u00efnes": 18501, "oorzaak": 16795, "teruggevonden": 20014, "componeren": 10278, "gecontroleerd": 11931, "MAR": 4520, "verstrekken": 21396, "##werp": 29704, "kick": 14228, "verdieping": 20932, "Old": 5301, "Contact": 1905, "atmosfeer": 8620, "balletje": 8716, "stilzwijgend": 19561, "Th\u00e9r\u00e8s": 6934, "Steven": 6677, "aantrekkelijker": 8005, "##keek": 26444, "ivoren": 13911, "Syri\u00eb": 6785, "Mass": 4688, "assistentie": 8606, "1879": 257, "Google": 3007, "winnaars": 22509, "##aftrek": 23873, "Aalsmeer": 555, "Stedelijk": 6644, "jongere": 13971, "verhuis": 21052, "Collega": 1844, "zelfmoord": 22708, "##luizen": 26975, "Jump": 3838, "Schulz": 6322, "Barne": 1071, "forensisch": 11680, "##LC": 23462, "##RC": 23604, "Reynolds": 5955, "Sl": 6476, "reality": 18020, "rotswand": 18433, "##KV": 23455, "vooraanstaand": 21879, "##onic": 27480, "##spin": 28609, "Chil": 1743, "Leeftijd": 4272, "recentelijk": 18028, "feministisch": 11561, "##yama": 29809, "medeplichtig": 15438, "verwonderd": 21557, "##gewicht": 25672, "smokkel": 19093, "citeren": 10174, "Portugal": 5708, "##cour": 24718, "##roc": 28214, "Myanmar": 5035, "##wegen": 29676, "Lange": 4226, "gastronomi": 11829, "gruwelijke": 12961, "kruipt": 14684, "Strak": 6707, "eergisteren": 11156, "zwanger": 22929, "rollen": 18387, "Kruis": 4152, "##cott": 24716, "Rambo": 5847, "Capp": 1623, "centrum": 10104, "venster": 20824, "Jens": 3729, "effect": 11177, "We": 7553, "kijker": 14246, "ingesteld": 13716, "Houston": 3473, "benieuwd": 9106, "Professor": 5761, "Nistelrooij": 5210, "ontsteltenis": 16664, "##lucht": 26969, "handtekeningen": 13051, "oneffen": 16456, "Bruinsma": 1500, "groepje": 12913, "docenten": 10775, "##mbi": 27071, "##nder": 27268, "Fe": 2591, "Simons": 6449, "gefaald": 12016, "94": 515, "finishte": 11615, "natuurlijke": 15963, "##lette": 26794, "##sprongen": 28646, "voorzorg": 22000, "Koekelare": 4057, "##plaatsvervangend": 27797, "App": 853, "Barac": 1062, "bescheiden": 9192, "concessie": 10296, "druppels": 11027, "geroofd": 12376, "houd": 13458, "schot": 18755, "Fortuyn": 2705, "Kenia": 3952, "verlengd": 21138, "nationalisme": 15950, "voorop": 21935, "##oem": 27388, "uitwedstrijd": 20625, "monteur": 15784, "Campert": 1607, "uitbetaald": 20474, "ondernam": 16394, "Topman": 7011, "haa": 12980, "Vandaar": 7227, "papier": 17245, "Volgend": 7424, "Simpl": 6451, "bewaarde": 9427, "##duel": 24973, "##tories": 29062, "wijzen": 22475, "opgesplitst": 16873, "gulzig": 12968, "Dendermonde": 2084, "##75": 23129, "Melissa": 4777, "1977": 355, "Put": 5796, "Stockholm": 6689, "voorkwam": 21921, "nederlaag": 15978, "##uick": 29192, "Valerie": 7216, "##tagram": 28873, "bril": 9896, "haven": 13096, "rector": 18069, "##LTO": 23481, "##ag": 23877, "Grant": 3041, "Houd": 3471, "Reiziger": 5921, "##Zullen": 23754, "justitie": 14014, "##\u00f3": 145, "Ross": 6091, "reparatie": 18215, "##varen": 29308, "Kruishoutem": 4153, "amper": 8457, "##elman": 25091, "##lome": 26938, "verbouwd": 20892, "##igny": 26144, "plant": 17493, "Castell": 1663, "##PORT": 23593, "geweld": 12586, "dobber": 10772, "lading": 14798, "##stig": 28743, "meid": 15497, "Witte": 7675, "##tenschappelijke": 28944, "##cre": 24727, "ongebruikt": 16464, "##iets": 26114, "verschijning": 21312, "##reed": 28058, "vervloekte": 21471, "##bewoner": 24320, "beeldje": 8862, "moer": 15737, "getraumatiseerd": 12506, "verleiding": 21136, "hoeft": 13331, "NUTS": 5062, "intro": 13854, "fotografe": 11704, "##fenis": 25252, "##500": 23101, "effectief": 11180, "and": 8470, "##ionisme": 26251, "##hy": 26032, "beslaa": 9229, "Fransch": 2732, "academic": 8077, "museum": 15857, "gefascineerd": 12017, "uitstekend": 20603, "harte": 13083, "convenant": 10376, "sinds": 18935, "##kleur": 26530, "brullen": 9944, "Armstrong": 904, "##aardverschuiving": 23784, "griezelig": 12877, "##zwoeg": 29956, "spraakmakend": 19333, "geschaard": 12390, "##GEN": 23359, "Gandalf": 2807, "zwaaide": 22907, "##rico": 28149, "zestienjarige": 22735, "##steun": 28737, "2001": 382, "knopje": 14437, "lemmet": 14947, "ongedierte": 16468, "##r\u00e8s": 28297, "deskundigen": 10631, "##kritiek": 26632, "gravin": 12862, "VNO": 7185, "Ridder": 5980, "kondigt": 14509, "Eurovisie": 2513, "keuken": 14212, "kijkt": 14248, "naakte": 15889, "Marokkaan": 4667, "Whi": 7617, "pretentie": 17705, "##federatie": 25244, "##hoofdcommissaris": 25978, "moedig": 15728, "##maeker": 27013, "##rbeidsongeschikt": 28035, "werkelijk": 22384, "KU": 3864, "##yce": 29811, "situatie": 18945, "worstelaar": 22597, "therapie": 20063, "Mala": 4588, "##burn": 24512, "Multi": 5013, "Lopez": 4446, "##geperst": 25541, "##eria": 25151, "gerestaureerd": 12364, "muggensoort": 15839, "Bruxelles": 1506, "##ijn": 26156, "herhaal": 13206, "lied": 15041, "gadesloeg": 11795, "veeg": 20781, "##filet": 25276, "intensief": 13812, "raadsman": 17925, "belemmering": 9056, "##ker": 26457, "verstoord": 21389, "Langzaam": 4228, "helm": 13176, "uitblijven": 20475, "eenvoudiger": 11145, "gedenkteken": 11958, "O": 42, "##haar": 25834, "alstublief": 8424, "##schik": 28370, "Voorts": 7446, "Mas": 4685, "Groninger": 3083, "smakelijk": 19062, "Vorst": 7453, "##\u00e1": 30009, "Somers": 6544, "verenigen": 20973, "Giovanni": 2962, "aanmerkelijk": 7959, "verhoogd": 21046, "##tussen": 29152, "Ontwikkeling": 5348, "##akker": 23912, "##fascist": 25240, "Bun": 1530, "neuri\u00ebn": 16041, "verbreed": 20900, "Belgische": 1156, "Ajah": 673, "publicaties": 17878, "zaterdagmiddag": 22672, "Romeinen": 6060, "stage": 19398, "##atum": 24108, "Pom": 5692, "##hij": 25937, "##pru": 27937, "##waarde": 29621, "reservoir": 18236, "geraamd": 12333, "restanten": 18249, "tentoongesteld": 19975, "gesjoemel": 12426, "##begeleiding": 24218, "fotograaf": 11703, "olie": 16226, "scheidde": 18628, "Olivia": 5306, "##weerstaan": 29671, "fietsen": 11573, "Sociaal": 6524, "poppetje": 17607, "##ila": 26168, "##loof": 26943, "Marian": 4639, "dachten": 10489, "##haas": 25835, "ecologische": 11117, "##duizelingwekkend": 24981, "zendtijd": 22723, "Addis": 612, "vliegdek": 21735, "Eragon": 2467, "##ita": 26297, "##cera": 24563, "Brachy": 1416, "beweging": 9444, "opstond": 16977, "36": 434, "Commandant": 1862, "afgezwakt": 8266, "##bladen": 24360, "##trek": 29096, "155": 212, "genegeerd": 12248, "onvergetelijk": 16719, "##bereik": 24259, "app": 8517, "grondig": 12927, "verbranding": 20898, "ongedaan": 16466, "Toulouse": 7026, "Steen": 6648, "##rejo": 28082, "afwenden": 8343, "roll": 18386, "koffer": 14471, "ondergeschikt": 16369, "Pou": 5717, "Tjalling": 6979, "helemaal": 13168, "Paolo": 5481, "hy": 13538, "Franck": 2724, "Aarschot": 568, "Tul": 7090, "vormen": 22010, "geprobeerd": 12325, "meemaken": 15468, "175": 223, "lip": 15114, "verluid": 21170, "begrippen": 8907, "##CN": 23243, "Beijing": 1137, "Gould": 3025, "troepen": 20369, "ether": 11382, "aantrekken": 8006, "Albanezen": 687, "medaillon": 15429, "Mee": 4752, "##geblazen": 25393, "arbiter": 8537, "lager": 14806, "illustrator": 13611, "constructie": 10340, "##troomversnelling": 29117, "Bour": 1391, "##volume": 29551, "NK": 5052, "Marjolein": 4656, "aanvragen": 8025, "##ificeren": 26129, "signaleer": 18922, "vernietigen": 21218, "Mag": 4569, "##gaande": 25355, "gesubsidieerd": 12487, "redenering": 18084, "##formatie": 25320, "Bonn": 1355, "nadat": 15909, "Oei": 5284, "pistool": 17454, "alcohol": 8383, "##cil": 24618, "##sluiting": 28539, "zeldzaam": 22702, "kleding": 14316, "Thra": 6925, "tweederangs": 20436, "snoo": 19128, "##anga": 23985, "verzuimd": 21607, "posten": 17636, "##melding": 27098, "munitie": 15851, "Mak": 4586, "gemeenschappe": 12210, "houden": 13460, "rechtop": 18047, "##ward": 29646, "##ON": 23552, "##bar": 24176, "##strategie\u00ebn": 28794, "barsten": 8754, "Racing": 5829, "Fel": 2600, "Invaller": 3614, "##800": 23135, "repertoire": 18217, "##honger": 25975, "Dordrecht": 2217, "oogje": 16774, "##UB": 23690, "fraaie": 11719, "PVV": 5444, "Alliance": 727, "Mat": 4693, "##aire": 23899, "aansprakelijk": 7987, "toename": 20164, "Wagen": 7506, "bronzen": 9923, "Afgevaardigden": 635, "Ard": 877, "Jongens": 3788, "fictie": 11569, "Fanny": 2574, "pub": 17874, "gulle": 12967, "toekomst": 20154, "vernieuwde": 21221, "##broeck": 24477, "##mper": 27220, "##vullen": 29606, "onderzeeboot": 16436, "##risico": 28190, "onthullen": 16608, "asp": 8597, "familielid": 11503, "schaar": 18578, "##onderbroken": 27460, "nachthemd": 15904, "Prinsengracht": 5744, "##handen": 25859, "##stoffen": 28765, "Jihad": 3748, "##geregend": 25561, "##cauda": 24544, "##sturen": 28834, "##vervoer": 29429, "##99": 23154, "Explorer": 2537, "Joan": 3756, "##takken": 28880, "betrokkenen": 9350, "##vier": 29456, "##lib": 26819, "los": 15183, "Atlas": 948, "oplage": 16907, "##wolk": 29771, "grijnzend": 12883, "##endha": 25115, "gemarteld": 12204, "beschutte": 9223, "##ingen": 26210, "##veiligheid": 29327, "overleden": 17128, "hetzelfde": 13263, "mededeling": 15431, "aantallen": 7996, "240": 412, "##isch": 26270, "##regio": 28070, "legaal": 14913, "Ottomaans": 5414, "St\u00e9phan": 6731, "werden": 22369, "experiment": 11438, "##enstein": 25125, "beeldhouw": 8859, "verlegd": 21131, "1987": 365, "\u00d4": 30048, "Miller": 4877, "Artikel": 919, "Leuc": 4322, "aandelenkoers": 7877, "##skaja": 28500, "briljant": 9897, "verorber": 21247, "voelt": 21795, "Ieder": 3549, "oorlogen": 16787, "ge\u00ebist": 12659, "regelt": 18114, "Gouden": 3024, "Ranst": 5858, "##kovic": 26608, "trof": 20371, "Safi": 6189, "##gelaten": 25483, "mentor": 15540, "procentpunt": 17765, "Let": 4318, "Talbot": 6812, "tweederde": 20437, "##eft": 25034, "realism": 18017, "##besturen": 24290, "pot": 17642, "langer": 14844, "verminderde": 21188, "Mus": 5022, "##aaaa": 23755, "War": 7531, "aange": 7886, "bar": 8740, "gemeentelijk": 12214, "Palm": 5470, "epo": 11313, "constante": 10333, "##mouth": 27218, "Jordaan": 3799, "Strijd": 6716, "rijen": 18310, "starre": 19434, "integriteit": 13803, "z\u00e9lf": 22969, "toorn": 20238, "Kook": 4090, "Anderlecht": 786, "Vettel": 7342, "Wahid": 7509, "telefoontje": 19942, "vergaard": 20986, "ontruiming": 16647, "##niformeerd": 27319, "belastingdienst": 9029, "schone": 18727, "lerares": 14958, "naast": 15895, "##verdediging": 29352, "Margaret": 4633, "doodsoorzaak": 10860, "vette": 21622, "##industrie": 26202, "##ruin": 28278, "visserij": 21702, "Lij": 4368, "Reken": 5922, "bezwe": 9518, "paste": 17322, "##savel": 28310, "##ark": 24046, "beroerd": 9173, "Asp": 927, "sjiitisch": 18950, "##OON": 23558, "uitdager": 20487, "Missouri": 4902, "Blij": 1293, "Haarlemse": 3145, "aanmerking": 7960, "Chuck": 1777, "Italiaans": 3651, "Sumatra": 6745, "lastig": 14867, "intern": 13831, "telefoons": 19941, "eraf": 11318, "zonnige": 22844, "Testament": 6887, "##anen": 23982, "Alliantie": 728, "Indi\u00ebr": 3583, "Speciaal": 6578, "aaide": 7861, "zeespiegel": 22680, "gips": 12712, "staarde": 19375, "menukaart": 15542, "ontspanning": 16657, "##granaten": 25777, "bootje": 9792, "vorsten": 22015, "##ijck": 26149, "##rac": 27986, "##ramp": 28011, "pakken": 17218, "Steno": 6662, "echtpaar": 11113, "houten": 13464, "onprettig": 16553, "daling": 10509, "ceremonie": 10106, "gedaante": 11938, "meende": 15470, "stempel": 19493, "valkuil": 20711, "verjaagd": 21064, "##assistent": 24076, "afscheiding": 8304, "##aantallen": 23775, "bekeken": 8970, "Tsjechisch": 7078, "opperhoofd": 16938, "feestje": 11549, "strakke": 19647, "hoogleraren": 13411, "William": 7646, "chauffeurs": 10125, "ree": 18088, "kopen": 14539, "##nny": 27333, "overstappen": 17157, "Pour": 5719, "##dook": 24912, "Lydia": 4510, "oostelijke": 16799, "toekomstige": 20155, "verfrommeld": 20983, "##CTIE": 23250, "##gezonden": 25699, "##lar": 26715, "##Q": 30000, "inlichtingen": 13750, "##abo": 23798, "1902": 280, "##ELEN": 23303, "natural": 15955, "tap": 19862, "bollen": 9748, "rooskleurig": 18424, "record": 18067, "Zijn": 7798, "poule": 17649, "Teken": 6847, "##zend": 29871, "onrust": 16561, "##chter": 24605, "##motoren": 27213, "gelieerd": 12164, "duwde": 11081, "Peel": 5536, "waarvoor": 22190, "##gestapt": 25612, "##komen": 26578, "##pence": 27731, "verlichtte": 21147, "indrukwekkend": 13674, "##ruit": 28279, "##rossen": 28250, "Cloud": 1824, "bekrachtigd": 9003, "##status": 28704, "opwinding": 17005, "wellicht": 22346, "spelletje": 19261, "sterker": 19508, "spionage": 19287, "Bundes": 1531, "Grieken": 3062, "##zog": 29917, "acc": 8081, "drijfve": 10981, "toelage": 20157, "##tijds": 29006, "Board": 1313, "Monetair": 4951, "1888": 264, "gewond": 12606, "schrapt": 18767, "DJ": 1995, "Baltimore": 1049, "Veen": 7248, "duizelig": 11055, "Bangladesh": 1056, "##kanonnen": 26420, "Kuifje": 4155, "dienaar": 10672, "##alisme": 23933, "##lantaarn": 26712, "r\u00f6ntgen": 18503, "explo": 11446, "diersoort": 10702, "##onderzoeksbureau": 27468, "wisselkoers": 22529, "##vi": 29448, "##str\u00f6m": 28822, "46": 449, "Elle": 2416, "##uentin": 29180, "Virginia": 7376, "##nspireerd": 27351, "116": 186, "Kala": 3880, "##bomen": 24410, "86": 505, "dertien": 10624, "Sebasti": 6341, "Vladimir": 7393, "commotie": 10247, "petitie": 17410, "Flip": 2667, "Cu": 1967, "competitieduel": 10266, "##directie": 24871, "Church": 1778, "plaatselijk": 17467, "raas": 17934, "rondje": 18403, "reclassering": 18064, "taxi": 19879, "Joel": 3765, "##ible": 26049, "VLD": 7183, "achterstand": 8129, "reclamebureau": 18062, "benen": 9105, "##rale": 28008, "beledigen": 9034, "schizofre": 18714, "##ketel": 26466, "middags": 15585, "Ska": 6472, "fluisteren": 11652, "Melsele": 4782, "##helft": 25908, "Spring": 6609, "##boy": 24449, "Clijsters": 1818, "prima": 17729, "neerlegde": 15995, "##lyn": 26988, "##vertrouwen": 29427, "##diefstal": 24847, "##po": 27831, "##rush": 28289, "##rttemberg": 28268, "Prodi": 5756, "Daarnaast": 2006, "tafeltennis": 19833, "renovatie": 18208, "verslapt": 21343, "Segers": 6352, "Lebbeke": 4264, "draad": 10929, "Assad": 929, "##III": 23412, "geborduurd": 11893, "ZE": 7747, "kalf": 14047, "Cross": 1959, "nigri": 16075, "##rdin": 28036, "verbeeld": 20856, "believ": 9062, "farmacie": 11518, "Karda": 3904, "Tsj": 7074, "genaamd": 12236, "##college": 24663, "eenduidig": 11131, "##oog": 27516, "##inkel": 26223, "Duke": 2288, "Feit": 2598, "nest": 16028, "wrede": 22609, "Sne": 6513, "Lilian": 4374, "huisartsen": 13481, "Chef": 1732, "importeur": 13637, "##start": 28700, "Ida": 3545, "sont": 19185, "##ally": 23939, "exponent": 11457, "##LAND": 23460, "toestel": 20188, "##explosie": 25223, "Regina": 5907, "doorgrond": 10889, "talrijke": 19850, "Fin": 2638, "##TA": 23665, "STAND": 6170, "multinational": 15848, "##kapelle": 26428, "Moto": 4993, "moment": 15759, "##bel": 24240, "Kin": 4002, "mailadres": 15306, "schuldeiser": 18811, "verjagen": 21066, "gestapt": 12462, "mijlen": 15609, "pc": 17342, "##vervalsing": 29428, "kleven": 14350, "dreigt": 10959, "antwoorden": 8507, "zult": 22899, "geplunderd": 12316, "knarste": 14402, "dwalen": 11088, "1905": 283, "##richt": 28143, "vereiste": 20971, "##1865": 23024, "##spekt": 28599, "hervond": 13256, "onderging": 16370, "##gevecht": 25640, "##product": 27917, "Menno": 4789, "chemisch": 10130, "tournee": 20262, "krabbensoort": 14604, "tsaar": 20400, "Sali": 6203, "verloofde": 21161, "klassieke": 14307, "levensgevaar": 14994, "Gevaert": 2918, "Australian": 967, "truffel": 20397, "uitmaakt": 20572, "programmeer": 17806, "##lius": 26899, "##ezen": 25227, "verscheen": 21303, "Rij": 5987, "Dol": 2190, "redden": 18075, "Wir": 7666, "##ship": 28467, "Rat": 5864, "Tot": 7020, "bevinden": 9396, "Maak": 4533, "serveerster": 18880, "mild": 15618, "##rey": 28125, "Cassi": 1660, "elektronica": 11247, "kansarme": 14086, "verdragen": 20943, "zowel": 22872, "##troepen": 29111, "Joris": 3805, "Nicky": 5163, "##wijk": 29736, "##potten": 27874, "Garde": 2814, "schreeuwt": 18774, "##tusschen": 29151, "Stephanie": 6665, "boren": 9798, "slotte": 19043, "Zwar": 7842, "##cel": 24550, "Neem": 5118, "Z": 51, "vlek": 21728, "cm": 10198, "##smeet": 28545, "profileren": 17797, "werkdruk": 22383, "klim": 14356, "##lina": 26876, "uitgesproken": 20540, "haal": 12985, "1896": 272, "Mount": 4997, "levenslust": 14997, "##RIS": 23616, "##bestemming": 24287, "Zaterdag": 7766, "eerste": 11161, "gepland": 12313, "wezens": 22440, "Drew": 2248, "music": 15858, "toelaten": 20158, "restrictie": 18256, "bijzonders": 9568, "makker": 15322, "##begaanbaar": 24215, "toesprak": 20185, "introduce": 13855, "##OCK": 23539, "##mantel": 27043, "lekte": 14943, "##prijs": 27900, "lijden": 15077, "families": 11504, "Fatah": 2586, "81": 499, "peiling": 17351, "benadeeld": 9093, "aankoop": 7951, "##zuchtige": 29934, "Elise": 2410, "hoed": 13325, "Overpelt": 5430, "suggereert": 19763, "DDR": 1991, "AMSTERDAM": 540, "##sprogramma": 28644, "overzichtelijk": 17195, "Myro": 5038, "platteland": 17510, "verbitter": 20874, "##C": 90, "##zake": 29839, "Rein": 5916, "##60": 23114, "grootvader": 12950, "##getuigd": 25634, "##ribas": 28138, "file": 11587, "Jo": 3754, "alternatieve": 8427, "Anja": 814, "##rik": 28173, "##arne": 24049, "other": 17049, "Loon": 4443, "Aldus": 694, "gerommel": 12375, "##pop": 27855, "lijntje": 15087, "Straf": 6706, "activa": 8161, "snuit": 19133, "##sluiten": 28538, "##illon": 26182, "voortbreng": 21962, "groeve": 12920, "##323": 23077, "drinkwater": 10990, "verrijkt": 21289, "schilderijen": 18698, "schepsel": 18651, "Babylon": 1023, "alarmerend": 8380, "Myr": 5036, "England": 2453, "Hervormde": 3337, "vernieuwend": 21223, "begraven": 8899, "zuid": 22876, "##durende": 24987, "##ille": 26177, "##potige": 27873, "kuit": 14705, "Dam": 2029, "##mani": 27037, "matras": 15412, "Kinderen": 4005, "gevoelig": 12558, "Nefer": 5121, "##rechter": 28048, "brandend": 9860, "transacties": 20311, "gezworen": 12655, "bronnen": 9921, "Gerechtsho": 2901, "chantage": 10114, "##plantsoen": 27808, "fair": 11494, "variatie": 20743, "geur": 12518, "##etronic": 25197, "##bes": 24270, "Mister": 4903, "tij": 20087, "chemo": 10131, "##ori": 27575, "##sleden": 28521, "produceerde": 17772, "kool": 14524, "blokkade": 9683, "tweeduizend": 20438, "##HIL": 23384, "stok": 19584, "##lijke": 26862, "spoorweg": 19318, "constant": 10332, "NGC": 5050, "Georgia": 2891, "virtuele": 21692, "##cijfers": 24617, "##lezer": 26815, "##telecommunicatie": 28930, "Rachel": 5828, "gesegmenteerd": 12421, "##i\u00eb": 26334, "Minder": 4884, "driejarig": 10970, "apr": 8526, "Berth": 1206, "olijf": 16232, "onbe": 16313, "stampen": 19412, "profeten": 17792, "toezicht": 20209, "verschanst": 21302, "1000": 171, "terreinwagen": 19991, "toegebracht": 20138, "##IO": 23426, "kathedraal": 14143, "klopt": 14378, "Dhabi": 2110, "Debbie": 2060, "Dar": 2043, "Matthew": 4705, "Vera": 7278, "email": 11268, "gezondheids": 12649, "ineenstorting": 13680, "Geef": 2836, "politieman": 17584, "schiereiland": 18675, "klassiekers": 14309, "Boeing": 1324, "engelen": 11289, "gereduceerd": 12349, "greep": 12864, "achter": 8100, "doek": 10791, "uitsterven": 20606, "verweerde": 21517, "##les": 26786, "vorst": 22014, "gedachten": 11941, "samenstellen": 18532, "symposi": 19802, "##PLA": 23589, "afzijdig": 8357, "jurylid": 14011, "hoe": 13324, "criminelen": 10429, "christelijke": 10147, "onzekerheid": 16762, "weekblad": 22283, "gedateerd": 11943, "jezu\u00efet": 13949, "KN": 3860, "vijfendertig": 21660, "accepteren": 8087, "binding": 9578, "onmenselijk": 16533, "noorden": 16123, "Vink": 7372, "glimlachje": 12743, "sluis": 19049, "##67": 23122, "##rbeiderspers": 28034, "Project": 5763, "Wat": 7543, "gemoedelijk": 12229, "##lem": 26770, "toehoorder": 20149, "77": 493, "bevestigen": 9392, "voorafgaande": 21883, "Borg": 1367, "ergste": 11335, "##daling": 24787, "##gemeenteraadslid": 25513, "Jacques": 3679, "marathon": 15362, "##dreef": 24941, "heerlijke": 13123, "##idi": 26082, "grappig": 12850, "Battle": 1093, "Nauwelijks": 5100, "priv\u00e9": 17750, "##honden": 25971, "opgelost": 16860, "Berlijn": 1193, "behandeling": 8929, "bekommer": 8999, "bevordering": 9413, "blad": 9619, "klus": 14385, "lichten": 15030, "Vier": 7352, "nostalgisch": 16139, "Fleur": 2663, "jurkje": 14009, "##zuren": 29941, "aangesteld": 7917, "clandestien": 10183, "verwarmen": 21510, "laagje": 14772, "orgaan": 17025, "##opbrengst": 27535, "Waar": 7496, "##EF": 23292, "Neil": 5124, "Medewerker": 4747, "onlosmakelijk": 16531, "weemoedig": 22289, "##ILLE": 23418, "##rai": 27999, "gebeurtenissen": 11876, "moeilijker": 15731, "1944": 322, "iPhone": 13559, "kampt": 14071, "spelonk": 19264, "sms": 19096, "communistisch": 10257, "ontsnappen": 16651, "##LEN": 23466, "Jager": 3680, "hoop": 13425, "Liberal": 4342, "onschuldige": 16569, "wapenbezit": 22235, "jeugdopleiding": 13946, "geloov": 12185, "omvang": 16285, "##tiful": 29001, "##bahn": 24158, "Andy": 798, "##paard": 27670, "Billie": 1257, "##l": 124, "Hulst": 3492, "gerealiseerd": 12340, "ontsnapt": 16653, "Kunnen": 4161, "##lim": 26872, "geding": 11969, "Raw": 5870, "individuen": 13670, "Kant": 3896, "socialisten": 19145, "voeding": 21783, "zege": 22685, "Evers": 2526, "py": 17905, "1878": 256, "hits": 13315, "##sion": 28489, "boetes": 9736, "Ruimte": 6125, "bries": 9892, "##cq": 24724, "ongenad": 16492, "overvaller": 17175, "vijftal": 21665, "##jes": 26363, "achterlaten": 8119, "neerleggen": 15996, "verlicht": 21143, "##beschouwing": 24273, "M\u00e9": 5039, "orkest": 17043, "##ndre": 27272, "Pruisisch": 5778, "##productie": 27919, "Arane": 866, "##quin": 27972, "##ibo": 26050, "caf\u00e9s": 10043, "eenzame": 11148, "parkeerplaats": 17275, "Linden": 4389, "1919": 297, "##ATE": 23200, "##source": 28581, "Davenport": 2051, "Kahl": 3875, "brengen": 9886, "blij": 9643, "jaren": 13932, "omhuld": 16262, "geldboete": 12142, "toegezegd": 20148, "bewerking": 9447, "achterste": 8130, "hooiwagen": 13423, "ontwerpers": 16692, "bloed": 9663, "##christ": 24601, "##zeventig": 29880, "karakteristiek": 14117, "Bryn": 1509, "##LF": 23467, "##makelaar": 27023, "Body": 1319, "##architect": 24033, "Lieke": 4356, "Luciano": 4478, "voorstellingen": 21960, "part": 17287, "Uber": 7132, "verwacht": 21497, "Mandel": 4610, "bevrijden": 9420, "Aard": 564, "baksteen": 8704, "##koffer": 26568, "Lat": 4239, "intellectuele": 13806, "Alle": 722, "intieme": 13846, "vertwijfeld": 21449, "album": 8381, "Pagin": 5453, "jeep": 13941, "Lok": 4429, "##oire": 27412, "##klank": 26511, "107": 178, "Sergio": 6374, "Atta": 952, "dapper": 10527, "biologisch": 9598, "realiteit": 18019, "Fair": 2564, "##arc": 24029, "##raden": 27992, "verheug": 21036, "Beteken": 1217, "Zonder": 7812, "Cera": 1703, "stads": 19394, "Maduro": 4567, "lucratieve": 15211, "struikel": 19716, "institutionele": 13787, "afvroeg": 8335, "##andi": 23976, "Pell": 5543, "aanklager": 7944, "##witte": 29764, "go": 12769, "moslim": 15814, "##vreemd": 29586, "\u00e9c": 22972, "Sinterklaas": 6462, "woog": 22574, "gehaald": 12043, "voortdurend": 21964, "##kes": 26465, "##vaert": 29292, "doodslag": 10859, "##reden": 28057, "shampoo": 18892, "##analist": 23969, "deur": 10642, "beschadigen": 9189, "abstract": 8072, "hup": 13520, "judo": 13989, "##riem": 28156, "##28": 23068, "bladeren": 9622, "Suez": 6738, "streaming": 19661, "dobbelstenen": 10771, "##besnijdenis": 24278, "##rukken": 28282, "snuiven": 19134, "wijsvinger": 22473, "Patriot": 5519, "be": 8777, "bemind": 9085, "##88": 23143, "huurwoningen": 13532, "handhaven": 13040, "dorpeling": 10911, "drummer": 11025, "Bedrijven": 1120, "Vers": 7321, "dessert": 10633, "files": 11588, "##onvoorwaardelijk": 27511, "Vos": 7454, "verpletterend": 21266, "uitgegroeid": 20515, "Memorial": 4784, "chronische": 10152, "gerookt": 12377, "Ster": 6667, "PROVINCIALE": 5441, "literair": 15122, "##pp": 27875, "##lore": 26961, "##pen": 27730, "##ovac": 27630, "ontdoe": 16590, "schooljaar": 18732, "bevrucht": 9423, "##icola": 26065, "Hingis": 3374, "ferm": 11563, "##wet": 29711, "portefeuille": 17621, "werkten": 22405, "Bijenkorf": 1247, "push": 17900, "##dock": 24889, "luguber": 15212, "smerige": 19083, "mais": 15310, "Patty": 5522, "knarsen": 14401, "signalement": 18923, "##lobby": 26918, "zaakvoerder": 22638, "omgang": 16243, "meubil": 15574, "chirurg": 10139, "zorgde": 22858, "Cal": 1586, "Braak": 1412, "Jeltsin": 3724, "Pas": 5507, "Straatsburg": 6705, "prairie": 17667, "##hre": 26008, "waarderen": 22158, "##gio": 25727, "##han": 25855, "uitnodigend": 20577, "zaad": 22634, "Andrej": 792, "prioriteiten": 17744, "Smi": 6507, "##terne": 28958, "Ajax": 674, "vlot": 21764, "Under": 7145, "koren": 14559, "werpt": 22413, "uitzonderlijk": 20642, "Thatcher": 6901, "Pil": 5626, "telegram": 19944, "ram": 17963, "broodjes": 9926, "sterkte": 19511, "aspect": 8598, "ongeoorloofd": 16495, "hoeveelheid": 13340, "Moslim": 4990, "Lis": 4401, "##ui": 29190, "zoogdieren": 22852, "Autoriteit": 972, "veroordeel": 21238, "Sydney": 6775, "omdat": 16239, "erin": 11336, "##lease": 26732, "verlichte": 21144, "kiest": 14237, "brandwonden": 9868, "steekt": 19462, "wapen": 22234, "zwarte": 22934, "snijden": 19121, "Ten": 6865, "warme": 22246, "zuigen": 22888, "verzacht": 21565, "##shi": 28464, "meningsverschil": 15527, "bananen": 8723, "European": 2509, "##aeda": 23857, "##vle": 29493, "##boezem": 24404, "strompelde": 19699, "##gedoken": 25421, "tegenstanders": 19911, "Bovendien": 1402, "Lepto": 4314, "Blanc": 1283, "rugzak": 18456, "medelijden": 15435, "over": 17071, "drum": 11024, "golven": 12798, "##blind": 24378, "Davids": 2053, "medicijn": 15447, "rillen": 18327, "##tjes": 29032, "mirakel": 15668, "##poets": 27838, "formeel": 11686, "Nieuw": 5175, "vasthouden": 20764, "Harderwijk": 3200, "subliem": 19750, "##246": 23060, "##opslag": 27554, "verdrag": 20942, "##kern": 26463, "ziekelijk": 22757, "Wapen": 7530, "daaruit": 10485, "favoriete": 11535, "##OND": 23553, "Rijnmond": 5996, "##\u00f3n": 29991, "dump": 11058, "##gezongen": 25701, "##verstrekking": 29422, "Kabinet": 3872, "Ryanair": 6153, "Benjamin": 1172, "##gewaa": 25660, "Klim": 4034, "...": 153, "##gli": 25735, "Jamb": 3687, "commercieel": 10243, "zakje": 22657, "Charlie": 1727, "##limiet": 26873, "Eugeni": 2498, "uur": 20670, "Rousseau": 6103, "accent": 8082, "lok": 15148, "stadsdeel": 19396, "##mia": 27125, "Brigade": 1458, "Akademie": 676, "Sik": 6438, "minimum": 15651, "Film": 2637, "##dit": 24879, "afweging": 8341, "concern": 10293, "##avi": 24129, "specifieke": 19230, "##verpleging": 29404, "Castle": 1665, "Gra": 3028, "Vo": 7410, "Schevening": 6284, "gevallen": 12526, "Kni": 4046, "is": 13903, "helderder": 13161, "binden": 9576, "##spullen": 28649, "concentratie": 10288, "plattegrond": 17509, "Bog": 1331, "##heart": 25885, "##maakte": 26996, "idealist": 13568, "waarheid": 22166, "##tenue": 28948, "hypo": 13544, "##leeftijd": 26744, "chemie": 10129, "Gibson": 2942, "Boeren": 1330, "##film": 25277, "beat": 8784, "profit": 17798, "wonderen": 22566, "Ris": 6004, "imitatie": 13616, "object": 16172, "##PEN": 23581, "##SINT": 23642, "verdrietig": 20946, "##koepel": 26565, "Japans": 3705, "gespaard": 12443, "##borough": 24429, "informatie": 13688, "##vertegenwoordigd": 29425, "hoofdstuk": 13403, "gloeiend": 12760, "kritiek": 14658, "ijzig": 13602, "volledig": 21851, "##rol": 28229, "rommel": 18396, "arrondissement": 8578, "lounge": 15196, "Reggi": 5904, "##holm": 25965, "##schieten": 28366, "Verschillend": 7325, "slokje": 19034, "Zeker": 7778, "sp": 19200, "eerstvolgend": 11163, "organische": 17030, "lezer": 15011, "Bekijk": 1142, "Oek": 5285, "##ges": 25576, "peil": 17350, "terecht": 19979, "Joegoslavi\u00eb": 3764, "tbs": 19882, "schema": 18638, "mayonaise": 15421, "Sau": 6249, "leraren": 14957, "##wijn": 29739, "Onwillekeurig": 5350, "##gebouwen": 25404, "Mull": 5011, "Kau": 3930, "Hof": 3398, "radicalis": 17949, "Shaw": 6402, "##middelen": 27130, "kuchte": 14701, "##isme": 26280, "##poedig": 27836, "##vaux": 29315, "00u": 156, "Argent": 884, "bruikbaar": 9938, "doodskist": 10858, "mails": 15308, "Beer": 1124, "ophef": 16893, "toch": 20127, "##CC": 23234, "waarlijk": 22168, "Hemi": 3296, "rolstoel": 18388, "##stra": 28781, "Bruce": 1494, "##aerts": 23860, "##kunde": 26648, "##jacht": 26345, "##technisch": 28910, "berucht": 9181, "verspreiding": 21364, "##door": 24914, "echtscheiding": 11114, "##ceptie": 24562, "Kiss": 4013, "onge": 16461, "##heb": 25886, "Frank": 2726, "mede": 15430, "omringd": 16269, "Wijnschenk": 7632, "\u00f2": 30065, "concept": 10292, "Du": 2263, "Zondag": 7811, "##sser": 28661, "artistiek": 8586, "toonaangevende": 20233, "##speelt": 28598, "##16": 22997, "klapte": 14298, "doordringen": 10881, "Corps": 1928, "Harmonie": 3205, "##ress": 28113, "27": 418, "overlevering": 17137, "##beslissing": 24276, "##geschilderd": 25584, "##thor": 28983, "\u00e1": 30053, "fooi": 11675, "Total": 7022, "Probeer": 5752, "bloedend": 9667, "Charl": 1724, "overheidsdienst": 17118, "##optreden": 27557, "##uan": 29163, "##reservaat": 28111, "##escens": 25179, "astro": 8610, "Vlees": 7398, "grenzen": 12871, "bloederige": 9668, "w\u00e8l": 22623, "##ballon": 24167, "wees": 22304, "stik": 19549, "paragraaf": 17257, "##profiteerd": 27926, "##AC": 23163, "Niki": 5196, "Bekende": 1140, "doorstaan": 10898, "Factor": 2562, "Trevor": 7048, "Aqua": 857, "Tre": 7044, "gejuich": 12091, "mutant": 15863, "weiland": 22329, "gevoel": 12555, "hem": 13182, "jouw": 13986, "##springer": 28638, "Koksijde": 4071, "Han": 3182, "communist": 10255, "Stuart": 6721, "deelnemen": 10564, "besef": 9225, "Orkest": 5397, "##iro": 26264, "publiek": 17884, "medeleven": 15434, "schemer": 18639, "ambts": 8451, "##mogen": 27185, "##schreef": 28399, "stiefvader": 19538, "Fra": 2714, "Ala": 680, "##telefoon": 28931, "##anji": 23993, "zelfstandige": 22712, "Arkon": 897, "Nooit": 5227, "shuttle": 18909, "fantastische": 11514, "##tan": 28887, "##wy": 29802, "##OK": 23549, "##eerst": 25026, "stuiten": 19732, "Global": 2980, "Hazes": 3235, "Kevin": 3979, "Lock": 4422, "hoffelijk": 13344, "gedetailleerde": 11962, "veld": 20813, "Alpes": 734, "bestond": 9284, "schijnwerper": 18686, "boeken": 9720, "rijst": 18322, "Palmer": 5472, "toeren": 20175, "waarnaar": 22171, "##organ": 27568, "##berghe": 24264, "inleveren": 13749, "##verlichting": 29389, "schouders": 18760, "2006": 387, "Montalb": 4961, "ongedeerd": 16467, "1984": 362, "Sacha": 6181, "##AU": 23202, "mil": 15617, "##staatshervorming": 28678, "doordrong": 10883, "glimmend": 12746, "toegeven": 20145, "127": 196, "stond": 19596, "tafels": 19832, "juni": 14001, "hekkensluiter": 13153, "##g": 119, "Recep": 5884, "L\u00e9on": 4517, "Rhi": 5959, "##ENE": 23312, "Nie": 5169, "##ans": 24001, "##stola": 28768, "Machine": 4553, "rapport": 17986, "Small": 6502, "##olo": 27434, "inter": 13817, "Denkt": 2088, "Henin": 3305, "moeilijk": 15729, "verstandhouding": 21371, "Gans": 2810, "bebouwd": 8789, "makers": 15319, "sopraan": 19189, "Staat": 6618, "Klei": 4027, "##D": 91, "bezoek": 9501, "vallei": 20712, "konijn": 14510, "stout": 19626, "108": 179, "minuscule": 15663, "warenhuis": 22244, "Leven": 4328, "##\u00dc": 30007, "1952": 330, "Amy": 775, "##chirurg": 24593, "VV": 7196, "intimidatie": 13847, "Hees": 3260, "Kle": 4026, "##mina": 27140, "enige": 11291, "uitschakeling": 20587, "lampen": 14813, "Artemis": 916, "##EKEN": 23299, "Joke": 3779, "##principe": 27904, "Soms": 6547, "##lles": 26911, "\u00ec": 30060, "TE": 6792, "Ri": 5964, "##bber": 24193, "kolen": 14484, "Dat": 2048, "line": 15099, "tuinen": 20408, "EURO": 2318, "##ov": 27628, "stoom": 19601, "boze": 9848, "deden": 10555, "donderdag": 10839, "schermen": 18655, "verdringen": 20947, "Hert": 3334, "wedden": 22269, "vlucht": 21766, "##inos": 26231, "Nada": 5070, "Natural": 5095, "gekregen": 12121, "visuele": 21705, "##pet": 27750, "Drum": 2261, "Te": 6834, "Tetra": 6888, "Iedere": 3550, "##uichot": 29191, "##\u00f3\u00f3k": 29996, "veiligheids": 20809, "Sou": 6557, "##itz": 26318, "grasland": 12854, "zoog": 22850, "##sluip": 28535, "Mond": 4948, "##houd": 25993, "genoodzaakt": 12275, "Delta": 2078, "Bakker": 1039, "slak": 18978, "##dra": 24925, "##groot": 25804, "Benedictus": 1168, "Med": 4744, "soennitisch": 19151, "normale": 16134, "commentator": 10240, "Roep": 6038, "voorpagina": 21938, "consequentie": 10325, "JP": 3665, "waarschuwt": 22186, "verbaasde": 20848, "verspillen": 21359, "gebeuren": 11873, "##mun": 27229, "Eindhoven": 2386, "koelbloedig": 14456, "##systemen": 28866, "beroemdste": 9168, "profeet": 17787, "##handel": 25857, "judoka": 13990, "##cheque": 24585, "Haan": 3140, "afval": 8331, "ballon": 8718, "autoritair": 8656, "Rooij": 6075, "berg": 9157, "terugkerend": 20020, "aanvallers": 8016, "gretig": 12873, "##lud": 26971, "##gevochten": 25648, "##ota": 27602, "nederzetting": 15980, "Bas": 1078, "herfst": 13204, "blikken": 9653, "opgedeeld": 16851, "motivatie": 15824, "Geduld": 2834, "##neur": 27298, "rammen": 17969, "aangebracht": 7888, "zuster": 22903, "veilig": 20805, "Single": 6460, "Merelbeke": 4800, "gebruik": 11907, "incasser": 13654, "perfect": 17374, "\u201d": 64, "spurt": 19364, "##inho": 26218, "gevolgen": 12564, "Rebel": 5881, "co\u00f6rdinator": 10407, "##ridge": 28153, "##split": 28616, "##broeders": 24479, "junk": 14004, "Milaan": 4867, "overheerst": 17115, "Indien": 3578, "gegarandeerd": 12030, "##boel": 24400, "##kkel": 26501, "Altijd": 742, "Bonaparte": 1349, "blinkend": 9661, "##pensioen": 27735, "##portret": 27864, "nier": 16057, "brommer": 9919, "##verbruik": 29349, "ongelijkheid": 16478, "##rina": 28178, "##DD": 23259, "On": 5322, "verzilver": 21588, "beetje": 8875, "metrostation": 15571, "##point": 27841, "stokje": 19585, "bevatte": 9376, "Bedank": 1116, "Air": 667, "Dubois": 2267, "ontleen": 16620, "trakteer": 20303, "##OET": 23545, "harde": 13067, "##tsch": 29127, "##chel": 24581, "##um": 29224, "Sunday": 6748, "bonte": 9772, "Dit": 2161, "fiscu": 11620, "gerepareerd": 12361, "##verdrijven": 29359, "Sluis": 6498, "##bloed": 24380, "co\u00f6rdineren": 10409, "kapittel": 14108, "##el": 25057, "inrichting": 13758, "lyrisch": 15244, "roet": 18378, "##AL": 23173, "afwikkeling": 8350, "Corb": 1918, "Torhout": 7014, "Gomez": 3003, "bijwerkingen": 9564, "iemand": 13586, "jungle": 14000, "ontplofte": 16638, "fort": 11697, "AVRO": 550, "poes": 17562, "##plaat": 27793, "koepel": 14459, "##verkrachter": 29383, "Drake": 2239, "##sel": 28444, "straatje": 19636, "onacceptabel": 16309, "hoofdklasse": 13388, "Fischer": 2650, "rivier": 18351, "Alitalia": 717, "##all": 23936, "gehele": 12064, "relation": 18179, "##dracht": 24933, "Aleksej": 698, "March": 4628, "Tsjoe": 7082, "##buk": 24501, "dictee": 10668, "bewoonster": 9472, "stand": 19415, "studeren": 19724, "tegenslag": 19908, "Snap": 6512, "vaststellen": 20766, "betrapp": 9337, "oppositieleider": 16947, "##nacht": 27253, "gebruikt": 11914, "geregeerd": 12353, "trollen": 20375, "Birmingham": 1270, "ellendig": 11266, "Bretagne": 1450, "Kawa": 3932, "Kenn": 3955, "globa": 12754, "##tion": 29018, "Elisa": 2408, "atoombom": 8622, "AZ": 551, "Abdul": 577, "Oscar": 5406, "Congole": 1886, "##emi": 25104, "mannen": 15353, "vertrouwen": 21448, "Panorama": 5480, "trappenhuis": 20325, "slop": 19037, "voeteneind": 21813, "opvoeden": 16994, "##sjenko": 28496, "pauselijk": 17339, "eindejaars": 11213, "brug": 9933, "Brandweer": 1428, "##him": 25940, "gareel": 11821, "snelweg": 19116, "Pod": 5671, "##neuzen": 27301, "huiver": 13497, "individuele": 13669, "lancering": 14817, "charter": 10121, "wijdde": 22460, "vies": 21651, "landschappen": 14836, "rustte": 18495, "verscheept": 21304, "Lyn": 4511, "geheimzinnig": 12062, "1839": 239, "pamflet": 17230, "typisch": 20464, "##17": 22998, "##hua": 26012, "Haven": 3226, "boord": 9786, "ge\u00ebngageerd": 12661, "driekwart": 10971, "reflex": 18097, "vergemakkelijk": 21003, "Gloria": 2982, "fraude": 11731, "betalen": 9314, "Alberto": 690, "Huy": 3502, "##pakt": 27680, "ongeveer": 16507, "profiteer": 17799, "Korea": 4103, "evacue": 11399, "ruimtestation": 18471, "##varon": 29311, "rechercheur": 18035, "koploper": 14547, "hulpmiddel": 13508, "Fri": 2754, "##gewelf": 25668, "Uyl": 7170, "##rechtvaardigheid": 28049, "tref": 20334, "verhalen": 21030, "professionele": 17790, "##noten": 27346, "kids": 14230, "wenken": 22358, "Servisch": 6380, "boterhammen": 9818, "##stuif": 28828, "##elinda": 25079, "Boeddha": 1323, "##verplichting": 29405, "geannuleerd": 11851, "##ala": 23918, "Wesley": 7599, "##position": 27867, "Wordt": 7701, "69": 481, "Delhaize": 2077, "natuurgebied": 15959, "verkoopt": 21103, "woningmarkt": 22572, "##schriften": 28404, "Hop": 3457, "##betalen": 24296, "##stel": 28720, "Djok": 2168, "##EEUW": 23291, "Fortuna": 2704, "##pter": 27945, "lelie": 14944, "massieve": 15399, "secundair": 18845, "instortte": 13791, "activeren": 8162, "Timmermans": 6963, "##zover": 29930, "##nijverheid": 27321, "toenmalige": 20168, "repliek": 18221, "schijnen": 18683, "##tak": 28878, "Oostenrijker": 5366, "facette": 11484, "##ruimte": 28277, "Duitsch": 2279, "behulp": 8960, "Mon": 4945, "restje": 18255, "schaal": 18571, "##hoven": 26006, "##water": 29655, "tezamen": 20045, "##S": 105, "bodyguard": 9711, "beeltenis": 8865, "functioneren": 11767, "oblast": 16176, "##zaak": 29832, "Senaat": 6360, "geworden": 12615, "Knight": 4047, "h\u00e9": 13553, "Garden": 2815, "gekneusd": 12108, "schacht": 18583, "Duitsland": 2283, "Pen": 5544, "Uit": 7134, "Tijd": 6950, "Woluwe": 7689, "heus": 13267, "Gezond": 2929, "ratione": 17996, "welgestelde": 22342, "Unie": 7148, "zulk": 22896, "##kroon": 26636, "eigenschappen": 11203, "1916": 294, "gestorven": 12477, "kep": 14188, "waarbij": 22151, "tegenhouden": 19904, "AS": 548, "strak": 19646, "##esh": 25182, "Wales": 7514, "schoondochter": 18736, "fotograferen": 11707, "D\u00e9": 2306, "gebakken": 11861, "##keuken": 26471, "buitenshuis": 9979, "##vergadering": 29364, "boem": 9730, "oordeel": 16782, "Gilbert": 2950, "levende": 14988, "Arnold": 911, "hardhandig": 13069, "welwillend": 22350, "Dennis": 2089, "Welzijn": 7579, "gelanceerd": 12137, "verruil": 21293, "##aanbod": 23766, "##maatregelen": 27006, "spoorwegen": 19319, "Hammond": 3179, "onbelangrijk": 16324, "##woestijn": 29768, "stunt": 19739, "mok": 15752, "voorkomen": 21920, "assisen": 8603, "hoofdinspecteur": 13386, "afgelegd": 8239, "##ple": 27813, "gierend": 12693, "voorkeur": 21918, "appels": 8523, "opengesperd": 16827, "bevestigde": 9391, "noodzakelijke": 16118, "overvallers": 17176, "##muren": 27234, "Pep": 5553, "Krant": 4126, "even": 11403, "Hel": 3278, "onderzoeks": 16443, "eerstejaars": 11162, "Ta": 6801, "jammerde": 13927, "##?": 87, "onverstoorbaar": 16729, "##i": 121, "therapeut": 20061, "Sel": 6355, "liedje": 15043, "hoor": 13429, "SEC": 6162, "gr": 12823, "motieven": 15823, "verzorgd": 21600, "##1834": 23008, "##ziel": 29890, "##\u00f2": 30017, "putten": 17902, "schaduw": 18588, "##zetting": 29879, "210": 405, "##pras": 27885, "Daan": 2002, "Block": 1298, "beurskoers": 9364, "duizend": 11056, "schikte": 18690, "espresso": 11366, "seminar": 18860, "Mocht": 4916, "Passa": 5509, "deelgenomen": 10561, "##lift": 26849, "vrijwillige": 22083, "gesignaleerd": 12424, "doven": 10923, "stimulans": 19562, "onderbrak": 16353, "volgende": 21834, "Zaal": 7750, "Baan": 1016, "zolder": 22814, "jochie": 13956, "Monroe": 4957, "huize": 13501, "conventie": 10377, "onvrede": 16745, "opgepikt": 16866, "negeren": 16016, "wree": 22610, "Dordtse": 2218, "Brouwers": 1491, "elementaire": 11251, "Koender": 4061, "Grande": 3040, "racistisch": 17941, "radeloos": 17944, "verhuurd": 21061, "##uys": 29279, "Grondwet": 3081, "gelden": 12143, "##oot": 27531, "hoofdpersoon": 13392, "hongersnood": 13377, "Heerlijk": 3259, "duurzame": 11079, "schaamde": 18573, "Arn": 905, "bo": 9705, "wil": 22482, "Mick": 4843, "##osh": 27591, "verhullen": 21058, "leiding": 14934, "afkeer": 8274, "leunen": 14981, "##ERT": 23322, "weigert": 22328, "prestigieuze": 17703, "zonne": 22835, "##trokken": 29115, "blok": 9681, "ontbijt": 16575, "Iv": 3655, "woelige": 22546, "Fanta": 2575, "##tionele": 29020, "trui": 20398, "yoga": 22629, "aspecten": 8599, "hond": 13368, "bewaren": 9434, "Wall": 7517, "inbraak": 13647, "recensie": 18025, "##ar": 24023, "traint": 20301, "gelijknamig": 12174, "##\u00e9\u00e9": 29977, "##account": 23807, "Se": 6336, "winter": 22518, "Agent": 651, "##broek": 24480, "Klasse": 4022, "Klo": 4038, "##bout": 24443, "transparant": 20317, "Bohemen": 1335, "##TG": 23673, "##tarieven": 28897, "waan": 22145, "##demonstreerd": 24821, "##charmeerd": 24576, "oorverdovend": 16794, "##taxi": 28901, "##ifica": 26126, "maken": 15317, "Groenin": 3077, "##bedrijven": 24205, "Rombouts": 6058, "##kun": 26647, "Anti": 833, "joch": 13955, "romp": 18398, "Agenc": 650, "verklaringen": 21091, "strijdkracht": 19685, "##taal": 28868, "##erink": 25159, "59": 468, "bemachtig": 9079, "spreekkamer": 19339, "teken": 19918, "examen": 11422, "bewaken": 9428, "volstaa": 21857, "20ste": 403, "Ca": 1578, "Paars": 5447, "##camp": 24531, "Smit": 6508, "##gestraft": 25621, "Ooit": 5354, "Audi": 956, "##dal": 24785, "##loop": 26947, "##meenschappelijk": 27086, "##nieuwsgierigheid": 27318, "Roll": 6052, "gitaar": 12717, "##verslag": 29415, "nicotine": 16054, "Vermoedelijk": 7314, "##blauw": 24363, "##lek": 26767, "Nummer": 5259, "absolute": 8070, "trappelen": 20323, "##graph": 25778, "initiatie": 13740, "ticket": 20076, "##leer": 26747, "uitgemaakt": 20526, "verleden": 21127, "wetenschap": 22426, "##ffi": 25262, "Rand": 5852, "Kerkrade": 3966, "Prince": 5741, "onderwereld": 16431, "Pol": 5679, "##gezegd": 25686, "aarzel": 8056, "Somali\u00eb": 6543, "##vac": 29290, "behoorde": 8952, "belofte": 9066, "bleef": 9635, "##relatie": 28090, "zorgwekkend": 22866, "##namen": 27259, "EG": 2310, "operator": 16842, "pop": 17604, "protocol": 17843, "##EA": 23281, "##NA": 23508, "Mieke": 4856, "##rim": 28176, "Volks": 7428, "neerkomen": 15994, "miljonair": 15632, "##abi": 23792, "##proportion": 27933, "missie": 15692, "##VM": 23726, "Irak": 3623, "##uw": 29272, "levensmiddelen": 14998, "Hogeschool": 3403, "Ook": 5355, "Ice": 3544, "Broadway": 1477, "Wetenschapper": 7612, "anno": 8489, "eventueel": 11409, "trucje": 20395, "##lectuur": 26736, "mijn": 15612, "wijken": 22467, "IK": 3526, "verklaren": 21089, "##\u201e": 152, "##rif": 28160, "Zoetermeer": 7807, "vest": 21612, "Ja": 3666, "Visser": 7379, "Singapore": 6456, "Zoal": 7805, "Challenge": 1711, "See": 6350, "Mil": 4866, "Stond": 6694, "Clara": 1798, "Hoogovens": 3450, "##gebogen": 25397, "##emlin": 25105, "nipt": 16082, "Swart": 6768, "beweer": 9439, "cijfers": 10158, "ni\u00e9t": 16084, "vanzelf": 20738, "##factor": 25234, "Vuelta": 7477, "ouder": 17053, "gehes": 12065, "##j": 122, "wieg": 22447, "Trek": 7045, "##isha": 26279, "tit": 20120, "##itis": 26306, "mompel": 15761, "patat": 17326, "speeldag": 19239, "##hon": 25969, "Too": 7008, "lievelings": 15065, "Zuider": 7828, "##pest": 27749, "bevredigend": 9414, "##springen": 28637, "Zwan": 7841, "220": 407, "BV": 1013, "schreeuwde": 18771, "vakmanschap": 20708, "steekproef": 19461, "havens": 13097, "Christopher": 1772, "storen": 19615, "ontelbare": 16591, "onderhandeling": 16378, "hoog": 13407, "JAN": 3662, "Sri": 6614, "kwade": 14735, "##away": 24136, "terugkeerde": 20017, "##taart": 28870, "scheiding": 18630, "##hap": 25866, "Strip": 6717, "fungeren": 11775, "##\u00e9": 142, "symbolische": 19793, "kwalificatie": 14737, "Mountain": 4998, "##DI": 23267, "afstammeling": 8322, "doofde": 10866, "1914": 292, "driehonderd": 10969, "begroeiing": 8910, "##sticht": 28739, "Penn": 5547, "dienstregeling": 10682, "juf": 13991, "bourgeois": 9826, "vrijkomen": 22078, "Cate": 1671, "Jefferson": 3721, "totale": 20257, "zwijgend": 22959, "##tunica": 29144, "##doende": 24897, "##lokalen": 26936, "##spaar": 28583, "voorzieningen": 21996, "volhoud": 21839, "Sail": 6195, "finish": 11614, "gediscussieerd": 11972, "iedereen": 13585, "Republikein": 5937, "hol": 13353, "##\u2013": 147, "kerken": 14194, "zagen": 22649, "##gele": 25486, "m\u00e9t": 15881, "Kracht": 4122, "motiveren": 15826, "universiteit": 20658, "Dijk": 2133, "##trans": 29082, "Sh": 6390, "Peer": 5537, "Tirol": 6972, "##VC": 23714, "colonne": 10220, "Koeman": 4059, "uitbundig": 20485, "##ontduiking": 27496, "Frau": 2739, "Ruud": 6147, "##gegooid": 25443, "##2000": 23036, "vertoonde": 21431, "Dahl": 2018, "##moto": 27211, "##cycl": 24764, "Antho": 831, "1917": 295, "honderd": 13370, "##ianus": 26044, "opvolgen": 16997, "beleggingsfonds": 9050, "##liga": 26851, "##KO": 23449, "Onge": 5338, "inzien": 13892, "Dakota": 2023, "Geluid": 2857, "overgebracht": 17099, "##BU": 23226, "onderhandelen": 16377, "Gaal": 2789, "ontstond": 16666, "gebrekkige": 11904, "##plaatje": 27794, "overheids": 17117, "##ianen": 26041, "##jar": 26353, "##strijken": 28808, "Vondelpark": 7439, "ellende": 11265, "gehuld": 12080, "hasj": 13092, "extremistisch": 11473, "verloving": 21169, "Sanne": 6228, "modieuze": 15722, "moeten": 15744, "platen": 17504, "##ur": 29244, "gegaan": 12028, "schrijftafel": 18780, "condoom": 10310, "gif": 12696, "trek": 20343, "Kust": 4168, "hut": 13524, "##bevel": 24308, "regenwoud": 18124, "##f": 118, "ge\u00efnfecteerd": 12675, "Admiraal": 616, "gekeerd": 12095, "Brabander": 1413, "songwriter": 19184, "geleid": 12159, "##\u00ebn": 29982, "gadget": 11796, "Theres": 6908, "nachts": 15907, "##aas": 23786, "Sch\u00f6n": 6329, "Trop": 7061, "Urk": 7163, "aardewerk": 8047, "Three": 6926, "Carine": 1635, "cirkel": 10168, "zoektocht": 22805, "Belg": 1150, "schepen": 18647, "Brood": 1486, "VB": 7177, "paar": 17201, "vernedering": 21213, "##chov": 24600, "Jung": 3841, "city": 10177, "eurocent": 11393, "Im": 3564, "ingelicht": 13706, "idiote": 13580, "Golfoorlog": 3002, "waarschijnlijk": 22180, "ruggen": 18453, "architect": 8548, "##niveau": 27326, "gauw": 11836, "geproduceerd": 12326, "joden": 13957, "geeft": 12003, "geschat": 12392, "plas": 17497, "doorschemeren": 10893, "gevoerd": 12560, "wortel": 22602, "hoveling": 13467, "Cor": 1917, "bovenkant": 9840, "opsomming": 16966, "strijders": 19684, "Step": 6663, "##verbinding": 29343, "beheerder": 8935, "online": 16530, "Ramalla": 5846, "Welnee": 7576, "expert": 11442, "flank": 11628, "##moment": 27191, "##stand": 28693, "reling": 18190, "##pay": 27718, "uitblink": 20476, "adequaat": 8182, "verworpen": 21562, "##ique": 26259, "vervolgen": 21479, "##rechten": 28046, "##patrouille": 27716, "fietste": 11577, "##p": 128, "stress": 19679, "failliet": 11492, "impuls": 13642, "mu": 15838, "##verhoging": 29371, "Thialf": 6912, "Engeland": 2446, "##tentie": 28946, "Gilles": 2952, "gemiddeld": 12223, "Christian": 1765, "Hay": 3232, "bestelbus": 9273, "torens": 20253, "mollig": 15758, "suiker": 19766, "toen": 20162, "bevat": 9375, "Swift": 6771, "Jasper": 3711, "Hee": 3251, "Mabel": 4546, "uitgestald": 20541, "lachje": 14790, "##vit": 29485, "kapper": 14112, "ondenkba": 16347, "strategisch": 19658, "##vlieger": 29501, "tijdrovend": 20097, "Fire": 2648, "##borstel": 24432, "##adre": 23847, "##moed": 27177, "##ajo": 23904, "leraar": 14956, "haastte": 12992, "uitvoerde": 20620, "meevaller": 15491, "Mall": 4597, "##GO": 23368, "Fruit": 2768, "oversteek": 17158, "Avonds": 982, "Santos": 6233, "behartig": 8932, "gedisciplineerd": 11970, "##wachting": 29628, "##PP": 23594, "Heer": 3256, "eetkamer": 11164, "kauwen": 14150, "talen": 19843, "Top": 7010, "elk": 11259, "Hartog": 3213, "rockband": 18360, "##holland": 25964, "vanmorgen": 20733, "WK": 7486, "##klonk": 26541, "verzamelde": 21570, "##name": 27258, "lonen": 15155, "##werving": 29707, "##ura": 29245, "verleiden": 21135, "minuut": 15666, "vervormd": 21483, "##handig": 25860, "##thi": 28981, "Verrassend": 7319, "beleefd": 9038, "om": 16237, "Wie": 7624, "Stop": 6696, "schijnsel": 18684, "plekje": 17523, "schrijf": 18777, "Kenny": 3960, "Zyg": 7860, "Brecht": 1439, "Heverlee": 3347, "hi\u00ebrarchie": 13319, "Reagan": 5877, "##producten": 27918, "honden": 13369, "Louise": 4459, "giet": 12694, "doorbreken": 10876, "worst": 22596, "Maan": 4535, "Fla": 2655, "##1877": 23029, "pluche": 17545, "##geknoopt": 25474, "durfde": 11067, "bied": 9537, "##aja": 23902, "##ssing": 28664, "protestants": 17837, "##\u00e8re": 29966, "voltooiing": 21864, "sympathiek": 19800, "trouwde": 20391, "##vil": 29466, "Doctor": 2176, "##orna": 27579, "Diederik": 2124, "biologie": 9597, "##wil": 29747, "Zembla": 7784, "coalitiepartner": 10202, "klasgenote": 14302, "Volg": 7423, "mix": 15703, "baard": 8679, "uitgestrekte": 20546, "negatief": 16005, "##bekend": 24234, "##dimension": 24859, "thermometer": 20065, "##ichthy": 26057, "fiscale": 11619, "Geo": 2884, "##sti": 28738, "##rlin": 28207, "doodziek": 10864, "prior": 17742, "ijsje": 13594, "premies": 17686, "beurzen": 9369, "##dien": 24848, "kreunend": 14637, "produceer": 17771, "welzijn": 22351, "Tijdens": 6951, "##afdeling": 23863, "##bor": 24424, "##kind": 26491, "aanspreken": 7988, "klemde": 14337, "detective": 10638, "verrijken": 21288, "puzzel": 17904, "loop": 15173, "saxofoon": 18561, "groet": 12917, "hebt": 13107, "trager": 20288, "##markten": 27050, "##sein": 28440, "duinen": 11048, "spleetje": 19297, "lezers": 15012, "Virtu": 7377, "monotypisch": 15778, "Ski": 6473, "##arts": 24064, "deskundige": 10630, "haast": 12990, "##quil": 27971, "Nils": 5203, "uitzoek": 20640, "##pels": 27729, "##los": 26962, "herbergier": 13193, "sponzen": 19312, "logisch": 15144, "Cab": 1579, "Apeldoorn": 849, "##midden": 27132, "Ronald": 6066, "Hir": 3375, "##vreugde": 29589, "Nike": 5195, "##bosch": 24434, "Admiral": 617, "waarde": 22154, "##agentschap": 23883, "begin": 8890, "stoppen": 19612, "##PER": 23582, "faalde": 11476, "hoeveel": 13339, "Police": 5684, "maatschappelijk": 15272, "boven": 9834, "vooraleer": 21885, "##bb": 24190, "toptien": 20251, "bezield": 9490, "Nikki": 5198, "Leon": 4306, "dwergen": 11099, "werkgever": 22390, "##86": 23140, "ongeloof": 16480, "verkeersongeluk": 21072, "erop": 11351, "diarree": 10658, "##daal": 24775, "##tai": 28874, "piepklein": 17423, "vergetelheid": 21004, "astronomisch": 8613, "Mead": 4739, "Pho": 5601, "juwelen": 14016, "draagvlak": 10935, "excuse": 11426, "producent": 17773, "##keten": 26467, "Pala": 5460, "Tenzij": 6868, "72": 486, "##cock": 24657, "haastig": 12991, "piraten": 17451, "##hoewel": 25956, "verstoken": 21386, "regerings": 18129, "cijfer": 10157, "Jef": 3719, "kraakte": 14597, "##wetenschappelijk": 29713, "F": 33, "Toledo": 6996, "verlichten": 21145, "videoclip": 21637, "cre": 10413, "kerkelijke": 14193, "postbode": 17635, "gerechtelijk": 12342, "achterom": 8125, "##hausen": 25878, "Macht": 4554, "elleboog": 11264, "ge\u00efntegreerd": 12679, "grauwe": 12859, "ingetrokken": 13719, "jarige": 13935, "##kevers": 26474, "boodschap": 9777, "aartsbisschop": 8054, "sceptisch": 18568, "rond": 18399, "slinger": 19025, "2004": 385, "Colombiaans": 1850, "1934": 312, "May": 4721, "bus": 10014, "##olkshuisvesting": 27432, "bas": 8756, "helaas": 13157, "tussenpoze": 20426, "bloemen": 9676, "##wang": 29641, "Historic": 3379, "Televisie": 6858, "Lotto": 4456, "Terri": 6876, "ingevuld": 13721, "pedofiel": 17348, "##matige": 27064, "eenzijdig": 11149, "dieselmotor": 10705, "promo": 17818, "##ROS": 23622, "##beurt": 24305, "korpschef": 14563, "44": 446, "verzameling": 21572, "achttien": 8145, "##GM": 23366, "werkgevers": 22391, "sturen": 19740, "voorspelt": 21951, "1500": 211, "begaafd": 8877, "##isca": 26269, "##onische": 27483, "##fondsen": 25308, "hopelijk": 13436, "gebouwd": 11897, "gezelschap": 12633, "##out": 27624, "Fre": 2740, "driehoek": 10967, "waakt": 22143, "##geacht": 25382, "Eendracht": 2359, "leukst": 14979, "afdwingen": 8222, "##ijs": 26160, "categor": 10082, "Turken": 7098, "smerig": 19082, "stortvloed": 19623, "universiteiten": 20659, "Dieren": 2128, "draaide": 10937, "Les": 4316, "##cup": 24757, "##pha": 27755, "Santa": 6230, "onderliggend": 16388, "##sprei": 28632, "Hotspur": 3469, "Mari\u00eb": 4655, "##ave": 24127, "ober": 16171, "crises": 10431, "##standig": 28695, "19de": 378, "inbraken": 13648, "isolement": 13907, "onuit": 16710, "##phin": 27758, "Democratisch": 2082, "Amo": 767, "gehinderd": 12067, "Gold": 2998, "1936": 314, "##imi": 26187, "ziektekosten": 22763, "Marin": 4647, "29": 422, "Zu": 7825, "pijnlijke": 17432, "Up": 7160, "##TABEL": 23666, "Financi\u00ebn": 2642, "##woningcorporatie": 29779, "mysterie": 15874, "ploegleider": 17535, "##oren": 27566, "Franklin": 2729, "beveiliger": 9381, "S\u00e9basti": 6790, "bulldozer": 9994, "##zakken": 29842, "Schaap": 6264, "kei": 14161, "Storm": 6699, "vorig": 22005, "##zuiger": 29936, "Cathy": 1675, "oplichter": 16915, "laboratori": 14784, "route": 18437, "Paleis": 5463, "##geklopt": 25471, "##staan": 28672, "Saul": 6252, "##gedraaid": 25422, "engel": 11288, "general": 12253, "Haver": 3227, "aangename": 7904, "Cadfael": 1582, "Dorian": 2219, "consultatie": 10344, "informant": 13685, "ontsnapte": 16654, "speculatie": 19233, "wagens": 22202, "Grappig": 3042, "beloning": 9069, "##est": 25189, "MR": 4528, "sporten": 19324, "onbruikbaar": 16346, "##enburg": 25111, "VA": 7173, "MTV": 4529, "afwerend": 8344, "betaalt": 9312, "##113": 22992, "Ho": 3387, "##NMa": 23522, "walvissen": 22211, "kleindochter": 14327, "steile": 19469, "kwaliteits": 14743, "tragische": 20290, "Recht": 5887, "##kreten": 26628, "##kansen": 26422, "Vivi": 7386, "achterblijven": 8105, "##NP": 23525, "oogt": 16776, "kantoorgebouw": 14097, "misverstand": 15699, "theatral": 20052, "stormen": 19619, "Em": 2425, "Atletic": 949, "Serv": 6378, "baas": 8681, "machines": 15277, "Cler": 1812, "kenmerkt": 14178, "lopend": 15180, "luisterde": 15229, "##gro": 25795, "##onn\u00e9": 27489, "Begin": 1130, "snee": 19107, "vervelen": 21465, "opletten": 16911, "sprankelend": 19337, "lam": 14811, "opbrengen": 16807, "rustiger": 18494, "Dru\u00efde": 2262, "##rivier": 28198, "kwal": 14736, "120": 190, "deftig": 10581, "brandstoffen": 9866, "jazz": 13939, "vijandelijk": 21654, "waaronder": 22178, "Potter": 5716, "broekspijp": 9908, "tenzij": 19977, "corrupte": 10392, "marktwerking": 15384, "toegewijd": 20147, "maritiem": 15376, "compilatie": 10267, "##ensis": 25124, "Tibet": 6937, "berekend": 9153, "boomgaard": 9782, "ingeschat": 13714, "##bouwer": 24445, "Bruin": 1499, "exploiteer": 11450, "adviseren": 8206, "lach": 14787, "tumult": 20413, "Neurenberg": 5145, "snot": 19130, "##sprinkhanen": 28639, "Zedd": 7770, "Rui": 6123, "major": 15314, "Roemenen": 6036, "##71": 23127, "Dul": 2289, "fier": 11571, "##waak": 29617, "Goede": 2991, "verzen": 21584, "beervlinder": 8870, "##blaadjes": 24357, "##zwemmen": 29953, "##rit": 28192, "knalde": 14397, "##ko": 26559, "druiven": 11016, "December": 2062, "glimlach": 12740, "Tem": 6860, "kist": 14271, "##AAF": 23156, "Corporation": 1927, "zitting": 22794, "publiceerde": 17880, "##bsoluut": 24492, "##cker": 24639, "##FM": 23345, "Be": 1102, "##serie": 28452, "tegelijk": 19895, "vee": 20780, "##iseert": 26275, "Orde": 5388, "Brink": 1462, "inhaal": 13733, "geschreeuw": 12414, "irrelevant": 13898, "##IJN": 23414, "Spui": 6611, "lobby": 15128, "##NSB": 23529, "##geleerd": 25489, "kregen": 14631, "Klaver": 4025, "voorstellen": 21958, "Windows": 7657, "bespreke": 9261, "Haar": 3141, "##fysic": 25351, "Meso": 4811, "vilt": 21673, "Slot": 6492, "doelen": 10797, "Mede": 4745, "binnenkomen": 9586, "vloed": 21746, "winkelen": 22502, "gepromoveerd": 12329, "##our": 27622, "allerlaatste": 8410, "##essen": 25185, "00": 154, "vergrootgla": 21022, "NL": 5053, "minder": 15638, "1880": 258, "eindronde": 11223, "##iza": 26330, "##kasteel": 26438, "geslagen": 12430, "ontnem": 16632, "##kapital": 26430, "afwachting": 8338, "Louvre": 4463, "bekentenis": 8979, "##klinken": 26538, "vernieuwen": 21222, "##koor": 26590, "hekken": 13152, "##\u00e8ge": 29963, "erom": 11349, "euthanasie": 11396, "##65": 23120, "verwijderd": 21537, "verzocht": 21591, "##\u00ebren": 29984, "Drama": 2241, "##zwem": 29952, "spulletje": 19363, "pri": 17713, "Georges": 2889, "Idi": 3547, "tab": 19820, "##bang": 24172, "Guy": 3120, "Bed": 1115, "##ling": 26880, "Sub": 6733, "Kent": 3961, "gezamenlijke": 12625, "gedo": 11973, "##part": 27698, "wimpel": 22494, "abrupt": 8069, "zeebodem": 22675, "##gemunt": 25518, "hersens": 13244, "##gezin": 25695, "Mongoli\u00eb": 4952, "Wallace": 7518, "##ugh": 29187, "arbeidsplaats": 8536, "Alleen": 723, "##and": 23972, "##r": 130, "controleren": 10370, "margin": 15368, "degene": 10583, "Mia": 4829, "Snijd": 6519, "Celest": 1687, "put": 17901, "##ola": 27425, "breekt": 9878, "Bow": 1403, "Jongeren": 3789, "middernacht": 15602, "verduisterd": 20956, "schud": 18797, "##ndy": 27273, "Mooi": 4968, "Louw": 4464, "##rubriek": 28269, "##uiven": 29207, "rechte": 18038, "centrale": 10102, "foute": 11713, "91": 512, "wijzigingen": 22480, "Poperinge": 5701, "##pod": 27832, "##nick": 27310, "dal": 10506, "getipt": 12497, "peloton": 17355, "gekrenkt": 12122, "tastbaar": 19873, "prominente": 17817, "##kanalen": 26415, "-": 12, "1908": 286, "eentonig": 11141, "ge\u00ebvalueerd": 12665, "ontvoerd": 16679, "voorval": 21983, "bouwvergunning": 9832, "omgerekend": 16250, "Sum": 6744, "##derhand": 24829, "##kust": 26657, "##ES": 23323, "Key": 3980, "##geschoven": 25587, "grondstoffen": 12932, "Poort": 5699, "matte": 15415, "re\u00ebel": 18285, "nauwgezet": 15967, "Taylor": 6833, "ondertekend": 16418, "Sophia": 6553, "scharen": 18605, "conservatorium": 10329, "ideaal": 13565, "Rasmussen": 5863, "bitter": 9608, "bedreiging": 8833, "thee": 20053, "Pieter": 5618, "demonen": 10604, "##ong": 27473, "strook": 19702, "grijs": 12886, "##verklaring": 29379, "sommigen": 19179, "Middle": 4855, "management": 15334, "Ring": 6001, "Dost": 2224, "sympathisant": 19801, "Jill": 3750, "slopen": 19038, "##draaien": 24931, "Blo": 1297, "##KR": 23452, "Meppel": 4793, "beha": 8917, "Telef": 6852, "GB": 2780, "geklopt": 12107, "prijs": 17718, "net": 16030, "Mevrouw": 4821, "Gay": 2828, "binnenplaats": 9590, "versterken": 21377, "subsidies": 19752, "Keith": 3942, "sommige": 19178, "klimaat": 14357, "hoeken": 13333, "Mechelse": 4742, "##rekening": 28085, "Merrill": 4808, "1871": 252, "gebaseerd": 11864, "specialist": 19225, "##redactie": 28055, "McC": 4725, "dwingen": 11101, "twintigtal": 20457, "bruid": 9936, "verbergen": 20858, "crypto": 10441, "Balkenende": 1045, "Price": 5737, "check": 10126, "onderdrukking": 16363, "zelfbewust": 22705, "##ZW": 23753, "n\u00e9t": 16167, "bemanning": 9081, "bedaard": 8792, "tak": 19838, "twinkel": 20454, "Burton": 1542, "paniek": 17235, "ontknoping": 16618, "Wy": 7713, "sabel": 18509, "liep": 15059, "Miguel": 4859, "concurrerende": 10308, "reikt": 18153, "Hor": 3460, "beticht": 9325, "maatsta": 15274, "dorpje": 10913, "opperde": 16937, "basisscholen": 8764, "Vel": 7261, "Giuli": 2969, "Citro\u00ebn": 1791, "contract": 10363, "Brabant": 1414, "deels": 10569, "Alweer": 744, "Praat": 5726, "misdrijf": 15677, "contacten": 10350, "veertien": 20795, "vijftien": 21666, "##iger": 26138, "2009": 390, "drievoudig": 10974, "vindingrijk": 21676, "##vandaan": 29303, "glimp": 12747, "tests": 20037, "geruststellend": 12386, "romantiek": 18393, "super": 19774, "##angenaam": 23986, "Cinema": 1785, "verschroeid": 21325, "Lod": 4423, "Domin": 2196, "spreekwoord": 19341, "##gezakt": 25685, "overstemd": 17160, "##lading": 26686, "##kantoren": 26425, "##legging": 26757, "Auschwitz": 964, "Johannesburg": 3773, "##identiteitsbewij": 26078, "spiegel": 19271, "wachters": 22194, "Reis": 5918, "loopkever": 15176, "wetsontwerp": 22433, "kunstgras": 14713, "zeehonden": 22676, "##kabel": 26397, "##aco": 23823, "tillen": 20108, "schaker": 18593, "chic": 10133, "Ara": 860, "118": 188, "marxis": 15390, "##graag": 25768, "drie\u00ebn": 10975, "Hed": 3249, "strekking": 19671, "asperge": 8600, "##phor": 27761, "vandaag": 20726, "157": 213, "Concre": 1882, "Hierop": 3359, "##geen": 25435, "Mendonck": 4787, "aanleg": 7954, "godin": 12776, "verdiepingen": 20933, "##anna": 23995, "muzikant": 15870, "ruik": 18459, "Singel": 6457, "Auvergne": 973, "voorspellen": 21949, "weigering": 22327, "offs": 16214, "Laurens": 4250, "##eveld": 25212, "##druk": 24963, "##zogen": 29918, "omhelsd": 16257, "Ai": 665, "producenten": 17774, "serieus": 18876, "zorgverzekeraar": 22864, "Zambia": 7760, "Kempen": 3950, "Johnson": 3777, "##korf": 26598, "##icula": 26068, "menigte": 15523, "verlof": 21157, "Barnard": 1070, "vlekke": 21729, "##ronk": 28239, "gestuit": 12485, "liquidatie": 15117, "wetenschappen": 22427, "hierboven": 13280, "Binnen": 1262, "##hockey": 25949, "##doel": 24893, "durven": 11069, "grijnzen": 12882, "##extremist": 25224, "Way": 7551, "Jumbo": 3837, "enzym": 11309, "finalist": 11607, "Vincenz": 7369, "##spurt": 28650, "interventie": 13842, "nauw": 15964, "gold": 12794, "melancholie": 15502, "Heather": 3242, "Cardi": 1630, "Strauss": 6710, "Barclay": 1068, "piekeren": 17420, "probeerde": 17754, "onrechtmatig": 16556, "##rijp": 28170, "Aho": 663, "oplopen": 16917, "kauwde": 14149, "schede": 18615, "roots": 18426, "zwart": 22933, "Indy": 3588, "N": 41, "geschriften": 12417, "Kno": 4048, "##singel": 28483, "##steenvlieg": 28715, "vlinder": 21745, "discipline": 10745, "snowboard": 19131, "Cath": 1672, "##EEL": 23289, "##emp": 25107, "##lep": 26778, "afscheid": 8303, "smoes": 19091, "onderwijs": 16433, "intercom": 13820, "##aars": 23785, "afslag": 8310, "Titan": 6973, "priv\u00e9leven": 17751, "Bristol": 1465, "on": 16300, "Istanbul": 3646, "Literatuur": 4406, "relaties": 18177, "verhoren": 21050, "overschot": 17152, "Baker": 1038, "Wetenschappe": 7611, "afstaan": 8321, "verving": 21469, "uitgedost": 20513, "bijlage": 9557, "##rrier": 28265, "Gideon": 2943, "botanische": 9814, "overgebleven": 17098, "sensatie": 18865, "##tild": 29009, "sluier": 19044, "##of": 27393, "##bu": 24493, "BMW": 1005, "isolatie": 13906, "dus": 11070, "##strasse": 28792, "regenachtig": 18116, "Indonesi\u00eb": 3585, "##awa": 24135, "##quette": 27969, "Volker": 7427, "Brandt": 1427, "Ashle": 925, "##bekwaam": 24239, "Charlotte": 1728, "Fleming": 2661, "wetenschapper": 22428, "klant": 14293, "bedeesd": 8800, "firma": 11616, "##hak": 25844, "Ter": 6869, "allemaal": 8401, "uitblinker": 20477, "peer": 17349, "verlossing": 21167, "##4": 79, "##temin": 28938, "we": 22264, "ho": 13320, "wandelpad": 22220, "katoen": 14147, "rec": 18024, "NV": 5063, "##me": 27076, "##stap": 28696, "paraat": 17252, "##schoren": 28391, "verlang": 21122, "kleden": 14315, "heup": 13265, "Erfgoed": 2472, "werkkamer": 22394, "ontgoocheld": 16598, "##baarheid": 24150, "##probleem": 27909, "oneindig": 16457, "##08": 22984, "R\u00e9gi": 6155, "blazen": 9633, "##dief": 24846, "regeling": 18109, "Jong": 3786, "##atta": 24106, "##1882": 23030, "##rig": 28161, "##even": 25213, "##trap": 29086, "Wethouder": 7613, "afgevaardigde": 8255, "Zwijg": 7853, "afgevoerd": 8258, "delicate": 10595, "Po\u00ebzie": 5722, "heren": 13200, "rechtsstaat": 18053, "Hy": 3505, "##pho": 27759, "voorspelde": 21948, "Wehrmacht": 7565, "ref": 18093, "##doken": 24901, "nobel": 16086, "##scentrum": 28318, "19": 276, "fax": 11537, "spot": 19331, "bang": 8730, "doelsaldo": 10805, "Tervuren": 6880, "Rivier": 6008, "spil": 19280, "verlengde": 21139, "registratie": 18143, "verstandig": 21372, "##gate": 25376, "aangeboden": 7887, "##fles": 25296, "transfervrij": 20313, "Karin": 3908, "Louis": 4458, "beginsel": 8893, "##gehangen": 25452, "Clo": 1821, "stalen": 19404, "nerveu": 16025, "bewolkt": 9461, "bestudeer": 9292, "glazen": 12731, "##1862": 23023, "##arbeiders": 24028, "1907": 285, "##osoma": 27596, "Grand": 3039, "vaccinatie": 20689, "Douglas": 2227, "catastrofe": 10081, "Har": 3197, "##guy": 25822, "zondag": 22822, "Lodewijk": 4424, "Mertens": 4809, "##kapitaal": 26429, "karretje": 14125, "##kram": 26620, "macht": 15280, "Remo": 5929, "Story": 6700, "drijft": 10980, "##co\u00f6peratie": 24722, "Alkmaar": 718, "gefronst": 12026, "##bonnen": 24414, "##iaal": 26034, "IT": 3536, "statisch": 19443, "Bes": 1209, "ambachtelijk": 8439, "robot": 18356, "vastge": 20756, "Mulder": 5010, "Oor": 5357, "Vakbond": 7210, "Bundesliga": 1532, "Bosch": 1377, "lifestyle": 15069, "onbetaalbaar": 16337, "accountant": 8091, "langdurig": 14840, "huwelijksrei": 13537, "Smet": 6506, "functie": 11759, "prikte": 17728, "spectaculair": 19231, "##basiliek": 24182, "Dick": 2120, "Ser": 6368, "Kreta": 4129, "inclu": 13658, "merknaam": 15549, "Pon": 5694, "don": 10836, "##boom": 24419, "Chester": 1738, "Chrysom": 1775, "barst": 8753, "GroenLinks": 3075, "##58": 23112, "##ok": 27417, "schermpje": 18656, "overgaan": 17094, "opgenomen": 16864, "##tter": 29133, "rebel": 18021, "betwist": 9356, "satelliet": 18554, "##inter": 26244, "pissebed": 17452, "##GZ": 23372, "pannen": 17237, "ABN": 527, "aanlokkelijk": 7956, "speech": 19235, "substantie": 19754, "inval": 13859, "Bank": 1057, "vaardig": 20679, "##STER": 23660, "##ppi": 27880, "##geslacht": 25592, "slechter": 18996, "uitzendkracht": 20636, "Michelle": 4839, "TWEE": 6800, "Cash": 1656, "##GR": 23369, "schat": 18608, "Erica": 2476, "FC": 2548, "##VW": 23734, "elfde": 11254, "##boek": 24397, "beurtelings": 9368, "##stuiven": 28829, "##schijf": 28367, "vijanden": 21655, "wat": 22252, "gewerkt": 12595, "Afghaans": 636, "geroemd": 12373, "onhoorbaar": 16526, "##tiv": 29028, "h\u00e8": 13552, "missen": 15691, "kitsch": 14274, "##gall": 25362, "veilinghui": 20811, "##heid": 25900, "##hawk": 25882, "donderdagavond": 10840, "Wulf": 7712, "voortvloei": 21975, "ouders": 17058, "##flex": 25299, "co": 10199, "afgesloten": 8251, "sluimer": 19045, "ritselen": 18343, "Roth": 6094, "Kijk": 3996, "##tos": 29066, "zodanig": 22798, "##verkopen": 29381, "onveranderd": 16714, "representatie": 18224, "##materialen": 27061, "viel": 21638, "Zoom": 7816, "geit": 12087, "Ph": 5590, "##dronken": 24960, "##xi": 29805, "##Nobel": 23535, "spoelde": 19304, "##gebracht": 25405, "Oog": 5353, "omklemde": 16264, "##fabriek": 25230, "##gespoeld": 25606, "Woedend": 7678, "toestemming": 20190, "Maandag": 4536, "kousen": 14591, "##aleb": 23924, "##SF": 23638, "hier": 13277, "plafond": 17480, "##spoor": 28620, "##toneel": 29055, "(": 9, "intensiteit": 13814, "vroedvrouw": 22086, "##cam": 24529, "races": 17938, "cognac": 10208, "##WA": 23739, "night": 16074, "Kot": 4116, "gordijnen": 12812, "##temperatuur": 28940, "Nathan": 5089, "##corp": 24714, "##teams": 28904, "omheining": 16256, "##zorg": 29927, "drukte": 11023, "##transplantatie": 29084, "knoop": 14432, "##zanger": 29850, "betaalde": 9311, "##opname": 27547, "Vreselijk": 7462, "##roos": 28246, "onfortuinlijk": 16460, "getroost": 12508, "promoten": 17819, "Chu": 1776, "wanhopige": 22226, "##lant": 26711, "Kosova": 4111, "##argument": 24039, "drijven": 10982, "lees": 14906, "volkstelling": 21848, "London": 4440, "Zand": 7762, "do": 10769, "Kra": 4120, "verwachtingsvol": 21502, "Crow": 1960, "Scarlet": 6261, "Hur": 3498, "scheermes": 18627, "waterdicht": 22254, "drinken": 10988, "Meg": 4757, "tilt": 20109, "##uyt": 29280, "Kohl": 4069, "Mason": 4687, "sap": 18549, "Hermes": 3329, "K\u00f6nig": 4182, "schrijft": 18779, "Aarde": 565, "gereden": 12348, "opvolgde": 16996, "##wich": 29723, "##las": 26717, "bumper": 9996, "Erwin": 2482, "montage": 15782, "Schuurman": 6324, "Aquita": 858, "neergestoken": 15991, "profiteerde": 17800, "snor": 19129, "keukendeur": 14213, "opstapt": 16973, "Abe": 579, "terminal": 19986, "##coup": 24717, "bosjes": 9810, "beslist": 9235, "360": 435, "verwerpelijk": 21529, "waarmee": 22169, "Cercle": 1704, "##vlag": 29488, "gebied": 11877, "defensie": 10575, "Grim": 3071, "president": 17696, "##onsumentenbond": 27493, "55": 463, "Janni": 3697, "Keu": 3975, "Naast": 5067, "letsel": 14966, "vaar": 20678, "Race": 5827, "geweten": 12597, "Sara": 6239, "Pyrenee\u00ebn": 5804, "zon": 22820, "##bag": 24157, "institutie": 13786, "##nov": 27347, "invoering": 13879, "##verenigingen": 29363, "##ppen": 27878, "eiwitt": 11231, "##strijders": 28807, "hetzij": 13264, "mechanisch": 15424, "##ongeluk": 27474, "geestelijk": 12008, "##ondernemer": 27463, "kolossale": 14492, "sterspeler": 19516, "##kema": 26450, "Rob": 6011, "MI": 4525, "kracht": 14606, "##ont": 27494, "snelle": 19113, "Universiteit": 7156, "Charles": 1726, "zoveel": 22869, "veevoe": 20799, "##frons": 25343, "Oostenrijks": 5367, "Gui": 3101, "keer": 14157, "##iller": 26179, "##ikkel": 26165, "##herstel": 25920, "##ovi": 27647, "Nobelprijs": 5216, "onderuit": 16423, "Gon": 3004, "bewonderde": 9464, "##lec": 26734, "gebruikers": 11912, "##hall": 25848, "Rutger": 6144, "Bourgogne": 1395, "illusie": 13608, "latere": 14874, "terroristisch": 20000, "##oxi": 27660, "haar": 12989, "##ben": 24250, "Notodont": 5248, "plaatsen": 17469, "##wat": 29653, "Mack": 4555, "Honor": 3439, "2021": 402, "Sylvie": 6779, "Edith": 2346, "Hoop": 3454, "budgettair": 9955, "sinterklaas": 18939, "Connie": 1892, "Tra": 7033, "Web": 7554, "flip": 11646, "oppervlakte": 16942, "opname": 16928, "orthodox": 17046, "gesmoord": 12439, "klooster": 14375, "1969": 347, "kabel": 14033, "Theatre": 6904, "opties": 16979, "##rotten": 28253, "landgenoten": 14828, "getuigde": 12513, "levert": 15009, "video": 21634, "ware": 22242, "##gloss": 25741, "Bommel": 1347, "##agh": 23886, "ramp": 17970, "##mig": 27134, "Fabi": 2556, "ongewoon": 16517, "beslissen": 9232, "##front": 25344, "Rud": 6117, "Merel": 4799, "identiteit": 13575, "kluwen": 14388, "country": 10398, "Wolkers": 7687, "overzees": 17193, "##berichten": 24266, "verwaarloz": 21496, "##cta": 24739, "##therapie": 28979, "bra": 9850, "##halen": 25847, "peuter": 17412, "minister": 15653, "jack": 13920, "plooi": 17540, "stilletje": 19555, "##FF": 23341, "consensus": 10323, "SP": 6166, "Ev": 2515, "Vrije": 7468, "Oostenrijk": 5365, "raadselachtig": 17922, "bijstand": 9561, "brevi": 9889, "pak": 17214, "melding": 15506, "Crypt": 1965, "ruim": 18462, "##flits": 25300, "##missie": 27152, "Por": 5703, "ontzien": 16709, "dubieuze": 11033, "verbazen": 20853, "##akke": 23911, "Justin": 3850, "##shop": 28470, "##weef": 29664, "steunpunt": 19523, "Slo": 6490, "Mecklenburg": 4743, "keukentafel": 14214, "##universiteit": 29237, "##calcul": 24527, "drank": 10949, "mistig": 15697, "mop": 15798, "##struiken": 28821, "Dolf": 2191, "##dding": 24801, "keurmerk": 14220, "behal": 8923, "##nam": 27257, "Yates": 7726, "grijns": 12880, "werkloos": 22395, "##woorden": 29785, "ontbreken": 16582, "Reg": 5899, "##10": 22986, "dubbelzinnig": 11032, "##bewoners": 24321, "bestelling": 9277, "Enterprise": 2461, "##wapen": 29643, "loslaten": 15188, "ossen": 17048, "herinner": 13214, "tennisser": 19969, "waanzinnig": 22147, "Cleveland": 1815, "aangelegd": 7898, "fout": 11712, "Cicero": 1781, "meege": 15461, "v\u00f3\u00f3r": 22137, "##gieter": 25718, "stadium": 19392, "##chef": 24580, "Abbas": 573, "tiener": 20082, "tijdrit": 20096, "##haak": 25829, "##master": 27056, "violet": 21687, "open": 16818, "Toezicht": 6993, "procureur": 17770, "uitbarsting": 20472, "zong": 22832, "Crawford": 1949, "##uki": 29211, "Personen": 5569, "kosten": 14580, "kunstwerk": 14719, "garant": 11816, "##STEL": 23659, "Danny": 2040, "Zwolle": 7859, "administratief": 8188, "grand": 12843, "ket": 14207, "Shim": 6410, "raadpleeg": 17919, "schep": 18646, "##eaux": 25000, "verloofd": 21160, "##life": 26848, "##beet": 24214, "religieuze": 18188, "##aanvraag": 23778, "pin": 17445, "##lier": 26844, "tussenkomst": 20425, "##tekening": 28926, "##ci": 24613, "##ak": 23906, "zesduizend": 22730, "Beroep": 1202, "##UE": 23694, "##cra": 24725, "publicatie": 17877, "beroerte": 9175, "voegde": 21788, "scan": 18564, "##cut": 24762, "knijpen": 14413, "##brief": 24471, "louter": 15197, "onderstrepen": 16417, "onderhandeld": 16376, "##ceps": 24560, "kenmerk": 14175, "##voer": 29530, "hartje": 13087, "##lect": 26735, "fenome": 11562, "##jongens": 26375, "koppen": 14551, "Bron": 1484, "aanbiedingen": 7868, "serveren": 18881, "Edgar": 2343, "moeilijkheden": 15732, "Dochter": 2175, "grijpen": 12884, "onderbreking": 16355, "bolwerk": 9750, "##dringt": 24953, "mengen": 15519, "##TI": 23675, "##coalitie": 24655, "##dan": 24790, "Matt": 4702, "aussi": 8633, "vuilniszak": 22114, "##cept": 24561, "ozon": 17197, "achterstallig": 8128, "dozijn": 10927, "daartegen": 10483, "Fran": 2715, "Second": 6344, "overblijven": 17076, "##lied": 26834, "Pyral": 5802, "omgedoopt": 16245, "##wandeling": 29640, "acceptabel": 8083, "Dani\u00ebl": 2038, "bovenstaande": 9843, "geregistreerd": 12356, "geciteerd": 11921, "Baron": 1073, "icoon": 13563, "ontploft": 16637, "luchtvaart": 15209, "Somalisch": 6542, "opnames": 16930, "hoofdingang": 13385, "valreep": 20715, "##moulin": 27216, "Bulgarije": 1526, "##dio": 24868, "aanbieden": 7865, "bungelde": 9999, "alweer": 8432, "ijsberg": 13592, "loer": 15135, "woordvoerder": 22589, "##tapijt": 28894, "gootsteen": 12809, "spiritue": 19292, "##apparaat": 24019, "Florenc": 2672, "stampte": 19413, "ballet": 8715, "gepresteerd": 12321, "provinciale": 17847, "##lamp": 26697, "rommelig": 18397, "##cr\u00e8me": 24738, "hyper": 13543, "cr\u00e8che": 10442, "Valverde": 7221, "##bleek": 24369, "##ieke": 26097, "##litz": 26898, "Hard": 3199, "gedrukt": 11994, "geometri": 12286, "Amphi": 768, "##OOD": 23557, "vervul": 21488, "##ka": 26391, "bestaat": 9267, "Dorothy": 2221, "Birma": 1269, "##voegsel": 29528, "kamers": 14064, "##moordenaar": 27201, "nauwkeurig": 15968, "##BM": 23220, "Watson": 7548, "Olympic": 5311, "regio": 18136, "lekke": 14939, "Lef": 4280, "bekritiseerd": 9004, "Brother": 1488, "gefilmd": 12018, "gereserveerd": 12362, "schermutseling": 18657, "hou": 13457, "##geweest": 25665, "##andpasta": 23978, "##sculpt": 28430, "teleurstellend": 19949, "##ody": 27382, "##bakker": 24161, "Borsato": 1374, "Bueno": 1516, "Hahaha": 3159, "##gezaaid": 25683, "##schonk": 28385, "##haal": 25830, "67": 479, "programmamaker": 17805, "Dobb": 2172, "zaklamp": 22659, "##croft": 24733, "rendier": 18204, "##RR": 23624, "150": 210, "december": 10548, "inkt": 13747, "kwartier": 14750, "spits": 19295, "intimiteit": 13849, "Maj": 4583, "reiger": 18150, "Schiphol": 6291, "bloes": 9679, "##oka": 27418, "##cla": 24642, "reageerde": 18009, "##ition": 26305, "ondernemer": 16396, "zak": 22650, "Rietveld": 5985, "Achilles": 595, "##borst": 24431, "Fidel": 2627, "badjas": 8691, "embleem": 11270, "eetlepel": 11165, "##schotten": 28396, "Mina": 4882, "Sto": 6687, "Abigail": 582, "Brent": 1448, "bezinning": 9496, "omgekeerd": 16247, "warmte": 22248, "##tha": 28969, "Connor": 1893, "servies": 18884, "afstand": 8323, "Za\u00efre": 7768, "mortier": 15809, "penningmeester": 17361, "##VG": 23721, "##koppel": 26594, "ring": 18330, "##kuur": 26658, "spelletjes": 19262, "##anta": 24004, "##uri": 29250, "krom": 14664, "Open": 5374, "bezit": 9497, "gangen": 11808, "rechtszaak": 18056, "stagiair": 19399, "geweigerd": 12584, "manifesteer": 15346, "handel": 13028, "verschijnsel": 21313, "Bok": 1337, "Maha": 4577, "Dus": 2294, "laagste": 14773, "##methoden": 27118, "Sterk": 6668, "dekbed": 10587, "Maggie": 4573, "Royce": 6111, "respecteren": 18244, "eindstand": 11224, "mouw": 15835, "daad": 10462, "uitgeroepen": 20534, "##BS": 23224, "##elli": 25086, "##scommissie": 28424, "blanken": 9630, "Games": 2806, "Schol": 6301, "##ctin": 24740, "##gunstig": 25818, "##reiniging": 28078, "nature": 15956, "contant": 10353, "opereerde": 16843, "maatschappij": 15273, "giftige": 12699, "##ipula": 26257, "Gott": 3020, "##nale": 27256, "blootstelling": 9696, "##room": 28244, "rijbaan": 18305, "Veiligheid": 7259, "Arb": 867, "barmhartig": 8746, "Gunnar": 3112, "##belangrijkste": 24242, "misgaa": 15679, "dreef": 10952, "eiland": 11208, "##sch": 28320, "beveiligen": 9380, "wonder": 22563, "hoogtepunt": 13419, "##overweging": 27642, "verdienstelijk": 20930, "versperd": 21357, "besprak": 9259, "##fficieel": 25263, "wanorde": 22230, "nachtclub": 15901, "rekte": 18173, "colbert": 10213, "verstikt": 21385, "reproductie": 18226,
[...]
